{
  "version": "1.0",
  "truncation": null,
  "padding": null,
  "added_tokens": [
    {
      "id": 0,
      "content": "<|endoftext|>",
      "single_word": false,
      "lstrip": false,
      "rstrip": false,
      "normalized": false,
      "special": true
    },
    {
      "id": 1,
      "content": "<|pad|>",
      "single_word": false,
      "lstrip": false,
      "rstrip": false,
      "normalized": false,
      "special": true
    },
    {
      "id": 2,
      "content": "<|unk|>",
      "single_word": false,
      "lstrip": false,
      "rstrip": false,
      "normalized": false,
      "special": true
    },
    {
      "id": 3,
      "content": "<|im_start|>",
      "single_word": false,
      "lstrip": false,
      "rstrip": false,
      "normalized": false,
      "special": true
    },
    {
      "id": 4,
      "content": "<|im_end|>",
      "single_word": false,
      "lstrip": false,
      "rstrip": false,
      "normalized": false,
      "special": true
    }
  ],
  "normalizer": {
    "type": "NFC"
  },
  "pre_tokenizer": {
    "type": "ByteLevel",
    "add_prefix_space": false,
    "trim_offsets": true,
    "use_regex": true
  },
  "post_processor": null,
  "decoder": {
    "type": "ByteLevel",
    "add_prefix_space": true,
    "trim_offsets": true,
    "use_regex": true
  },
  "model": {
    "type": "BPE",
    "dropout": null,
    "unk_token": "<|unk|>",
    "continuing_subword_prefix": null,
    "end_of_word_suffix": null,
    "fuse_unk": false,
    "byte_fallback": false,
    "ignore_merges": false,
    "vocab": {
      "<|endoftext|>": 0,
      "<|pad|>": 1,
      "<|unk|>": 2,
      "<|im_start|>": 3,
      "<|im_end|>": 4,
      "!": 5,
      "\"": 6,
      "#": 7,
      "$": 8,
      "%": 9,
      "&": 10,
      "'": 11,
      "(": 12,
      ")": 13,
      "*": 14,
      "+": 15,
      ",": 16,
      "-": 17,
      ".": 18,
      "/": 19,
      "0": 20,
      "1": 21,
      "2": 22,
      "3": 23,
      "4": 24,
      "5": 25,
      "6": 26,
      "7": 27,
      "8": 28,
      "9": 29,
      ":": 30,
      ";": 31,
      "<": 32,
      "=": 33,
      ">": 34,
      "?": 35,
      "@": 36,
      "A": 37,
      "B": 38,
      "C": 39,
      "D": 40,
      "E": 41,
      "F": 42,
      "G": 43,
      "H": 44,
      "I": 45,
      "J": 46,
      "K": 47,
      "L": 48,
      "M": 49,
      "N": 50,
      "O": 51,
      "P": 52,
      "Q": 53,
      "R": 54,
      "S": 55,
      "T": 56,
      "U": 57,
      "V": 58,
      "W": 59,
      "X": 60,
      "Y": 61,
      "Z": 62,
      "[": 63,
      "\\": 64,
      "]": 65,
      "^": 66,
      "_": 67,
      "`": 68,
      "a": 69,
      "b": 70,
      "c": 71,
      "d": 72,
      "e": 73,
      "f": 74,
      "g": 75,
      "h": 76,
      "i": 77,
      "j": 78,
      "k": 79,
      "l": 80,
      "m": 81,
      "n": 82,
      "o": 83,
      "p": 84,
      "q": 85,
      "r": 86,
      "s": 87,
      "t": 88,
      "u": 89,
      "v": 90,
      "w": 91,
      "x": 92,
      "y": 93,
      "z": 94,
      "|": 95,
      "}": 96,
      "~": 97,
      "¡": 98,
      "¢": 99,
      "£": 100,
      "¤": 101,
      "¥": 102,
      "¦": 103,
      "§": 104,
      "¨": 105,
      "©": 106,
      "ª": 107,
      "«": 108,
      "¬": 109,
      "®": 110,
      "¯": 111,
      "°": 112,
      "±": 113,
      "²": 114,
      "³": 115,
      "´": 116,
      "µ": 117,
      "¶": 118,
      "·": 119,
      "¸": 120,
      "¹": 121,
      "º": 122,
      "»": 123,
      "¼": 124,
      "½": 125,
      "¾": 126,
      "¿": 127,
      "Â": 128,
      "Ã": 129,
      "Ä": 130,
      "Å": 131,
      "Æ": 132,
      "Ç": 133,
      "È": 134,
      "É": 135,
      "Ê": 136,
      "Ë": 137,
      "Ì": 138,
      "Í": 139,
      "Î": 140,
      "Ï": 141,
      "Ð": 142,
      "Ñ": 143,
      "Ò": 144,
      "Ó": 145,
      "Ô": 146,
      "Õ": 147,
      "Ö": 148,
      "×": 149,
      "Ø": 150,
      "Ù": 151,
      "Ú": 152,
      "Û": 153,
      "ß": 154,
      "à": 155,
      "á": 156,
      "â": 157,
      "ã": 158,
      "ä": 159,
      "å": 160,
      "æ": 161,
      "ç": 162,
      "è": 163,
      "é": 164,
      "ê": 165,
      "ë": 166,
      "ì": 167,
      "í": 168,
      "ï": 169,
      "ð": 170,
      "Ċ": 171,
      "Ġ": 172,
      "Ģ": 173,
      "ģ": 174,
      "Ĥ": 175,
      "ĥ": 176,
      "Ħ": 177,
      "ħ": 178,
      "Ĩ": 179,
      "ĩ": 180,
      "Ī": 181,
      "ī": 182,
      "Ĭ": 183,
      "ĭ": 184,
      "Į": 185,
      "į": 186,
      "İ": 187,
      "ı": 188,
      "Ĳ": 189,
      "ĳ": 190,
      "Ĵ": 191,
      "ĵ": 192,
      "Ķ": 193,
      "ķ": 194,
      "ĸ": 195,
      "Ĺ": 196,
      "ĺ": 197,
      "Ļ": 198,
      "ļ": 199,
      "Ľ": 200,
      "ľ": 201,
      "Ŀ": 202,
      "ŀ": 203,
      "Ł": 204,
      "ł": 205,
      "Ń": 206,
      "Ġt": 207,
      "Ġa": 208,
      "he": 209,
      "in": 210,
      "re": 211,
      "Ġthe": 212,
      "on": 213,
      "er": 214,
      "Ġo": 215,
      "at": 216,
      "Ġs": 217,
      "en": 218,
      "Ġc": 219,
      "Ġw": 220,
      "es": 221,
      "is": 222,
      "nd": 223,
      "it": 224,
      "or": 225,
      "Ġp": 226,
      "al": 227,
      "Ġb": 228,
      "ed": 229,
      "an": 230,
      "Ġf": 231,
      "Ġof": 232,
      "ing": 233,
      "Ġin": 234,
      "ou": 235,
      "ar": 236,
      "Ġm": 237,
      "Ġand": 238,
      "Ġto": 239,
      "ic": 240,
      "Ġd": 241,
      "ion": 242,
      "le": 243,
      "ro": 244,
      "as": 245,
      "Ġh": 246,
      "Ġth": 247,
      "ent": 248,
      "ct": 249,
      "Ġe": 250,
      "il": 251,
      "Ġre": 252,
      "om": 253,
      "ve": 254,
      "Ġl": 255,
      "st": 256,
      "Ġn": 257,
      "ly": 258,
      "âĢ": 259,
      "Ġbe": 260,
      "Ġis": 261,
      "ĠT": 262,
      "se": 263,
      "Ġg": 264,
      "ol": 265,
      "ation": 266,
      "im": 267,
      "id": 268,
      "et": 269,
      "ut": 270,
      "ur": 271,
      "ot": 272,
      "ce": 273,
      "ow": 274,
      "ra": 275,
      "ch": 276,
      "Ġfor": 277,
      "ĠA": 278,
      "ig": 279,
      "Ġthat": 280,
      "Ġu": 281,
      "Ġon": 282,
      "ĠS": 283,
      "Ġst": 284,
      "ver": 285,
      "Ġy": 286,
      "ir": 287,
      "ĠI": 288,
      "ĠC": 289,
      "ul": 290,
      "ay": 291,
      "am": 292,
      "Ġas": 293,
      "ith": 294,
      "el": 295,
      "ad": 296,
      "Ġpro": 297,
      "her": 298,
      "Ġare": 299,
      "Ġcon": 300,
      "Ġan": 301,
      "Ġwith": 302,
      "Ġwh": 303,
      "Ġyou": 304,
      "if": 305,
      "Ġit": 306,
      "Ġor": 307,
      "Ġal": 308,
      "ter": 309,
      "od": 310,
      "ĠThe": 311,
      "ĠM": 312,
      "ment": 313,
      "ge": 314,
      "th": 315,
      "Ġ(": 316,
      "ate": 317,
      "op": 318,
      "ĠP": 319,
      "ist": 320,
      "Ġde": 321,
      "ers": 322,
      "Ġ1": 323,
      "Ġhe": 324,
      "ill": 325,
      "ies": 326,
      "ab": 327,
      "ess": 328,
      "Ġex": 329,
      "Ġsu": 330,
      "Ġwe": 331,
      "âĢĻ": 332,
      "ore": 333,
      "ect": 334,
      "ĠB": 335,
      "Ġcom": 336,
      "us": 337,
      "ity": 338,
      "est": 339,
      "Ġha": 340,
      "ive": 341,
      "res": 342,
      "ac": 343,
      "ld": 344,
      "rom": 345,
      "um": 346,
      "Ġv": 347,
      "ke": 348,
      "os": 349,
      "ĠH": 350,
      "Ġby": 351,
      "ant": 352,
      "em": 353,
      "qu": 354,
      "iv": 355,
      "ain": 356,
      "nt": 357,
      "Ġat": 358,
      "pp": 359,
      "ĠW": 360,
      "igh": 361,
      "Ġcan": 362,
      "Ġwas": 363,
      "ud": 364,
      "Ġfrom": 365,
      "Ġch": 366,
      "ĠD": 367,
      "and": 368,
      "Ġr": 369,
      "oc": 370,
      "Ġne": 371,
      "ĠE": 372,
      "ort": 373,
      "Ġse": 374,
      "ĠR": 375,
      "ial": 376,
      "ĠF": 377,
      "ure": 378,
      "ĠâĢ": 379,
      "Ġnot": 380,
      "Ġle": 381,
      "art": 382,
      "un": 383,
      "ical": 384,
      "Ġhave": 385,
      "Ġ2": 386,
      "ĠN": 387,
      "ĠG": 388,
      "ri": 389,
      "Ġsh": 390,
      "Ġen": 391,
      "og": 392,
      "ĠL": 393,
      "Ġthis": 394,
      "Ġsp": 395,
      "Ġab": 396,
      "ight": 397,
      "rou": 398,
      "pt": 399,
      "Ġwor": 400,
      "red": 401,
      "all": 402,
      "ich": 403,
      "ould": 404,
      "ther": 405,
      "The": 406,
      "gh": 407,
      "ome": 408,
      "ions": 409,
      "ost": 410,
      "our": 411,
      "du": 412,
      "Ġim": 413,
      "00": 414,
      "ated": 415,
      "Ġus": 416,
      "out": 417,
      "per": 418,
      "ine": 419,
      "Ġpl": 420,
      "Ġtheir": 421,
      "ard": 422,
      "ide": 423,
      "ag": 424,
      "ell": 425,
      "act": 426,
      "ff": 427,
      "Ġint": 428,
      "ans": 429,
      "ast": 430,
      "ear": 431,
      "pl": 432,
      "age": 433,
      "ĠO": 434,
      "ust": 435,
      "Ġwhich": 436,
      "ak": 437,
      "Ġk": 438,
      "Ġwhe": 439,
      "Ġthey": 440,
      "Ġyour": 441,
      "ous": 442,
      "ec": 443,
      "iz": 444,
      "ood": 445,
      "Ġall": 446,
      "ĠU": 447,
      "Ġwill": 448,
      "Ġinc": 449,
      "Ġad": 450,
      "Ġcont": 451,
      "ĠJ": 452,
      "ult": 453,
      "âĢĿ": 454,
      "Ġmore": 455,
      "end": 456,
      "ĠIn": 457,
      "ib": 458,
      "Ġdis": 459,
      "cc": 460,
      "ru": 461,
      "ap": 462,
      "Ġcomp": 463,
      "ong": 464,
      "vel": 465,
      "Ġres": 466,
      "Ġhas": 467,
      "ations": 468,
      "ia": 469,
      "ip": 470,
      "ere": 471,
      "ew": 472,
      "so": 473,
      "Ġdo": 474,
      "orm": 475,
      "ater": 476,
      "ary": 477,
      "ild": 478,
      "ĠTh": 479,
      "Ġother": 480,
      "are": 481,
      "Ġman": 482,
      "Ġcl": 483,
      "Ġbut": 484,
      "able": 485,
      "ally": 486,
      "ence": 487,
      "Ġwere": 488,
      "ks": 489,
      "ry": 490,
      "ĠâĢľ": 491,
      "ind": 492,
      "Ġone": 493,
      "Ġper": 494,
      "Ġalso": 495,
      "Ġte": 496,
      "ep": 497,
      "Ġimp": 498,
      "ach": 499,
      "Ġme": 500,
      "ents": 501,
      "ance": 502,
      "reat": 503,
      "ose": 504,
      "'s": 505,
      "ake": 506,
      "ign": 507,
      "ass": 508,
      "ress": 509,
      "Ġj": 510,
      "au": 511,
      "Ġso": 512,
      "ase": 513,
      "Ġout": 514,
      "ition": 515,
      "very": 516,
      "av": 517,
      "ction": 518,
      "ice": 519,
      "Ġpart": 520,
      "Ġar": 521,
      "Ġun": 522,
      "Ġabout": 523,
      "ime": 524,
      "Ġapp": 525,
      "Ġ19": 526,
      "one": 527,
      "ber": 528,
      "Ġev": 529,
      "ok": 530,
      "ount": 531,
      "Ġstud": 532,
      "ord": 533,
      "ace": 534,
      "Ġwho": 535,
      "ens": 536,
      "ory": 537,
      "ame": 538,
      "ire": 539,
      "Ġpe": 540,
      "ish": 541,
      "ack": 542,
      "Ġinf": 543,
      "Ġhis": 544,
      "ĠSt": 545,
      "Ġsy": 546,
      "Ġthem": 547,
      "ors": 548,
      "Ġsc": 549,
      "ub": 550,
      "Ġcomm": 551,
      "ike": 552,
      "ue": 553,
      "ite": 554,
      "now": 555,
      "ang": 556,
      "ree": 557,
      "ound": 558,
      "ces": 559,
      "ĠK": 560,
      "Ġup": 561,
      "ĠIt": 562,
      "Ġbec": 563,
      "low": 564,
      "Ġmay": 565,
      "Ġthan": 566,
      "Ġpre": 567,
      "olog": 568,
      "ric": 569,
      "ile": 570,
      "Ġqu": 571,
      "Ġsome": 572,
      "Ġyear": 573,
      ").": 574,
      "ople": 575,
      "iff": 576,
      "ie": 577,
      "Ġrec": 578,
      "ays": 579,
      "Ġthere": 580,
      "Ġbeen": 581,
      "ates": 582,
      "ail": 583,
      "Ġ\"": 584,
      "nder": 585,
      "Ġwhen": 586,
      "ĠCh": 587,
      "ian": 588,
      "ings": 589,
      "Ġinto": 590,
      "Ġgo": 591,
      "ough": 592,
      "Ġag": 593,
      "Ġits": 594,
      "mer": 595,
      "Ġtime": 596,
      "Ġtra": 597,
      "Ġwork": 598,
      "Ġover": 599,
      "ren": 600,
      "ph": 601,
      "Ġthese": 602,
      "ĠThis": 603,
      "Ġhow": 604,
      "Ġpeople": 605,
      "rit": 606,
      "ons": 607,
      "rough": 608,
      "te": 609,
      "lud": 610,
      "ual": 611,
      "erv": 612,
      "vers": 613,
      "Ġdiff": 614,
      "Ġour": 615,
      "ause": 616,
      "Ġhad": 617,
      "Ġcons": 618,
      "Ġ20": 619,
      "ms": 620,
      "Ġuse": 621,
      "Ġra": 622,
      "Ġro": 623,
      "ove": 624,
      "Ġtr": 625,
      "ond": 626,
      "Ġcol": 627,
      "ĠV": 628,
      "tern": 629,
      "Ġact": 630,
      "Ġbet": 631,
      "ll": 632,
      "ific": 633,
      "Ġsa": 634,
      "Ġmost": 635,
      "Ġknow": 636,
      "Ġlike": 637,
      "int": 638,
      "Ġunder": 639,
      "lic": 640,
      "irst": 641,
      "lect": 642,
      "we": 643,
      "Ġbl": 644,
      "ments": 645,
      "Ġwould": 646,
      "alth": 647,
      "ities": 648,
      "Ġdes": 649,
      "ook": 650,
      "ning": 651,
      "ious": 652,
      "ys": 653,
      "velop": 654,
      "ject": 655,
      "Ġacc": 656,
      "Ġneed": 657,
      "row": 658,
      "Ġnew": 659,
      "Ġ3": 660,
      "les": 661,
      "stem": 662,
      "Ġtw": 663,
      "Ġsuch": 664,
      "ĠY": 665,
      "Ġrel": 666,
      "Ġif": 667,
      "ffect": 668,
      "Ġrep": 669,
      "Ġchild": 670,
      "Ġinclud": 671,
      "ient": 672,
      "Ġany": 673,
      "Ġhel": 674,
      "ational": 675,
      "ob": 676,
      "Ġgen": 677,
      "hed": 678,
      "Ġhelp": 679,
      "ative": 680,
      "cess": 681,
      "Ġwhat": 682,
      "ular": 683,
      "ple": 684,
      "Ġprov": 685,
      "Ġonly": 686,
      "Ġprodu": 687,
      "Ġused": 688,
      "ating": 689,
      "Ġpr": 690,
      "Ġph": 691,
      "Ġno": 692,
      "ced": 693,
      "Ġmany": 694,
      "Ġthrough": 695,
      "ool": 696,
      "Ġdevelop": 697,
      "Ġfirst": 698,
      "yp": 699,
      "Ġoff": 700,
      "Ġam": 701,
      "ov": 702,
      "ĠUn": 703,
      "Ġind": 704,
      "iet": 705,
      "fter": 706,
      "round": 707,
      "oss": 708,
      "Ġfe": 709,
      "uc": 710,
      "Ġreg": 711,
      "Ġspec": 712,
      "Ġem": 713,
      "ise": 714,
      "Ġpo": 715,
      "Ġac": 716,
      "hen": 717,
      "ts": 718,
      "uring": 719,
      "ark": 720,
      "Ġexp": 721,
      "erm": 722,
      "Ġsystem": 723,
      "ics": 724,
      "Ġtwo": 725,
      "ful": 726,
      "rib": 727,
      "ink": 728,
      "ath": 729,
      "Ġdiffere": 730,
      "),": 731,
      "eth": 732,
      "ne": 733,
      "iss": 734,
      "oth": 735,
      "ility": 736,
      "old": 737,
      "ied": 738,
      "Ġdec": 739,
      "Ġob": 740,
      "ible": 741,
      "Ġsur": 742,
      "Ġadd": 743,
      "Ġass": 744,
      "Ġatt": 745,
      "ased": 746,
      "als": 747,
      "rop": 748,
      "ĠâĢĵ": 749,
      "ten": 750,
      "ert": 751,
      "ife": 752,
      "Ġshould": 753,
      "ange": 754,
      "ower": 755,
      "Ġsupp": 756,
      "ĠHe": 757,
      "fore": 758,
      "Ġwell": 759,
      "In": 760,
      "Ġyears": 761,
      "Ġfl": 762,
      "arch": 763,
      "ures": 764,
      "ble": 765,
      "wn": 766,
      "Ġrem": 767,
      "ram": 768,
      "Ġwater": 769,
      "ween": 770,
      "ng": 771,
      "Ġinv": 772,
      "ract": 773,
      "own": 774,
      "sel": 775,
      "Ġcould": 776,
      "Ġco": 777,
      "ade": 778,
      "Ġsm": 779,
      "Ġhealth": 780,
      "gan": 781,
      "Ġsub": 782,
      "ution": 783,
      "Ġwhere": 784,
      "Ġbetween": 785,
      "Ġhigh": 786,
      "its": 787,
      "Ġ201": 788,
      "Ġmake": 789,
      "hes": 790,
      "Ġ-": 791,
      "aw": 792,
      "cy": 793,
      "Ġget": 794,
      "ily": 795,
      "Ġpres": 796,
      "ick": 797,
      "uch": 798,
      "Ġrese": 799,
      "ever": 800,
      "Ġbu": 801,
      "Ġear": 802,
      "Ġher": 803,
      "ident": 804,
      "Ġtrans": 805,
      "Ġ4": 806,
      "Ġimport": 807,
      "ting": 808,
      "ants": 809,
      "Ġpers": 810,
      "ĠAs": 811,
      "chn": 812,
      "Ġ200": 813,
      "xt": 814,
      "ited": 815,
      "form": 816,
      "Ġinter": 817,
      "chool": 818,
      "ural": 819,
      "ience": 820,
      "Ġpol": 821,
      "Ġinst": 822,
      "Ġdisc": 823,
      "Ġ5": 824,
      "meric": 825,
      "ology": 826,
      "ists": 827,
      "ivers": 828,
      "Ġnum": 829,
      "Ġexam": 830,
      "Ġform": 831,
      "Ġmod": 832,
      "Ġlear": 833,
      "ron": 834,
      "ines": 835,
      "Ġfound": 836,
      "land": 837,
      "ually": 838,
      "Ġvery": 839,
      "Ġeven": 840,
      "Ġbecause": 841,
      "ef": 842,
      "gy": 843,
      "Ġmed": 844,
      "Ġexper": 845,
      "Ġlong": 846,
      "Ġjust": 847,
      "Ġdifferent": 848,
      "hat": 849,
      "Ġinform": 850,
      "Ġthen": 851,
      "Ġworld": 852,
      "Ġafter": 853,
      "Ġincre": 854,
      "Ġlar": 855,
      "Ġsim": 856,
      "Ġway": 857,
      "Ġcent": 858,
      "urn": 859,
      "Ġeffect": 860,
      "ins": 861,
      "ict": 862,
      "other": 863,
      "oy": 864,
      "Ġhum": 865,
      "ata": 866,
      "Ġcount": 867,
      "ism": 868,
      "Ġdet": 869,
      "ness": 870,
      "ft": 871,
      "Ġcar": 872,
      "ically": 873,
      "ature": 874,
      "aking": 875,
      "Ġsee": 876,
      "Ġed": 877,
      "get": 878,
      "cept": 879,
      "Ġtyp": 880,
      "Ġke": 881,
      "Ġthose": 882,
      "ĠAmeric": 883,
      "Ġpub": 884,
      "Ġref": 885,
      "vent": 886,
      "Ġresp": 887,
      "Ġsaid": 888,
      "cer": 889,
      "Ġfol": 890,
      "ck": 891,
      "ives": 892,
      "Ġcall": 893,
      "Ġchildren": 894,
      "Ġevery": 895,
      "Ġvar": 896,
      "Ġgener": 897,
      "Ġprog": 898,
      "Ġsign": 899,
      "Ġsec": 900,
      "ues": 901,
      "Ġext": 902,
      ".âĢĿ": 903,
      "Ġloc": 904,
      "arm": 905,
      "tle": 906,
      "Ġprocess": 907,
      "iew": 908,
      "Ġbeing": 909,
      "omm": 910,
      "con": 911,
      "Ġfact": 912,
      "Ġpartic": 913,
      "ases": 914,
      "Ġ18": 915,
      "Ġeach": 916,
      "Ġsoc": 917,
      "Ġpat": 918,
      "Ġresult": 919,
      "Ġset": 920,
      "ros": 921,
      "Ġimportant": 922,
      "roup": 923,
      "ork": 924,
      "ruct": 925,
      "Ġca": 926,
      "Ġlife": 927,
      "led": 928,
      "Ġtechn": 929,
      "ds": 930,
      "Ġgra": 931,
      "Ġmuch": 932,
      "iron": 933,
      "vern": 934,
      "Th": 935,
      "Ġshe": 936,
      "Ġmy": 937,
      "Ġrequ": 938,
      "Ġinformation": 939,
      "Ġmon": 940,
      "Ġcre": 941,
      "Ġfam": 942,
      "Ġown": 943,
      "Ġart": 944,
      "ages": 945,
      "ody": 946,
      "Ġfood": 947,
      "ĠWe": 948,
      "cent": 949,
      "Ġcommun": 950,
      "Ġdep": 951,
      "Ġread": 952,
      "Ġdist": 953,
      "ĠThey": 954,
      "Ġduring": 955,
      "ather": 956,
      "ĠAl": 957,
      "Ġdef": 958,
      "ward": 959,
      "imes": 960,
      "Ġlead": 961,
      "ized": 962,
      "Ġent": 963,
      "Ġstudents": 964,
      "Ġlevel": 965,
      "Ġfollow": 966,
      "Ġright": 967,
      "Ġsame": 968,
      "ices": 969,
      "ved": 970,
      "Ġdi": 971,
      "Ġaut": 972,
      "gg": 973,
      "Ġdoes": 974,
      "ĠPro": 975,
      "Ġmade": 976,
      "Ġsk": 977,
      "ection": 978,
      "Ġstudy": 979,
      "Ġcur": 980,
      "Ġfind": 981,
      "Ġgrow": 982,
      "ize": 983,
      "ĠIf": 984,
      "any": 985,
      "Ġperson": 986,
      "hip": 987,
      "Ġins": 988,
      "Ġproble": 989,
      "Ġend": 990,
      "Ġback": 991,
      "Ġche": 992,
      "Ġgood": 993,
      "Ġstr": 994,
      "und": 995,
      "Ġdata": 996,
      "Ġav": 997,
      "ted": 998,
      "Ġboth": 999,
      "Ġmin": 1000,
      "ĠRe": 1001,
      "Ġbefore": 1002,
      "Ġschool": 1003,
      "Ġgroup": 1004,
      "viron": 1005,
      "Ġpop": 1006,
      "ĠFor": 1007,
      "Ġshow": 1008,
      "Ġexpl": 1009,
      "Ġhist": 1010,
      "Ġsmall": 1011,
      "Ġusing": 1012,
      "ars": 1013,
      "Ġcomple": 1014,
      "stand": 1015,
      "..": 1016,
      "Ġprot": 1017,
      "io": 1018,
      "omen": 1019,
      "Ġbo": 1020,
      "ality": 1021,
      "Ġ6": 1022,
      "ially": 1023,
      "ale": 1024,
      "Ġtreat": 1025,
      "Ġagain": 1026,
      "ince": 1027,
      "ĠAn": 1028,
      "Ġmain": 1029,
      "Ġtest": 1030,
      "the": 1031,
      "iversity": 1032,
      "imate": 1033,
      "ĠCon": 1034,
      "Ġoften": 1035,
      "Ġgl": 1036,
      "nce": 1037,
      "Ġcor": 1038,
      "ty": 1039,
      "read": 1040,
      "der": 1041,
      "ined": 1042,
      "Ġwhile": 1043,
      "000": 1044,
      "Ġless": 1045,
      "ĠHow": 1046,
      "Ġsol": 1047,
      "rol": 1048,
      "ĠAr": 1049,
      "ivid": 1050,
      "iel": 1051,
      "up": 1052,
      "Ġstate": 1053,
      "ax": 1054,
      "ergy": 1055,
      "inal": 1056,
      "Ġday": 1057,
      "Ġposs": 1058,
      "ished": 1059,
      "Ġris": 1060,
      "Ġnow": 1061,
      "Ġtake": 1062,
      "Ġlit": 1063,
      "Ġval": 1064,
      "Ġdise": 1065,
      "ĠInd": 1066,
      "ute": 1067,
      "Ġpower": 1068,
      "ury": 1069,
      "ix": 1070,
      "Ġresearch": 1071,
      "Ġvis": 1072,
      "akes": 1073,
      "ock": 1074,
      "Ġprovid": 1075,
      "Ġcell": 1076,
      "ien": 1077,
      "Ġserv": 1078,
      "Ġhuman": 1079,
      "Ġnumber": 1080,
      "vironment": 1081,
      "irect": 1082,
      "ran": 1083,
      "ral": 1084,
      "Ġocc": 1085,
      "Ġorgan": 1086,
      "Ġhim": 1087,
      "Ġsupport": 1088,
      "dition": 1089,
      "Ġaround": 1090,
      "Ġmem": 1091,
      "ier": 1092,
      "Ġfun": 1093,
      "oh": 1094,
      "Ġlook": 1095,
      "Ġdown": 1096,
      "Ġdesign": 1097,
      "ulation": 1098,
      "iety": 1099,
      "ĠSp": 1100,
      "Ġactiv": 1101,
      "iving": 1102,
      "ered": 1103,
      "hers": 1104,
      "Ġthree": 1105,
      "ex": 1106,
      "iqu": 1107,
      "Ġbody": 1108,
      "ves": 1109,
      "Ġelect": 1110,
      "Ġhand": 1111,
      "Ġchar": 1112,
      "ĠNew": 1113,
      "ven": 1114,
      "Ġest": 1115,
      "Ġstart": 1116,
      "ters": 1117,
      "Ġland": 1118,
      "Ġredu": 1119,
      "Ġclass": 1120,
      "uss": 1121,
      "Ġmust": 1122,
      "air": 1123,
      "ital": 1124,
      "Ġgovern": 1125,
      "day": 1126,
      "Ġplan": 1127,
      "ĠBut": 1128,
      "Ġcommon": 1129,
      "Ġgreat": 1130,
      "Ġbel": 1131,
      "Ġpoint": 1132,
      "Ġdid": 1133,
      "ger": 1134,
      "ouse": 1135,
      "aj": 1136,
      "20": 1137,
      "Ġconf": 1138,
      "rent": 1139,
      "Ġser": 1140,
      "ains": 1141,
      "cl": 1142,
      "Ġcontin": 1143,
      "This": 1144,
      "ving": 1145,
      "ave": 1146,
      ",âĢĿ": 1147,
      "âĢĶ": 1148,
      "ĠSc": 1149,
      "Ġexample": 1150,
      "Ġlarge": 1151,
      "Ġcle": 1152,
      "Ġ10": 1153,
      "Ġreport": 1154,
      "self": 1155,
      "Ġincluding": 1156,
      "ah": 1157,
      "ross": 1158,
      "gen": 1159,
      "ared": 1160,
      "Ġthough": 1161,
      "Ġop": 1162,
      "Ġcare": 1163,
      "Ġallow": 1164,
      "Ġret": 1165,
      "Ġcour": 1166,
      "Ġbuild": 1167,
      "19": 1168,
      "itions": 1169,
      "ĠIs": 1170,
      "Ġconst": 1171,
      "Ġcalled": 1172,
      "Ġpublic": 1173,
      "rain": 1174,
      "ium": 1175,
      "Ġ7": 1176,
      "ĠYou": 1177,
      "Ġunderstand": 1178,
      "ring": 1179,
      "acter": 1180,
      "Ġeduc": 1181,
      "way": 1182,
      "ner": 1183,
      "ional": 1184,
      "Ġstill": 1185,
      "Ġmet": 1186,
      "ull": 1187,
      "ash": 1188,
      "Ġsom": 1189,
      "Ġadv": 1190,
      "aterial": 1191,
      "ĠThere": 1192,
      "Ġthink": 1193,
      "âĢľ": 1194,
      "orn": 1195,
      "iver": 1196,
      "oms": 1197,
      "eg": 1198,
      "ĠAnd": 1199,
      "Ġknown": 1200,
      "Ġide": 1201,
      "Ġappro": 1202,
      "Ġpract": 1203,
      "ee": 1204,
      "Ġwrit": 1205,
      "com": 1206,
      "Ġgu": 1207,
      "iod": 1208,
      "erest": 1209,
      "ected": 1210,
      "osed": 1211,
      "esp": 1212,
      "outh": 1213,
      "conom": 1214,
      "Ġeas": 1215,
      "Ġequ": 1216,
      "Ġfew": 1217,
      "els": 1218,
      "iven": 1219,
      "Ġgre": 1220,
      "Ġdr": 1221,
      "Ġquest": 1222,
      "Ġbeh": 1223,
      "ids": 1224,
      "ired": 1225,
      "ĠâĢĺ": 1226,
      "Ġmight": 1227,
      "Ġ8": 1228,
      "ividual": 1229,
      "Ġplace": 1230,
      "ries": 1231,
      "Ġproduct": 1232,
      "ination": 1233,
      "Ġmat": 1234,
      "inc": 1235,
      "Ġstand": 1236,
      ".\"": 1237,
      "Ġchang": 1238,
      "bers": 1239,
      "de": 1240,
      "Ġiss": 1241,
      "ential": 1242,
      "Ġenvironment": 1243,
      "oci": 1244,
      "Ġenergy": 1245,
      "lish": 1246,
      "itive": 1247,
      "ĠThese": 1248,
      "ense": 1249,
      "ization": 1250,
      "Ġwithout": 1251,
      "Ġdem": 1252,
      "Ġcaus": 1253,
      "Ġlearn": 1254,
      "Ġtem": 1255,
      "ording": 1256,
      "ources": 1257,
      "Ġwant": 1258,
      "ason": 1259,
      "Ġchange": 1260,
      "Ġsym": 1261,
      "ĠWh": 1262,
      "Ġphys": 1263,
      "oun": 1264,
      "Ġwithin": 1265,
      "eral": 1266,
      "Ġmaterial": 1267,
      "ertain": 1268,
      "Ġdon": 1269,
      "ering": 1270,
      "ethod": 1271,
      "ians": 1272,
      "ption": 1273,
      "ior": 1274,
      "amp": 1275,
      "Ġplay": 1276,
      "Ġpresent": 1277,
      "Ġident": 1278,
      ".,": 1279,
      "Ġbre": 1280,
      "Ġproject": 1281,
      "Ġimpro": 1282,
      "ĠEng": 1283,
      "illion": 1284,
      "me": 1285,
      "ived": 1286,
      "ffic": 1287,
      "Ġanother": 1288,
      "Ġpur": 1289,
      "Ġsl": 1290,
      "Ġdevelopment": 1291,
      "Ġindividual": 1292,
      "Ġve": 1293,
      "raph": 1294,
      "Ġben": 1295,
      "alk": 1296,
      "Ġdisease": 1297,
      "sp": 1298,
      "ration": 1299,
      "Ġprof": 1300,
      "ĠUniversity": 1301,
      "Ġwomen": 1302,
      "Ġlight": 1303,
      "Ġdirect": 1304,
      "Ġcap": 1305,
      "Ġpot": 1306,
      "Ġarea": 1307,
      "Ġimm": 1308,
      "Ġpass": 1309,
      "line": 1310,
      "Ġair": 1311,
      "orth": 1312,
      "eng": 1313,
      "Ġhome": 1314,
      "less": 1315,
      "ets": 1316,
      "iness": 1317,
      "arent": 1318,
      "Ġmus": 1319,
      "angu": 1320,
      "ajor": 1321,
      "Ġsit": 1322,
      "ability": 1323,
      "ĠAmerican": 1324,
      "Ġ9": 1325,
      "to": 1326,
      "Ġinterest": 1327,
      "Ġinclude": 1328,
      "Ġpos": 1329,
      "Ġrisk": 1330,
      "Ġsocial": 1331,
      "Ġcult": 1332,
      "man": 1333,
      "ĠDe": 1334,
      "Ġbas": 1335,
      "Ġbest": 1336,
      "Ġrest": 1337,
      "Ġdesc": 1338,
      "It": 1339,
      "agn": 1340,
      "ental": 1341,
      "Ġeng": 1342,
      "ris": 1343,
      "ton": 1344,
      "ccess": 1345,
      "erc": 1346,
      "'t": 1347,
      "Ġ199": 1348,
      "Ġeconom": 1349,
      "Ġblood": 1350,
      "ified": 1351,
      "Ġbelie": 1352,
      "Ġpain": 1353,
      "ify": 1354,
      "||": 1355,
      "Ġcontrol": 1356,
      "Ġlaw": 1357,
      "Ġant": 1358,
      "ats": 1359,
      "bs": 1360,
      "Ġleg": 1361,
      "cing": 1362,
      "Ġgovernment": 1363,
      "rodu": 1364,
      "Ġwar": 1365,
      "Ġbetter": 1366,
      "arc": 1367,
      "Ġmeas": 1368,
      "Ġold": 1369,
      "Ġopp": 1370,
      "ological": 1371,
      "ield": 1372,
      "ently": 1373,
      "Ġbecome": 1374,
      "ways": 1375,
      "Ġmethod": 1376,
      "lished": 1377,
      "ained": 1378,
      "Ġsever": 1379,
      "Ġearly": 1380,
      "Ġagainst": 1381,
      "Ġlow": 1382,
      "Ġprogram": 1383,
      "rap": 1384,
      "atic": 1385,
      "Ġanal": 1386,
      "Ġmark": 1387,
      "Ġmil": 1388,
      "Ġpar": 1389,
      "hor": 1390,
      "az": 1391,
      "ug": 1392,
      "Ġproper": 1393,
      "Ġmove": 1394,
      "ead": 1395,
      "Ġanim": 1396,
      "Ġnat": 1397,
      "Ġtoo": 1398,
      "Ġmeans": 1399,
      "ĠAd": 1400,
      "ĠAt": 1401,
      "Ġfamily": 1402,
      "ining": 1403,
      "Ġreal": 1404,
      "Ġprovide": 1405,
      "ĠHowever": 1406,
      "Ġorder": 1407,
      "Ġkeep": 1408,
      "gin": 1409,
      "ision": 1410,
      "here": 1411,
      "Ġsaf": 1412,
      "Ġhere": 1413,
      "Ġele": 1414,
      "Ġsecond": 1415,
      "ĠSh": 1416,
      "ware": 1417,
      "Ġmajor": 1418,
      "ories": 1419,
      "Ġlast": 1420,
      "Ġtop": 1421,
      "Ġter": 1422,
      "Ġdev": 1423,
      "ource": 1424,
      "ĠâĢĶ": 1425,
      "Ġpercent": 1426,
      "Ġhistory": 1427,
      "ret": 1428,
      "Ġparticular": 1429,
      "ik": 1430,
      "ern": 1431,
      "Ġtre": 1432,
      "ider": 1433,
      "ention": 1434,
      "ĠPh": 1435,
      "ission": 1436,
      "Ġunt": 1437,
      "ills": 1438,
      "Ġoper": 1439,
      "Ġcause": 1440,
      "Ġcurrent": 1441,
      "Ġfore": 1442,
      "ards": 1443,
      "use": 1444,
      "Ġpossible": 1445,
      "ank": 1446,
      "Ġsay": 1447,
      "icle": 1448,
      "Ġnear": 1449,
      "Ġavail": 1450,
      "rist": 1451,
      "Ġindu": 1452,
      "ote": 1453,
      "ĠUnited": 1454,
      "Ġoccur": 1455,
      "Ġaddition": 1456,
      "Ġfin": 1457,
      "âĢĵ": 1458,
      "Ġperiod": 1459,
      "ĠWhen": 1460,
      "Ġable": 1461,
      "ples": 1462,
      "10": 1463,
      "Ġseveral": 1464,
      "eed": 1465,
      "Ġbenef": 1466,
      "Ġhapp": 1467,
      "idence": 1468,
      "ients": 1469,
      "irc": 1470,
      "oid": 1471,
      "Ġlearning": 1472,
      "Ġinvol": 1473,
      "Ġscient": 1474,
      "Ġhig": 1475,
      "ĠEx": 1476,
      "omp": 1477,
      "Ġperform": 1478,
      "Ġet": 1479,
      "ĠCol": 1480,
      "Ġsince": 1481,
      "Ġopen": 1482,
      "ĠCan": 1483,
      "ĠRes": 1484,
      "Ġthings": 1485,
      "Ġbus": 1486,
      "Ġaffect": 1487,
      "Ġareas": 1488,
      "Ġfeel": 1489,
      "Ġinfl": 1490,
      "Ġ&": 1491,
      "Ġmar": 1492,
      "ator": 1493,
      "view": 1494,
      "Ġmen": 1495,
      "Ġtreatment": 1496,
      "Ġlangu": 1497,
      "ina": 1498,
      "Ġsays": 1499,
      "ĠCl": 1500,
      "Ġnon": 1501,
      "What": 1502,
      "ograph": 1503,
      "Ġprom": 1504,
      "Ġothers": 1505,
      "Ġfre": 1506,
      "Ġel": 1507,
      "Ġlim": 1508,
      "ogn": 1509,
      "sy": 1510,
      "Ġmean": 1511,
      "though": 1512,
      "Ġcal": 1513,
      "ĠPl": 1514,
      "Ġbased": 1515,
      "urop": 1516,
      "Ġorig": 1517,
      "Ġspecies": 1518,
      "ĠComm": 1519,
      "ĠTo": 1520,
      "Ġplant": 1521,
      "Ġ15": 1522,
      "Ġcost": 1523,
      "Ġcountry": 1524,
      "port": 1525,
      "ole": 1526,
      "Ġlo": 1527,
      "Ġtimes": 1528,
      "Ġcertain": 1529,
      "ames": 1530,
      "Ġsignific": 1531,
      "Ġwee": 1532,
      "Ġamong": 1533,
      "ĠStates": 1534,
      "Ġavailable": 1535,
      "ilar": 1536,
      "par": 1537,
      "Ġconn": 1538,
      "ĠSe": 1539,
      "Ġaccess": 1540,
      "osp": 1541,
      "ploy": 1542,
      "Ġfour": 1543,
      "ocus": 1544,
      "Ġfac": 1545,
      "Ġcond": 1546,
      "ended": 1547,
      "Ġfollowing": 1548,
      "Ġstruct": 1549,
      "ends": 1550,
      ",\"": 1551,
      "be": 1552,
      "Ġhead": 1553,
      "Ġmonth": 1554,
      "Ġname": 1555,
      "Ġage": 1556,
      "Ġcase": 1557,
      "Ġprevent": 1558,
      "Ġrun": 1559,
      "Ġobject": 1560,
      "ling": 1561,
      "Ġpost": 1562,
      "Ġsuccess": 1563,
      "Ġcells": 1564,
      "Ġlocal": 1565,
      "Ġlab": 1566,
      "We": 1567,
      "urther": 1568,
      "ably": 1569,
      "Ġcome": 1570,
      "ĠGod": 1571,
      "Ġfree": 1572,
      "Ġlittle": 1573,
      "Ġdel": 1574,
      "sc": 1575,
      "Ġview": 1576,
      "Ġrece": 1577,
      "Ġfar": 1578,
      "elf": 1579,
      "ised": 1580,
      "ots": 1581,
      "of": 1582,
      "Ġcreat": 1583,
      "Ġbir": 1584,
      "Ġproblem": 1585,
      "rid": 1586,
      "Ġpress": 1587,
      "Ġput": 1588,
      "ĠQ": 1589,
      "urope": 1590,
      "stit": 1591,
      "ĠZ": 1592,
      "Ġlet": 1593,
      "work": 1594,
      "If": 1595,
      "Ġlater": 1596,
      "Ġintern": 1597,
      "Ġlevels": 1598,
      "Ġamount": 1599,
      "Ġproblems": 1600,
      "Ġbro": 1601,
      "ething": 1602,
      "Ġlist": 1603,
      "une": 1604,
      "ope": 1605,
      "oint": 1606,
      "ĠCent": 1607,
      "Ġtype": 1608,
      "Ġbi": 1609,
      "ggest": 1610,
      "Ġyoung": 1611,
      "Ġindust": 1612,
      "Ġuntil": 1613,
      "ression": 1614,
      "ĠNational": 1615,
      "icult": 1616,
      "hy": 1617,
      "resent": 1618,
      "Ġcomput": 1619,
      "Ġmaking": 1620,
      "Ġhard": 1621,
      "Ġbook": 1622,
      "ĠEn": 1623,
      "Ġimpact": 1624,
      "Ġseem": 1625,
      "Ġnatural": 1626,
      "Ġcho": 1627,
      "As": 1628,
      "uture": 1629,
      "ĠAf": 1630,
      "ately": 1631,
      "Ġsw": 1632,
      "Ġheart": 1633,
      "ither": 1634,
      "ged": 1635,
      "Ġassoci": 1636,
      "ortun": 1637,
      "Ġturn": 1638,
      "Ġshort": 1639,
      "Ġsuggest": 1640,
      "Ġvol": 1641,
      "olution": 1642,
      "ances": 1643,
      "Ġflow": 1644,
      "Ġfocus": 1645,
      "por": 1646,
      "ones": 1647,
      "Ġinvest": 1648,
      "ĠEurope": 1649,
      "aper": 1650,
      "oks": 1651,
      "Ġ.": 1652,
      "Ġpolit": 1653,
      "Ġeducation": 1654,
      "Ġdeterm": 1655,
      "Ġgiven": 1656,
      "Ġmult": 1657,
      "over": 1658,
      "ured": 1659,
      "Ġcirc": 1660,
      "Ġdue": 1661,
      "Ġess": 1662,
      "ĠUS": 1663,
      "Ġdra": 1664,
      "aken": 1665,
      "ledge": 1666,
      "Ġsomething": 1667,
      "ication": 1668,
      "Ġlikely": 1669,
      "ĠBe": 1670,
      "Ġrad": 1671,
      "not": 1672,
      "Ġcancer": 1673,
      "ides": 1674,
      "atory": 1675,
      "Ġfunction": 1676,
      "Ġalong": 1677,
      "Ġsignificant": 1678,
      "agement": 1679,
      "ĠChrist": 1680,
      "tt": 1681,
      "Ġincrease": 1682,
      "Ġ17": 1683,
      "Ġcourse": 1684,
      "face": 1685,
      "Ġcomb": 1686,
      "vious": 1687,
      "ox": 1688,
      "Ġdeath": 1689,
      "Ġalways": 1690,
      "anc": 1691,
      "Ġ[": 1692,
      "aps": 1693,
      "Ġvir": 1694,
      "ĠTe": 1695,
      "Ġ$": 1696,
      "ending": 1697,
      "Ġ12": 1698,
      "Ġsystems": 1699,
      "Ġteac": 1700,
      "Ġtoday": 1701,
      "Ġfil": 1702,
      "cle": 1703,
      "ptoms": 1704,
      "pect": 1705,
      "ned": 1706,
      "Ġrele": 1707,
      "Ġdays": 1708,
      "orld": 1709,
      "Ġappear": 1710,
      "Ġusually": 1711,
      "ecially": 1712,
      "Ġspecific": 1713,
      "Ġneeds": 1714,
      "Ġclear": 1715,
      "Ġpast": 1716,
      "asing": 1717,
      "Ġgive": 1718,
      "Ġmillion": 1719,
      "Ġexperience": 1720,
      "ĠAll": 1721,
      "Ġbehav": 1722,
      "Ġcentury": 1723,
      "Ġsing": 1724,
      "Ġconsum": 1725,
      "Ġcreate": 1726,
      "ĠOr": 1727,
      "Ġobs": 1728,
      "ried": 1729,
      "Ġcommunity": 1730,
      "Ġtemper": 1731,
      "hem": 1732,
      "Ġlanguage": 1733,
      "ĠWhat": 1734,
      "ĠOn": 1735,
      "ps": 1736,
      "Ġbrain": 1737,
      "Ġdifficult": 1738,
      "Ġdam": 1739,
      "There": 1740,
      "Ġconditions": 1741,
      "etic": 1742,
      "Ġnext": 1743,
      "Ġwords": 1744,
      "Ġdescrib": 1745,
      "rate": 1746,
      "Ġey": 1747,
      "Ġauthor": 1748,
      "Ġresults": 1749,
      "Ġhy": 1750,
      "Ġtechnology": 1751,
      "Ġwhy": 1752,
      "Ġrecord": 1753,
      "ively": 1754,
      "Ġpopulation": 1755,
      "pr": 1756,
      "Ġenc": 1757,
      "ĠMed": 1758,
      "ont": 1759,
      "ember": 1760,
      "aster": 1761,
      "ored": 1762,
      "Ġfuture": 1763,
      "ww": 1764,
      "ape": 1765,
      "obal": 1766,
      "Ġparent": 1767,
      "Ġchanges": 1768,
      "Ġabove": 1769,
      "ators": 1770,
      "especially": 1771,
      "Ġspace": 1772,
      "Ġapplic": 1773,
      "ruction": 1774,
      "Ġexist": 1775,
      "ours": 1776,
      "idd": 1777,
      "How": 1778,
      "Ġestab": 1779,
      "most": 1780,
      "ohn": 1781,
      "Ġbegin": 1782,
      "Ġspecial": 1783,
      "Ġresearc": 1784,
      "Ġsimilar": 1785,
      "Ġstrong": 1786,
      "Ġdiscuss": 1787,
      "Ġacross": 1788,
      "Ġill": 1789,
      "Ġcrit": 1790,
      "ĠEar": 1791,
      "ribut": 1792,
      "mit": 1793,
      "selves": 1794,
      "oney": 1795,
      "Ġ16": 1796,
      "Ġcountries": 1797,
      "min": 1798,
      "Ġkind": 1799,
      "ĠSo": 1800,
      "Ġtry": 1801,
      "Ġmov": 1802,
      "Ġline": 1803,
      "rug": 1804,
      "Ġer": 1805,
      "Ġcharacter": 1806,
      "Ġnever": 1807,
      "ĠAfric": 1808,
      "Ġask": 1809,
      "app": 1810,
      "Ġhigher": 1811,
      "Ġleast": 1812,
      "Ġnecess": 1813,
      "orts": 1814,
      "Ġvarious": 1815,
      "ĠBrit": 1816,
      "Ġrespons": 1817,
      "ler": 1818,
      "ique": 1819,
      "ym": 1820,
      "Ġprop": 1821,
      "atch": 1822,
      "Ġprofess": 1823,
      "omes": 1824,
      "Ġcomplete": 1825,
      "Ġside": 1826,
      "iation": 1827,
      "Ġtoget": 1828,
      "Ġtogether": 1829,
      "ilities": 1830,
      "isc": 1831,
      "Ġworking": 1832,
      "Ġaway": 1833,
      "Ġcolle": 1834,
      "Ġenough": 1835,
      "Ġimprove": 1836,
      "ĠBl": 1837,
      "reen": 1838,
      "Ġbusiness": 1839,
      "aining": 1840,
      "Ġnet": 1841,
      "Ġhowever": 1842,
      "ĠGerm": 1843,
      "Ġtool": 1844,
      "Ġleft": 1845,
      "alf": 1846,
      "aring": 1847,
      "Ġcy": 1848,
      "St": 1849,
      "ane": 1850,
      "18": 1851,
      "Ġchem": 1852,
      "Ġgr": 1853,
      "Ġrequire": 1854,
      "aim": 1855,
      "Ġmot": 1856,
      "Ġhaving": 1857,
      "aces": 1858,
      "Ġkey": 1859,
      "Ġworks": 1860,
      "Ġtru": 1861,
      "ires": 1862,
      "Ġespecially": 1863,
      "for": 1864,
      "aves": 1865,
      "Ġplants": 1866,
      "ilt": 1867,
      "Ġways": 1868,
      "by": 1869,
      "af": 1870,
      "12": 1871,
      "Ġteam": 1872,
      "Ġbecame": 1873,
      "oman": 1874,
      "thing": 1875,
      "Ġ0": 1876,
      "Ġterm": 1877,
      "Ġfund": 1878,
      "duct": 1879,
      "Ġstep": 1880,
      "amm": 1881,
      "oot": 1882,
      "acy": 1883,
      "Ġsymptoms": 1884,
      "Ġcases": 1885,
      "50": 1886,
      "Ġnorm": 1887,
      "let": 1888,
      "ued": 1889,
      "aching": 1890,
      "Ġfull": 1891,
      "Ġeffects": 1892,
      "Ġ'": 1893,
      "ysis": 1894,
      "ray": 1895,
      "Ġprim": 1896,
      "NA": 1897,
      "ĠGo": 1898,
      "Ġtypes": 1899,
      "Ġgoing": 1900,
      "ument": 1901,
      "nal": 1902,
      "Ġhouse": 1903,
      "Ġprotect": 1904,
      "Ġsens": 1905,
      "Ġcity": 1906,
      "Ġstudies": 1907,
      "urity": 1908,
      "side": 1909,
      "ĠSome": 1910,
      "Ġconsider": 1911,
      "sw": 1912,
      "Ġcr": 1913,
      "ode": 1914,
      "itor": 1915,
      "iting": 1916,
      "Ġmakes": 1917,
      "lement": 1918,
      "Ġgeneral": 1919,
      "Ġwhether": 1920,
      "istic": 1921,
      "ĠWar": 1922,
      "Ġreason": 1923,
      "ipp": 1924,
      "ateg": 1925,
      "Ġaccount": 1926,
      "Ġknowledge": 1927,
      "For": 1928,
      "Ġlower": 1929,
      "Ġrelations": 1930,
      "Ġphysical": 1931,
      "Ġz": 1932,
      "Ġmind": 1933,
      "ready": 1934,
      "chie": 1935,
      "Ġrepresent": 1936,
      "Ġsubject": 1937,
      "Ġens": 1938,
      "Ġpatients": 1939,
      "ges": 1940,
      "Ġstory": 1941,
      "Ġfurther": 1942,
      "Ġopt": 1943,
      "Ġstat": 1944,
      "Ġsure": 1945,
      "Ġconcer": 1946,
      "hing": 1947,
      "Ġmic": 1948,
      "Ġground": 1949,
      "ung": 1950,
      "An": 1951,
      "Ġbig": 1952,
      "Ġchall": 1953,
      "Ġsum": 1954,
      "Ġnut": 1955,
      "Ġproducts": 1956,
      "Ġrole": 1957,
      "lo": 1958,
      "Ġpolic": 1959,
      "ĠEnglish": 1960,
      "erence": 1961,
      "Ġeff": 1962,
      "ency": 1963,
      "edi": 1964,
      "ales": 1965,
      "Ġloss": 1966,
      "ĠJohn": 1967,
      "ĠWith": 1968,
      "ĠWorld": 1969,
      "unt": 1970,
      "ley": 1971,
      "ification": 1972,
      "Ġinflu": 1973,
      "Ġgroups": 1974,
      "Ġclose": 1975,
      "Ġself": 1976,
      "Ġlive": 1977,
      "Ġscience": 1978,
      "acc": 1979,
      "Ġpred": 1980,
      "aut": 1981,
      "ott": 1982,
      "ird": 1983,
      "Ġlot": 1984,
      "ĠOne": 1985,
      "Ġquestion": 1986,
      "Ġemploy": 1987,
      "apt": 1988,
      "ery": 1989,
      "atures": 1990,
      "augh": 1991,
      "ibility": 1992,
      "ables": 1993,
      "Ġreally": 1994,
      "Ġactivities": 1995,
      "Ġbelow": 1996,
      "ae": 1997,
      "Ġrather": 1998,
      "ĠThat": 1999,
      "Ġalready": 2000,
      "rated": 2001,
      "Ġseen": 2002,
      "etimes": 2003,
      "Ġparticip": 2004,
      "Ġdiet": 2005,
      "Ġgrowth": 2006,
      "Ġresources": 2007,
      "mber": 2008,
      "Ġprob": 2009,
      "Ġclimate": 2010,
      "Ġevidence": 2011,
      "ĠGen": 2012,
      "Ġdig": 2013,
      "Ġactivity": 2014,
      "Ġdeg": 2015,
      "Ġneg": 2016,
      "cul": 2017,
      "Ġdone": 2018,
      "Ġquality": 2019,
      "Ġwind": 2020,
      "rams": 2021,
      "overed": 2022,
      "ites": 2023,
      "Ġvalue": 2024,
      "Ġrange": 2025,
      "Ġmedical": 2026,
      "Ġrecogn": 2027,
      "Ġphot": 2028,
      "Ġpotential": 2029,
      "Ġtoward": 2030,
      "ands": 2031,
      "Ġbuilding": 2032,
      "Ġoffic": 2033,
      "bon": 2034,
      "Ġwr": 2035,
      "Ġsun": 2036,
      "Ġ30": 2037,
      "ĠIntern": 2038,
      "ream": 2039,
      "verage": 2040,
      "Ġdeveloped": 2041,
      "oura": 2042,
      "Ġtradition": 2043,
      "Ġaccording": 2044,
      "When": 2045,
      "Ġresearchers": 2046,
      "Ġ198": 2047,
      "Ġeither": 2048,
      "Ġsite": 2049,
      "Ġrate": 2050,
      "ĠDr": 2051,
      "Ġevent": 2052,
      "Ġdoct": 2053,
      "ĠBy": 2054,
      "Ġreturn": 2055,
      "Ġur": 2056,
      "Ġarticle": 2057,
      "Ġsingle": 2058,
      "Ġindic": 2059,
      "Ġfall": 2060,
      "Ġflu": 2061,
      "Ġproduction": 2062,
      "Ġreduce": 2063,
      "rel": 2064,
      "fact": 2065,
      "Ġnational": 2066,
      "11": 2067,
      "ĠLe": 2068,
      "iol": 2069,
      "Ġissues": 2070,
      "osis": 2071,
      "ival": 2072,
      "sych": 2073,
      "Ġmass": 2074,
      "put": 2075,
      "Ġtext": 2076,
      "Ġonce": 2077,
      "ĠHealth": 2078,
      "Ġbr": 2079,
      "Ġachie": 2080,
      "esc": 2081,
      "amin": 2082,
      "Ġsurface": 2083,
      "ĠCal": 2084,
      "Ġbat": 2085,
      "ĠCar": 2086,
      "ivil": 2087,
      "Ġdetail": 2088,
      "ann": 2089,
      "Ġfive": 2090,
      "Ġmeet": 2091,
      "...": 2092,
      "Ġsitu": 2093,
      "Ġcollect": 2094,
      "Ġword": 2095,
      "Ġmembers": 2096,
      "Ġwhole": 2097,
      "Ġmodel": 2098,
      "ĠAm": 2099,
      "Ġdrug": 2100,
      "Ġtaken": 2101,
      "Ġann": 2102,
      "30": 2103,
      "ety": 2104,
      "Ġcame": 2105,
      "yn": 2106,
      "rict": 2107,
      "Ġrelig": 2108,
      "Ġquestions": 2109,
      "Ġthemselves": 2110,
      "onst": 2111,
      "leep": 2112,
      "iple": 2113,
      "ĠNorth": 2114,
      "Ġoil": 2115,
      "Ġfield": 2116,
      "Ġfrequ": 2117,
      "idered": 2118,
      "Ġinit": 2119,
      "Ġhold": 2120,
      "Ġliving": 2121,
      "Ġcreated": 2122,
      "Ġsource": 2123,
      "ches": 2124,
      "Ġaddress": 2125,
      "fficient": 2126,
      "Ġstates": 2127,
      "Ġpolitical": 2128,
      "ĠIm": 2129,
      "ips": 2130,
      "Ġpaper": 2131,
      "Ġlay": 2132,
      "roll": 2133,
      "ĠAust": 2134,
      "Ġwide": 2135,
      "Ġred": 2136,
      "Ġsent": 2137,
      "Ġrecomm": 2138,
      "Ġwhite": 2139,
      "âĢ¦": 2140,
      "Ġupon": 2141,
      "urch": 2142,
      "ĠGe": 2143,
      "Ġobserv": 2144,
      "ĠShe": 2145,
      "Ġskills": 2146,
      "Ġactually": 2147,
      "ĠMar": 2148,
      "Ġ14": 2149,
      "ask": 2150,
      "earch": 2151,
      "Ġconcept": 2152,
      "fer": 2153,
      "Ġdest": 2154,
      "Ġabs": 2155,
      "iam": 2156,
      "apan": 2157,
      "Ġver": 2158,
      "Ġtell": 2159,
      "sh": 2160,
      "Ġcut": 2161,
      "ublic": 2162,
      "Ġnature": 2163,
      "Ġpay": 2164,
      "ront": 2165,
      "val": 2166,
      "Ġcannot": 2167,
      "ison": 2168,
      "Ġhistor": 2169,
      "Ġweek": 2170,
      "ĠSouth": 2171,
      "Ġconsidered": 2172,
      "Ġpressure": 2173,
      "ule": 2174,
      "illed": 2175,
      "Ġincreased": 2176,
      "Ġeconomic": 2177,
      "Ġtot": 2178,
      "like": 2179,
      "Ġweight": 2180,
      "ĠAmerica": 2181,
      "Ġintrodu": 2182,
      "SA": 2183,
      "reme": 2184,
      "Ġpublished": 2185,
      "plic": 2186,
      "Ġfail": 2187,
      "utions": 2188,
      "Ġdog": 2189,
      "Ġthought": 2190,
      "Ġskin": 2191,
      "Ġglobal": 2192,
      "Ġsize": 2193,
      "rect": 2194,
      "Ġadult": 2195,
      "Ġmaterials": 2196,
      "Ġanimals": 2197,
      "eb": 2198,
      "Ġfri": 2199,
      "Ġopportun": 2200,
      "Ġunderstanding": 2201,
      "Ġfat": 2202,
      "ĠEarth": 2203,
      "Ġitself": 2204,
      "Ġassociated": 2205,
      "Ġpractice": 2206,
      "Ġdoc": 2207,
      "epend": 2208,
      "Ġrequired": 2209,
      "Ġalmost": 2210,
      "Ġdom": 2211,
      "Ġsound": 2212,
      "ĠMay": 2213,
      "Ġsimple": 2214,
      "ĠRep": 2215,
      "Ġprovides": 2216,
      "Ġneeded": 2217,
      "Ġmaint": 2218,
      "ĠAb": 2219,
      "Ġidea": 2220,
      "Ġblack": 2221,
      "ivity": 2222,
      "Ġstudent": 2223,
      "go": 2224,
      "Ġmarket": 2225,
      "Ġengine": 2226,
      "Ġcomplex": 2227,
      "ĠTr": 2228,
      "Ġquick": 2229,
      "aged": 2230,
      "ĠSoc": 2231,
      "ging": 2232,
      "Ġentire": 2233,
      "Ġfamil": 2234,
      "Ġmodern": 2235,
      "ER": 2236,
      "Ġability": 2237,
      "Ġsal": 2238,
      "15": 2239,
      "Ġsoil": 2240,
      "Ġpriv": 2241,
      "ump": 2242,
      "Ġeffective": 2243,
      "eter": 2244,
      "Ġrights": 2245,
      "aced": 2246,
      "ening": 2247,
      "lying": 2248,
      "light": 2249,
      "To": 2250,
      "oon": 2251,
      "Ġcondition": 2252,
      "Ġrelationship": 2253,
      "Ġarg": 2254,
      "Ġfish": 2255,
      "reg": 2256,
      "Ġhalf": 2257,
      "erve": 2258,
      "Ġcat": 2259,
      "itary": 2260,
      "ĠMan": 2261,
      "ĠAss": 2262,
      "Ġexperien": 2263,
      "Ġport": 2264,
      "Ġtook": 2265,
      "ĠStud": 2266,
      "ened": 2267,
      "Ġ197": 2268,
      "ma": 2269,
      "Ġmoney": 2270,
      "Ġhealthy": 2271,
      "Ġparts": 2272,
      "Ġmanagement": 2273,
      "acks": 2274,
      "Ġstress": 2275,
      "Ġprote": 2276,
      "ournal": 2277,
      "Ġcomes": 2278,
      "artment": 2279,
      "ĠDep": 2280,
      "Ġavoid": 2281,
      "enn": 2282,
      "ney": 2283,
      "Ġclaim": 2284,
      "ĠPr": 2285,
      "Ġexerc": 2286,
      "Ġsuper": 2287,
      "Ġspe": 2288,
      "hib": 2289,
      "ĠSy": 2290,
      "sequ": 2291,
      "Ġarch": 2292,
      "Ġheat": 2293,
      "Ġapproach": 2294,
      "Ġla": 2295,
      "Ġbegan": 2296,
      "Ġregion": 2297,
      "Ġmonths": 2298,
      "itud": 2299,
      "ĠAct": 2300,
      "ober": 2301,
      "oses": 2302,
      "Ġrelated": 2303,
      "Ġpurp": 2304,
      "ply": 2305,
      "Ġcoll": 2306,
      "16": 2307,
      "Ch": 2308,
      "Al": 2309,
      "Ġservices": 2310,
      "Ġmor": 2311,
      "Ġparents": 2312,
      "ĠJapan": 2313,
      "Wh": 2314,
      "inter": 2315,
      "Ġnecessary": 2316,
      "aging": 2317,
      "Ġmedic": 2318,
      "Ġsepar": 2319,
      "cient": 2320,
      "ibr": 2321,
      "utes": 2322,
      "Ġge": 2323,
      "ush": 2324,
      "Ġgreen": 2325,
      "Ġproduce": 2326,
      "Ġansw": 2327,
      "Ġvers": 2328,
      "Ġtherap": 2329,
      "my": 2330,
      "pro": 2331,
      "vere": 2332,
      "urs": 2333,
      "Ġcomputer": 2334,
      "Ġemer": 2335,
      "gest": 2336,
      "Ġchemical": 2337,
      "Ġfarm": 2338,
      "Ġlink": 2339,
      "Ġfactors": 2340,
      "Ġreact": 2341,
      "eds": 2342,
      "ĠYork": 2343,
      "Ġsoft": 2344,
      "abit": 2345,
      "Ġgas": 2346,
      "Ġjob": 2347,
      "Ġsense": 2348,
      "rad": 2349,
      "Ġyet": 2350,
      "het": 2351,
      "Ġsuff": 2352,
      "uel": 2353,
      "200": 2354,
      "Ġthroughout": 2355,
      "Ġcop": 2356,
      "Ġever": 2357,
      "Ġincreasing": 2358,
      "You": 2359,
      "ĠComp": 2360,
      "//": 2361,
      "ores": 2362,
      "izing": 2363,
      "Ġassess": 2364,
      "oll": 2365,
      "ese": 2366,
      "oph": 2367,
      "Ġrul": 2368,
      "abor": 2369,
      "Ġarr": 2370,
      "based": 2371,
      "ĠHis": 2372,
      "ederal": 2373,
      "Ġsubst": 2374,
      "bo": 2375,
      "ĠState": 2376,
      "Ġtar": 2377,
      "ections": 2378,
      "Ġpopular": 2379,
      "irm": 2380,
      "ze": 2381,
      "ensive": 2382,
      "Ġ100": 2383,
      "Ġpersonal": 2384,
      "ĠCanad": 2385,
      "Ġfire": 2386,
      "Ġliter": 2387,
      "Ġ13": 2388,
      "Ġcamp": 2389,
      "Ġanalysis": 2390,
      "17": 2391,
      "iddle": 2392,
      "Ġstop": 2393,
      "son": 2394,
      "Ġregard": 2395,
      "mb": 2396,
      "usion": 2397,
      "abet": 2398,
      "ai": 2399,
      "Ġconduct": 2400,
      "Ġpath": 2401,
      "ccording": 2402,
      "chan": 2403,
      "empt": 2404,
      "Ġtaking": 2405,
      "hold": 2406,
      "erous": 2407,
      "ĠDo": 2408,
      "Ġrecent": 2409,
      "ĠBritish": 2410,
      "rown": 2411,
      ".)": 2412,
      "icles": 2413,
      "ĠGu": 2414,
      "Ġreading": 2415,
      "Ġstructure": 2416,
      "Ġindustry": 2417,
      "org": 2418,
      "Ġtalk": 2419,
      "Ġinteract": 2420,
      "Ġshows": 2421,
      "ĠAfter": 2422,
      "Ġmeasure": 2423,
      "Ġonline": 2424,
      "Ġpattern": 2425,
      "Ġprevious": 2426,
      "olic": 2427,
      "Ġlonger": 2428,
      "Ġ50": 2429,
      "Ġmusic": 2430,
      "ĠHist": 2431,
      "Ġbuilt": 2432,
      "Ġenvironmental": 2433,
      "Ġprinc": 2434,
      "://": 2435,
      "Ġsix": 2436,
      "ences": 2437,
      "Ġbar": 2438,
      "14": 2439,
      "Ġconc": 2440,
      "ising": 2441,
      "Ġsurv": 2442,
      "Ġcolor": 2443,
      "ĠX": 2444,
      "uck": 2445,
      "igure": 2446,
      "Ġmatter": 2447,
      "ĠCont": 2448,
      "Ġsex": 2449,
      "Ġdeb": 2450,
      "Ġut": 2451,
      "13": 2452,
      "estern": 2453,
      "Ġcheck": 2454,
      "nces": 2455,
      "pid": 2456,
      "Ġhours": 2457,
      "Ġsociety": 2458,
      "Ġrepl": 2459,
      "Ġ196": 2460,
      "ĠPe": 2461,
      "emic": 2462,
      "Ġsafe": 2463,
      "Ġsam": 2464,
      "Ġprovided": 2465,
      "Ġtraining": 2466,
      "ript": 2467,
      "Ġtemperature": 2468,
      "Ġast": 2469,
      "ume": 2470,
      "Ġdisord": 2471,
      "Ġdiagn": 2472,
      "Ġcaused": 2473,
      "Ġbring": 2474,
      "Ġfeed": 2475,
      "ĠCo": 2476,
      "Ġbur": 2477,
      "yl": 2478,
      "Ġce": 2479,
      "minist": 2480,
      "Ġsleep": 2481,
      "inary": 2482,
      "Ġbreak": 2483,
      "Ġaction": 2484,
      "ched": 2485,
      "Ġindividuals": 2486,
      "Ġbenefits": 2487,
      "yle": 2488,
      "Ġtravel": 2489,
      "ulations": 2490,
      "fully": 2491,
      "Ġincludes": 2492,
      "istance": 2493,
      "Ġcontact": 2494,
      "Ġthing": 2495,
      "Ġservice": 2496,
      "aily": 2497,
      "onse": 2498,
      "Ġculture": 2499,
      "Ġtotal": 2500,
      "Ġcontent": 2501,
      "Ġeasy": 2502,
      "Ġdesigned": 2503,
      "Ġexperim": 2504,
      "ĠWhile": 2505,
      "Ġwriting": 2506,
      "ister": 2507,
      "Ġinj": 2508,
      "Ġheav": 2509,
      "Ġprograms": 2510,
      "Ġterms": 2511,
      "Ġposition": 2512,
      "ricult": 2513,
      "Ġbehavior": 2514,
      "Ġvide": 2515,
      "Ġcompany": 2516,
      "Ġthreat": 2517,
      "Ġscientists": 2518,
      "ĠInstit": 2519,
      "reng": 2520,
      "Ġviol": 2521,
      "ĠFl": 2522,
      "Ġled": 2523,
      "Ġslow": 2524,
      "Ġaccept": 2525,
      "ĠJew": 2526,
      "Ġschools": 2527,
      "Ġetc": 2528,
      "Ġlives": 2529,
      "Ġlif": 2530,
      "Ġtrue": 2531,
      "ES": 2532,
      "ronic": 2533,
      "Ġmethods": 2534,
      "Ġmeaning": 2535,
      "ows": 2536,
      "lt": 2537,
      "hood": 2538,
      "mon": 2539,
      "ucle": 2540,
      "Ġeat": 2541,
      "Ġclean": 2542,
      "Ġvariety": 2543,
      "uge": 2544,
      "Ġ|": 2545,
      "ĠNe": 2546,
      "Ġsimply": 2547,
      "anced": 2548,
      "asc": 2549,
      "Ġple": 2550,
      "iction": 2551,
      "Ġcauses": 2552,
      "ene": 2553,
      "wh": 2554,
      "rought": 2555,
      "gar": 2556,
      "Ġexc": 2557,
      "Ġshown": 2558,
      "Ġmach": 2559,
      "astic": 2560,
      "aving": 2561,
      "vey": 2562,
      "Ġwild": 2563,
      "ĠPres": 2564,
      "Ġcontain": 2565,
      "Ġissue": 2566,
      "Ġsat": 2567,
      "lands": 2568,
      "Ġstandard": 2569,
      "Ġpositive": 2570,
      "ĠEm": 2571,
      "Ġrev": 2572,
      "Ġ25": 2573,
      "Ġrelative": 2574,
      "aries": 2575,
      "imately": 2576,
      "ropri": 2577,
      "Ġspread": 2578,
      "Ġsometimes": 2579,
      "Ġpoll": 2580,
      "Ġaverage": 2581,
      "aff": 2582,
      "Ġlove": 2583,
      "Ġtarget": 2584,
      "ĠResearch": 2585,
      "ufact": 2586,
      "Ġ=": 2587,
      "ners": 2588,
      "ades": 2589,
      "istics": 2590,
      "Ġearth": 2591,
      "ĠII": 2592,
      "Ġreported": 2593,
      "cil": 2594,
      "umb": 2595,
      "aches": 2596,
      "Ġregular": 2597,
      "ĠSchool": 2598,
      "Ġbelieve": 2599,
      "ĠSec": 2600,
      "Ġgreater": 2601,
      "But": 2602,
      "Ġdeep": 2603,
      "Ġnormal": 2604,
      "Ġfru": 2605,
      "Ġpage": 2606,
      "Ġuses": 2607,
      "Ġcompan": 2608,
      "Ġinvolved": 2609,
      "Ġshare": 2610,
      "itation": 2611,
      "ights": 2612,
      "Ġidentify": 2613,
      "Ġ11": 2614,
      "Ġdamage": 2615,
      "Ġmicro": 2616,
      "ĠKing": 2617,
      "Ġmedia": 2618,
      "hest": 2619,
      "new": 2620,
      "ĠAustral": 2621,
      "amed": 2622,
      "Ġste": 2623,
      "lex": 2624,
      "Ġhelps": 2625,
      "Ġemb": 2626,
      "rior": 2627,
      "arily": 2628,
      "Ġdoing": 2629,
      "Ġvari": 2630,
      "rim": 2631,
      "ns": 2632,
      "Ġcarbon": 2633,
      "Ġimage": 2634,
      "osition": 2635,
      "Ġfoods": 2636,
      "Ġdeveloping": 2637,
      "Ã©": 2638,
      "eration": 2639,
      "rast": 2640,
      "dom": 2641,
      "Ġvisit": 2642,
      "Ġsafety": 2643,
      "duc": 2644,
      "Ġencoura": 2645,
      "Ġbasic": 2646,
      "ĠNo": 2647,
      "Ġ194": 2648,
      "Ġwritten": 2649,
      "ĠSu": 2650,
      "Ġparticularly": 2651,
      "Ġrespect": 2652,
      "aling": 2653,
      "Ġwood": 2654,
      "Ġoutside": 2655,
      "Ġorigin": 2656,
      "oor": 2657,
      "Ġmovement": 2658,
      "ervation": 2659,
      "Ġforms": 2660,
      "Ġstreng": 2661,
      "Ġnetwork": 2662,
      "Ġlate": 2663,
      "know": 2664,
      "ĠMin": 2665,
      "Ġreview": 2666,
      "verse": 2667,
      "Ġlack": 2668,
      "Ġevents": 2669,
      "ban": 2670,
      "Ġprec": 2671,
      "\".": 2672,
      "Ġdraw": 2673,
      "rand": 2674,
      "Ġpict": 2675,
      "Ġserious": 2676,
      "Ġfem": 2677,
      "Ġface": 2678,
      "ĠPar": 2679,
      "Ġensure": 2680,
      "AT": 2681,
      "Ġimplement": 2682,
      "Ġattempt": 2683,
      "Ġgrowing": 2684,
      "Ġrefer": 2685,
      "ID": 2686,
      "lies": 2687,
      "Ġsources": 2688,
      "Ġpsych": 2689,
      "atives": 2690,
      "Ġbacter": 2691,
      "ĠChina": 2692,
      "Ġextreme": 2693,
      "Ġharm": 2694,
      "Ġmechan": 2695,
      "Ġhtt": 2696,
      "Ġremov": 2697,
      "):": 2698,
      "Ġteachers": 2699,
      "Ġtax": 2700,
      "ength": 2701,
      "ming": 2702,
      "Ġattention": 2703,
      "Ġsqu": 2704,
      "Ġsust": 2705,
      "rial": 2706,
      "ĠIndia": 2707,
      "Ġgenerally": 2708,
      "Ġago": 2709,
      "Ġseries": 2710,
      "Ġideas": 2711,
      "Ġinternational": 2712,
      "ĠÂ": 2713,
      "Ġoriginal": 2714,
      "ops": 2715,
      "ĠCount": 2716,
      "hel": 2717,
      "Ġpoor": 2718,
      "Ġgetting": 2719,
      "Ġresponse": 2720,
      "Ġelectric": 2721,
      "isions": 2722,
      "Ġlooking": 2723,
      "Ġbal": 2724,
      "ached": 2725,
      "Ġcust": 2726,
      "erg": 2727,
      "ief": 2728,
      "ĠCenter": 2729,
      "bor": 2730,
      "Ġattack": 2731,
      "Ġveget": 2732,
      "Ġap": 2733,
      "ender": 2734,
      "Ġsea": 2735,
      "oles": 2736,
      "Ġcit": 2737,
      "alu": 2738,
      "ises": 2739,
      "Ġcompon": 2740,
      "elling": 2741,
      "Ġproduced": 2742,
      "Ġdemonst": 2743,
      "Ġcontinue": 2744,
      "Ġvirus": 2745,
      "abetes": 2746,
      "Ġkids": 2747,
      "Ġ--": 2748,
      "ecause": 2749,
      "Ġselect": 2750,
      "ials": 2751,
      "Ġsecurity": 2752,
      "overy": 2753,
      "Ġfeet": 2754,
      "Ġemot": 2755,
      "rench": 2756,
      "Ġprep": 2757,
      "Ġaware": 2758,
      "Ġlat": 2759,
      "Ġprobably": 2760,
      "imum": 2761,
      "Ġaff": 2762,
      "Ġchalleng": 2763,
      "Ġir": 2764,
      "Ġinteg": 2765,
      "Ġlog": 2766,
      "Ġcommit": 2767,
      "Ġcoun": 2768,
      "Ġforest": 2769,
      "osing": 2770,
      "Ġmanufact": 2771,
      "ground": 2772,
      "Ġnumbers": 2773,
      "ctions": 2774,
      "ĠPer": 2775,
      "ided": 2776,
      "Ġforce": 2777,
      "Ġmother": 2778,
      "Ġdoesn": 2779,
      "Ġwall": 2780,
      "Ġindepend": 2781,
      "Ġleaders": 2782,
      "Ġcompet": 2783,
      "issions": 2784,
      "Ġconsist": 2785,
      "AR": 2786,
      "inks": 2787,
      "Ġwebs": 2788,
      "ĠScience": 2789,
      "ana": 2790,
      "Ġec": 2791,
      "oes": 2792,
      "osure": 2793,
      "cies": 2794,
      "Ġpatient": 2795,
      "Ġtakes": 2796,
      "Ġcross": 2797,
      "Ġcivil": 2798,
      "ribution": 2799,
      "Ġwarm": 2800,
      "ĠPart": 2801,
      "Ġessential": 2802,
      "ĠHar": 2803,
      "right": 2804,
      "Ġmess": 2805,
      "Ġexpress": 2806,
      "haps": 2807,
      "ĠRuss": 2808,
      "Ġdaily": 2809,
      "room": 2810,
      "ius": 2811,
      "Ġdou": 2812,
      "Ġconcent": 2813,
      "Ġestim": 2814,
      "ĠEd": 2815,
      "Ġdefin": 2816,
      "ĠMany": 2817,
      "ying": 2818,
      "Ġbirth": 2819,
      "where": 2820,
      "uth": 2821,
      "Ġcover": 2822,
      "Ġbab": 2823,
      "Ġinstead": 2824,
      "Ġox": 2825,
      "On": 2826,
      "ror": 2827,
      "Ġincluded": 2828,
      "fect": 2829,
      "Ġdifference": 2830,
      "Ġvit": 2831,
      "Ġanimal": 2832,
      "Ġmental": 2833,
      "Ġeasily": 2834,
      "Ġdang": 2835,
      "vention": 2836,
      "useum": 2837,
      "asons": 2838,
      "ĠCO": 2839,
      "Ġpolicy": 2840,
      "Ġcompared": 2841,
      "Ġthus": 2842,
      "Ġbooks": 2843,
      "iforn": 2844,
      "ancial": 2845,
      "ls": 2846,
      "Ġinstit": 2847,
      "ĠMore": 2848,
      "ties": 2849,
      "Ġsomeone": 2850,
      "Ġdoctor": 2851,
      "Ġtheory": 2852,
      "Ġsolar": 2853,
      "uary": 2854,
      "Ġcorrect": 2855,
      "Ġstarted": 2856,
      "Ġadded": 2857,
      "Ġquite": 2858,
      "Ġfront": 2859,
      "Ġnight": 2860,
      "ems": 2861,
      "oly": 2862,
      "ads": 2863,
      "Ġtherefore": 2864,
      "cell": 2865,
      "Ġdetermine": 2866,
      "amb": 2867,
      "ĠCons": 2868,
      "Ġmilitary": 2869,
      "ĠMe": 2870,
      "ĠWill": 2871,
      "Ġdispl": 2872,
      "Ġthird": 2873,
      "Ġful": 2874,
      "Ġtools": 2875,
      "Ġthous": 2876,
      "Ġpoints": 2877,
      "Ġscientific": 2878,
      "Ġestablished": 2879,
      "Ġtraditional": 2880,
      "Ġtown": 2881,
      "ĠQu": 2882,
      "ĠEuropean": 2883,
      "Ġfa": 2884,
      "ington": 2885,
      "set": 2886,
      "ino": 2887,
      "Ġinvestig": 2888,
      "raft": 2889,
      "rs": 2890,
      "ĠApp": 2891,
      "Ġallows": 2892,
      "Ġoffer": 2893,
      "ĠJan": 2894,
      "Ġunique": 2895,
      "Ġinside": 2896,
      "Ġhyd": 2897,
      "Ġsou": 2898,
      "Ġprimary": 2899,
      "ĠBo": 2900,
      "Ġtree": 2901,
      "Ġseems": 2902,
      "Ġcommunities": 2903,
      "ĠInstitute": 2904,
      "Ġspeed": 2905,
      "ifornia": 2906,
      "Ġreflect": 2907,
      "Ġcompanies": 2908,
      "Ġaud": 2909,
      "Ġcapt": 2910,
      "Ġdiseases": 2911,
      "Ġvacc": 2912,
      "Ġtur": 2913,
      "Ġperformance": 2914,
      "IN": 2915,
      "Ġfav": 2916,
      "Ġheld": 2917,
      "Ġquickly": 2918,
      "itude": 2919,
      "ension": 2920,
      "Ġappropri": 2921,
      "Ġimmedi": 2922,
      "Ġhot": 2923,
      "ĠIndian": 2924,
      "Ġsold": 2925,
      "Ġtrees": 2926,
      "ĠGerman": 2927,
      "ĠMost": 2928,
      "ext": 2929,
      "Ġbit": 2930,
      "Ġdirectly": 2931,
      "Ġspir": 2932,
      "erson": 2933,
      "Ġdiv": 2934,
      "Ġdecre": 2935,
      "iency": 2936,
      "gency": 2937,
      "Ġnegative": 2938,
      "undred": 2939,
      "ĠDepartment": 2940,
      "Ġaltern": 2941,
      "hern": 2942,
      "Ġprint": 2943,
      "ĠJu": 2944,
      "Ġactive": 2945,
      "Ġachieve": 2946,
      "Ġreve": 2947,
      "thern": 2948,
      "Ġdry": 2949,
      "ift": 2950,
      "Ġadditional": 2951,
      "Ġprogress": 2952,
      "ĠAg": 2953,
      "Ġmultiple": 2954,
      "Ġmagn": 2955,
      "ancy": 2956,
      "rew": 2957,
      "Ġlarger": 2958,
      "ĠYour": 2959,
      "Ġnation": 2960,
      "ounds": 2961,
      "Ġbehind": 2962,
      "joy": 2963,
      "ille": 2964,
      "Ġrout": 2965,
      "ography": 2966,
      "ĠEduc": 2967,
      "Ġ40": 2968,
      "Ġlabor": 2969,
      "Ġeye": 2970,
      "--": 2971,
      "Ġcolon": 2972,
      "ĠInt": 2973,
      "Ġfamilies": 2974,
      "Ġhabit": 2975,
      "Ġdocument": 2976,
      "Ġevalu": 2977,
      "den": 2978,
      "leb": 2979,
      "Ġwalk": 2980,
      "Ġsevere": 2981,
      "Ġcritical": 2982,
      "One": 2983,
      "Ġfoot": 2984,
      "Ġhighly": 2985,
      "22": 2986,
      "lied": 2987,
      "Ġextra": 2988,
      "Ġ24": 2989,
      "ĠAc": 2990,
      "IS": 2991,
      "Ġtiss": 2992,
      "Ġnucle": 2993,
      "Ġalthough": 2994,
      "uries": 2995,
      "Ġsil": 2996,
      "Ġsupply": 2997,
      "orks": 2998,
      "Ġwent": 2999,
      "Ġ2012": 3000,
      "Ġaim": 3001,
      "Ġdrink": 3002,
      "Ġgard": 3003,
      "Ġthinking": 3004,
      "yond": 3005,
      "Ġhumans": 3006,
      "ĠCalifornia": 3007,
      "Ġtend": 3008,
      "Ġvideo": 3009,
      "ĠPre": 3010,
      "rig": 3011,
      "Ġ/": 3012,
      "Ġinfection": 3013,
      "ceed": 3014,
      "Ġsoon": 3015,
      "Ġtransport": 3016,
      "elt": 3017,
      "Ġspeak": 3018,
      "ulate": 3019,
      "ĠAfrican": 3020,
      "ĠAug": 3021,
      "Ġaspect": 3022,
      "Ġbeginning": 3023,
      "na": 3024,
      "ĠFran": 3025,
      "Ġfram": 3026,
      "rition": 3027,
      "ellow": 3028,
      "Ġtri": 3029,
      "lim": 3030,
      "Ġcred": 3031,
      "iques": 3032,
      "Ġclin": 3033,
      "iot": 3034,
      "orthern": 3035,
      "Ġleading": 3036,
      "Ġexercise": 3037,
      "omet": 3038,
      "ĠJes": 3039,
      "Ġ2010": 3040,
      "Ġprotein": 3041,
      "So": 3042,
      "ĠGl": 3043,
      "cean": 3044,
      "Ġwhose": 3045,
      "Ġexpect": 3046,
      "Ġmount": 3047,
      "oming": 3048,
      "Ġnorth": 3049,
      "Ġbad": 3050,
      "Ġproced": 3051,
      "term": 3052,
      "Ġanswer": 3053,
      "Ġhar": 3054,
      "Ġprotection": 3055,
      "ha": 3056,
      "Ġanaly": 3057,
      "Ġprior": 3058,
      "aly": 3059,
      "uman": 3060,
      "Ġinn": 3061,
      "Ġlost": 3062,
      "Ġcentral": 3063,
      "ĠMarch": 3064,
      "oring": 3065,
      "Ġinterp": 3066,
      "iter": 3067,
      "Ġfight": 3068,
      "Ġstay": 3069,
      "Ġeth": 3070,
      "ĠMus": 3071,
      "Ġvalues": 3072,
      "He": 3073,
      "Ġbroad": 3074,
      "oke": 3075,
      "ĠFrench": 3076,
      "ridge": 3077,
      "Ġstri": 3078,
      "anks": 3079,
      "Ġlimited": 3080,
      "Ġcard": 3081,
      "ĠInternational": 3082,
      "ching": 3083,
      "Ġdecision": 3084,
      "ĠOther": 3085,
      "Ġminutes": 3086,
      "Ġsoftware": 3087,
      "Ġelements": 3088,
      "vant": 3089,
      "Ġcontains": 3090,
      "ĠArt": 3091,
      "Ġhost": 3092,
      "Ġnews": 3093,
      "pril": 3094,
      "IC": 3095,
      "âĢ¢": 3096,
      "Ġseason": 3097,
      "arr": 3098,
      "25": 3099,
      "Ġprivate": 3100,
      "lier": 3101,
      "Ġhor": 3102,
      "ĠAfrica": 3103,
      "Ġancient": 3104,
      "ĠRec": 3105,
      "Ġgame": 3106,
      "Ġcontribut": 3107,
      "hens": 3108,
      "Ġquant": 3109,
      "Ġmom": 3110,
      "rogen": 3111,
      "Ġsection": 3112,
      "Ġpurpose": 3113,
      "Ġuseful": 3114,
      "Ġdecl": 3115,
      "Ġstrateg": 3116,
      "Ġcustom": 3117,
      "iers": 3118,
      "Ġteaching": 3119,
      "mar": 3120,
      "rael": 3121,
      "lection": 3122,
      "Ġenjoy": 3123,
      "Ġblock": 3124,
      "Ġones": 3125,
      "inese": 3126,
      "cks": 3127,
      "ologies": 3128,
      "Ġhundred": 3129,
      "Ġcapital": 3130,
      "Ġreligious": 3131,
      "Ġfast": 3132,
      "Ġtowards": 3133,
      "Ġsituation": 3134,
      "Ġcapac": 3135,
      "Ġsearch": 3136,
      "ĠChild": 3137,
      "Ġjud": 3138,
      "coh": 3139,
      "ĠOct": 3140,
      "Ġbrought": 3141,
      "Ġacid": 3142,
      "formation": 3143,
      "Ġdark": 3144,
      "Ġreceived": 3145,
      "ĠChar": 3146,
      "isms": 3147,
      "Ġnearly": 3148,
      "Ġadults": 3149,
      "arian": 3150,
      "Ġelse": 3151,
      "Ġdescribed": 3152,
      "ĠJune": 3153,
      "Ġsustain": 3154,
      "ĠNot": 3155,
      "Ġgoal": 3156,
      "ils": 3157,
      "Ġadminist": 3158,
      "Ġfinancial": 3159,
      "AN": 3160,
      "Ġagree": 3161,
      "Ġexact": 3162,
      "Ġpack": 3163,
      "rates": 3164,
      "Ġrates": 3165,
      "fort": 3166,
      "ields": 3167,
      "Ġgot": 3168,
      "ĠCor": 3169,
      "ĠWest": 3170,
      "rie": 3171,
      "rote": 3172,
      "Ġtests": 3173,
      "Ġdevices": 3174,
      "Ġaccur": 3175,
      "ĠAlthough": 3176,
      "Ġremains": 3177,
      "ĠAnt": 3178,
      "ilos": 3179,
      "Ġmill": 3180,
      "Ġfeatures": 3181,
      "Ġhands": 3182,
      "gn": 3183,
      "Ġapplication": 3184,
      "Ġcarry": 3185,
      "Ġestablish": 3186,
      "And": 3187,
      "itect": 3188,
      "Ġbase": 3189,
      "âĢĿ.": 3190,
      "Ġ2011": 3191,
      "pe": 3192,
      "come": 3193,
      "Ġfederal": 3194,
      "Ġadop": 3195,
      "ription": 3196,
      "Ġagricult": 3197,
      "Ġlocated": 3198,
      "Ġwrite": 3199,
      "Ġplaces": 3200,
      "uk": 3201,
      "rance": 3202,
      "Ġobt": 3203,
      "Ġstra": 3204,
      "OR": 3205,
      "bit": 3206,
      "Ġreach": 3207,
      "izations": 3208,
      "Ġborn": 3209,
      "IV": 3210,
      "Ġlength": 3211,
      "ĠGree": 3212,
      "ĠHer": 3213,
      "Ġworkers": 3214,
      "istry": 3215,
      "wise": 3216,
      "Ġsn": 3217,
      "ĠEl": 3218,
      "Ġimages": 3219,
      "'re": 3220,
      "Ġrequires": 3221,
      "ĠRiver": 3222,
      "Ġdevice": 3223,
      "Ġi": 3224,
      "Ġcool": 3225,
      "Ġcitiz": 3226,
      "Ġsouth": 3227,
      "Ġweeks": 3228,
      "olar": 3229,
      "med": 3230,
      "Ġveh": 3231,
      "used": 3232,
      "co": 3233,
      "vest": 3234,
      "Ġtold": 3235,
      "ĠPresident": 3236,
      "Ġwaste": 3237,
      "ĠDav": 3238,
      "Ġlargest": 3239,
      "estic": 3240,
      "Ġdemand": 3241,
      "ulated": 3242,
      "ĠHere": 3243,
      "Ġjo": 3244,
      "Ġtransl": 3245,
      "Ġremain": 3246,
      "see": 3247,
      "Ġcosts": 3248,
      "Ġdisp": 3249,
      "Ġinfluence": 3250,
      "Ġlines": 3251,
      "Ġegg": 3252,
      "Ġord": 3253,
      "Ġsolution": 3254,
      "ĠHistory": 3255,
      "ĠSm": 3256,
      "iece": 3257,
      "Ġpan": 3258,
      "alled": 3259,
      "ĠOf": 3260,
      "odies": 3261,
      "ĠJesus": 3262,
      "ĠAmericans": 3263,
      "idents": 3264,
      "ĠKe": 3265,
      "ĠSept": 3266,
      "equ": 3267,
      "Ġrare": 3268,
      "omb": 3269,
      "sect": 3270,
      "Ġefforts": 3271,
      "Ġlaws": 3272,
      "inct": 3273,
      "life": 3274,
      "Ġsymb": 3275,
      "Ġsummer": 3276,
      "entially": 3277,
      "Ġhous": 3278,
      "Ġproperty": 3279,
      "Ġbecomes": 3280,
      "ĠGovern": 3281,
      "Ġsugar": 3282,
      "Ġdiabetes": 3283,
      "iber": 3284,
      "Ġapplications": 3285,
      "Ġsaw": 3286,
      "king": 3287,
      "ĠMy": 3288,
      "Ġsurround": 3289,
      "cles": 3290,
      "ON": 3291,
      "mission": 3292,
      "PA": 3293,
      "Ġvict": 3294,
      "Ġimag": 3295,
      "ĠCanada": 3296,
      "ĠProg": 3297,
      "Ġprojects": 3298,
      "ĠTw": 3299,
      "resh": 3300,
      "Ġshall": 3301,
      "Ġtechniques": 3302,
      "ĠTra": 3303,
      "Ġmonitor": 3304,
      "att": 3305,
      "iles": 3306,
      "Ġdead": 3307,
      "Ġeating": 3308,
      "Ġeyes": 3309,
      "water": 3310,
      "Ġwa": 3311,
      "Ġbul": 3312,
      "ĠUs": 3313,
      "Ġtypically": 3314,
      "Ġcreating": 3315,
      "itis": 3316,
      "Ġbasis": 3317,
      "Ġimportance": 3318,
      "ĠFirst": 3319,
      "Ġcoast": 3320,
      "ĠIsrael": 3321,
      "Ġstru": 3322,
      "pper": 3323,
      "Ġmiles": 3324,
      "uous": 3325,
      "Ġbeaut": 3326,
      "Ġang": 3327,
      "Ġconstruction": 3328,
      "Ġdeal": 3329,
      "ĠWash": 3330,
      "ĠCong": 3331,
      "ĠChinese": 3332,
      "ira": 3333,
      "Ġcommunication": 3334,
      "Ġep": 3335,
      "Ġexcept": 3336,
      "Ġcou": 3337,
      "ĠEngland": 3338,
      "ĠBar": 3339,
      "Ġforces": 3340,
      "Ġtesting": 3341,
      "aid": 3342,
      "Ġrespond": 3343,
      "Ġdied": 3344,
      "ĠReg": 3345,
      "Ġresponsible": 3346,
      "Ġbacteria": 3347,
      "ipment": 3348,
      "Ġsites": 3349,
      "Ġdigital": 3350,
      "Ġhope": 3351,
      "ĠSw": 3352,
      "Ġappropriate": 3353,
      "Ġmix": 3354,
      "Ġrapid": 3355,
      "Ġlegal": 3356,
      "Ġmention": 3357,
      "Ġcenter": 3358,
      "At": 3359,
      "Ġmemory": 3360,
      "Ġcrop": 3361,
      "ĠAssoci": 3362,
      "21": 3363,
      "rag": 3364,
      "ding": 3365,
      "Ġcultural": 3366,
      "ĠChristian": 3367,
      "Ġtherapy": 3368,
      "omy": 3369,
      "Ġult": 3370,
      "Ġmole": 3371,
      "year": 3372,
      "Ġbenefit": 3373,
      "Ġfather": 3374,
      "izes": 3375,
      "Ġprocesses": 3376,
      "Ġceleb": 3377,
      "Ġrecently": 3378,
      "ĠAugust": 3379,
      "Ġice": 3380,
      "Ġleaves": 3381,
      "imin": 3382,
      "Ġobjects": 3383,
      "Ġexamples": 3384,
      "ĠDay": 3385,
      "cohol": 3386,
      "uments": 3387,
      "Ġfriends": 3388,
      "Ġteacher": 3389,
      "Ġtable": 3390,
      "sec": 3391,
      "apter": 3392,
      "oud": 3393,
      "Ġbeyond": 3394,
      "23": 3395,
      "Ġguid": 3396,
      "ĠApril": 3397,
      "Ġfit": 3398,
      "Ġpractices": 3399,
      "Ġ,": 3400,
      "cial": 3401,
      "ĠMon": 3402,
      "Ġautom": 3403,
      "Ġadj": 3404,
      "imal": 3405,
      "Ġeverything": 3406,
      "By": 3407,
      "Ġwebsite": 3408,
      "ovember": 3409,
      "Ġeconomy": 3410,
      "Ġgradu": 3411,
      "ocol": 3412,
      "Ġadapt": 3413,
      "Ġhimself": 3414,
      "Ġgives": 3415,
      "iar": 3416,
      "Ġcommunic": 3417,
      "Ġappe": 3418,
      "ster": 3419,
      "These": 3420,
      "ibrary": 3421,
      "ests": 3422,
      "Ġchoose": 3423,
      "www": 3424,
      "enge": 3425,
      "Ġanything": 3426,
      "Ġtrade": 3427,
      "ĠServ": 3428,
      "Ġmiddle": 3429,
      "Ġolder": 3430,
      "Ġfuel": 3431,
      "Ġdepend": 3432,
      "Ġking": 3433,
      "Ġtit": 3434,
      "Ġpet": 3435,
      "EN": 3436,
      "Ġbott": 3437,
      "Ġexpected": 3438,
      "Ġanti": 3439,
      "40": 3440,
      "Ġreasons": 3441,
      "ĠJuly": 3442,
      "Ġcompletely": 3443,
      "ĠSch": 3444,
      "Ġcommand": 3445,
      "Ġconstit": 3446,
      "Ġmis": 3447,
      "Ġnothing": 3448,
      "Ġinstru": 3449,
      "ĠSan": 3450,
      "aught": 3451,
      "Ġproviding": 3452,
      "Ġaffected": 3453,
      "ĠEducation": 3454,
      "Ġfinal": 3455,
      "ĠCity": 3456,
      "Ġcold": 3457,
      "ĠMc": 3458,
      "Ġadvant": 3459,
      "Ġfear": 3460,
      "Ġconnect": 3461,
      "mosp": 3462,
      "ĠPark": 3463,
      "Ġ21": 3464,
      "ĠFrom": 3465,
      "isl": 3466,
      "Ġunc": 3467,
      "Ġinsp": 3468,
      "aul": 3469,
      "anish": 3470,
      "gypt": 3471,
      "Ġmid": 3472,
      "ĠDNA": 3473,
      "Ġreceive": 3474,
      "Ġlocation": 3475,
      "ĠCounty": 3476,
      "Ġsmaller": 3477,
      "Ġgenetic": 3478,
      "Ġsett": 3479,
      "Ġfollowed": 3480,
      "Ġelectr": 3481,
      "Ġeffort": 3482,
      "Ġrain": 3483,
      "Ġsuccessful": 3484,
      "While": 3485,
      "Ġstage": 3486,
      "Ġpen": 3487,
      "Ġder": 3488,
      "cember": 3489,
      "Ġasked": 3490,
      "Ġwinter": 3491,
      "Ġbreat": 3492,
      "ama": 3493,
      "Ġgoes": 3494,
      "fl": 3495,
      "Ġusers": 3496,
      "Ġweb": 3497,
      "Ġtrying": 3498,
      "__": 3499,
      "ipl": 3500,
      "Ġformer": 3501,
      "illing": 3502,
      "Ġcurrently": 3503,
      "With": 3504,
      "Ġrules": 3505,
      "Ġopportunity": 3506,
      "back": 3507,
      "Ġx": 3508,
      "Ġten": 3509,
      "head": 3510,
      "itable": 3511,
      "Ġdate": 3512,
      "edom": 3513,
      "Ġstandards": 3514,
      "Ġwrote": 3515,
      "Ġscreen": 3516,
      "Ġcontroll": 3517,
      "Ġorganization": 3518,
      "Ġinteresting": 3519,
      "Ġson": 3520,
      "ought": 3521,
      "Ġ2009": 3522,
      "Ġdegree": 3523,
      "Ġspirit": 3524,
      "aters": 3525,
      "Ġyourself": 3526,
      "Ġmaintain": 3527,
      "ocks": 3528,
      "ony": 3529,
      "exic": 3530,
      "Ġwon": 3531,
      "Ġrecommend": 3532,
      "Ġcontinued": 3533,
      "Ġund": 3534,
      "aur": 3535,
      "ĠWashington": 3536,
      "book": 3537,
      "ondon": 3538,
      "Ġeveryone": 3539,
      "Ġapprox": 3540,
      "Ġpregn": 3541,
      "aled": 3542,
      "Ġconflic": 3543,
      "ĠEven": 3544,
      "oday": 3545,
      "Ġcalcul": 3546,
      "ios": 3547,
      "Ġplanet": 3548,
      "oe": 3549,
      "ĠRed": 3550,
      "Ġalone": 3551,
      "ĠCoun": 3552,
      "ham": 3553,
      "ĠPol": 3554,
      "rees": 3555,
      "Ġ2008": 3556,
      "ky": 3557,
      "Ġdiscovered": 3558,
      "Ġmodels": 3559,
      "Ġsch": 3560,
      "Ġbillion": 3561,
      "Ġcode": 3562,
      "Ġwoman": 3563,
      "ĠDevelop": 3564,
      "ED": 3565,
      "Ġcollection": 3566,
      "IT": 3567,
      "load": 3568,
      "ĠJanuary": 3569,
      "ĠAccording": 3570,
      "Ġcourt": 3571,
      "60": 3572,
      "Ġconsequ": 3573,
      "Ġoverall": 3574,
      "Ġdrugs": 3575,
      "Ġgir": 3576,
      "Ġallowed": 3577,
      "Ex": 3578,
      "Ġbeg": 3579,
      "Ġweather": 3580,
      "Ġbehavi": 3581,
      "Ġneigh": 3582,
      "ĠGreat": 3583,
      "Ġmeasures": 3584,
      "AS": 3585,
      "Ġvia": 3586,
      "Ġleave": 3587,
      "Ġroom": 3588,
      "iples": 3589,
      "ype": 3590,
      "Ġ2013": 3591,
      "Ġisn": 3592,
      "ĠOur": 3593,
      "Ġoccurs": 3594,
      "Ġpow": 3595,
      "Ġnamed": 3596,
      "Ġshape": 3597,
      "Ġexposure": 3598,
      "su": 3599,
      "Ġequipment": 3600,
      "Ġdestro": 3601,
      "ĠPress": 3602,
      "Ġscale": 3603,
      "Ġsteps": 3604,
      "Ġstrength": 3605,
      "tery": 3606,
      "Ġuser": 3607,
      "80": 3608,
      "Ġperfect": 3609,
      "Ġearlier": 3610,
      "ĠOctober": 3611,
      "Ġeight": 3612,
      "lin": 3613,
      "Ġrise": 3614,
      "ribute": 3615,
      "ords": 3616,
      "ĠEgypt": 3617,
      "ĠLear": 3618,
      "Ġcru": 3619,
      "oration": 3620,
      "Ġcoming": 3621,
      "airs": 3622,
      "Ġteach": 3623,
      "Ġvisual": 3624,
      "ĠEast": 3625,
      "men": 3626,
      "ĠWilliam": 3627,
      "iable": 3628,
      "Ġbirds": 3629,
      "amer": 3630,
      "ica": 3631,
      "Ġpurch": 3632,
      "time": 3633,
      "Ġroad": 3634,
      "wide": 3635,
      "ĠSeptember": 3636,
      "Ġmiss": 3637,
      "Ġprofessional": 3638,
      "Ġexec": 3639,
      "ev": 3640,
      "Ġpredict": 3641,
      "can": 3642,
      "Ġvill": 3643,
      "Ġcra": 3644,
      "Ġfile": 3645,
      "Ġmember": 3646,
      "Ġhttp": 3647,
      "Ġtox": 3648,
      "ibly": 3649,
      "Ġformed": 3650,
      "urg": 3651,
      "ĠTechn": 3652,
      "Ġwond": 3653,
      "Ġplaced": 3654,
      "Ġ60": 3655,
      "Ġsequ": 3656,
      "ĠNovember": 3657,
      "Ġtrack": 3658,
      "Ġdidn": 3659,
      "Ġhon": 3660,
      "odes": 3661,
      "Ġteeth": 3662,
      "Ġconstant": 3663,
      "Ġcateg": 3664,
      "Ġdifferences": 3665,
      "Ġmax": 3666,
      "ĠSystem": 3667,
      "Ġswe": 3668,
      "ĠFeb": 3669,
      "Ġapplied": 3670,
      "Ġcommonly": 3671,
      "ara": 3672,
      "Ġden": 3673,
      "Ġ:": 3674,
      "vert": 3675,
      "ĠHigh": 3676,
      "ĠLaw": 3677,
      "Ġoccup": 3678,
      "Ġmajority": 3679,
      "Ġhistorical": 3680,
      "ĠMexic": 3681,
      "Ġillness": 3682,
      "ĠRoman": 3683,
      "Ġsect": 3684,
      "ĠRead": 3685,
      "edia": 3686,
      "Ġrock": 3687,
      "ĠThen": 3688,
      "ĠHouse": 3689,
      "ellig": 3690,
      "ĠInc": 3691,
      "ĠVal": 3692,
      "ĠGermany": 3693,
      "Some": 3694,
      "amic": 3695,
      "ĠRet": 3696,
      "Ġcommerc": 3697,
      "Ġcook": 3698,
      "phas": 3699,
      "Ġmob": 3700,
      "ogen": 3701,
      "Ġpiece": 3702,
      "ford": 3703,
      "Ġacqu": 3704,
      "ospital": 3705,
      "ensity": 3706,
      "Ġtou": 3707,
      "hemat": 3708,
      "Ġ193": 3709,
      "Ġincreases": 3710,
      "Ġbreast": 3711,
      "ĠDis": 3712,
      "ĠBecause": 3713,
      "Ġperhaps": 3714,
      "Ġfruit": 3715,
      "Ġriver": 3716,
      "ĠFin": 3717,
      "rest": 3718,
      "Ġfair": 3719,
      "Ġrob": 3720,
      "Ġpoly": 3721,
      "Ġstatus": 3722,
      "off": 3723,
      "Ġworked": 3724,
      "Ġremember": 3725,
      "mitted": 3726,
      "AC": 3727,
      "ĠDecember": 3728,
      "que": 3729,
      "irection": 3730,
      "Ġrule": 3731,
      "Ġreduced": 3732,
      "ĠDuring": 3733,
      "Ġshowed": 3734,
      "Ġjoint": 3735,
      "Ġchoice": 3736,
      "ocr": 3737,
      "unch": 3738,
      "Ġpowerful": 3739,
      "ĠNow": 3740,
      "Ġbaby": 3741,
      "Ġrich": 3742,
      "Ġatmosp": 3743,
      "encies": 3744,
      "Ġrepe": 3745,
      "ĠCommun": 3746,
      "known": 3747,
      "emy": 3748,
      "Ġfully": 3749,
      "Ġmoving": 3750,
      "Ġgave": 3751,
      "Ġcontext": 3752,
      "ĠChurch": 3753,
      "Ġnutri": 3754,
      "alt": 3755,
      "iful": 3756,
      "Ġhyp": 3757,
      "Ġefficient": 3758,
      "Ġnote": 3759,
      "ĠSim": 3760,
      "reet": 3761,
      "Ġarchitect": 3762,
      "uff": 3763,
      "Ġfert": 3764,
      "Ġidentified": 3765,
      "Ġassign": 3766,
      "Ġrelatively": 3767,
      "ero": 3768,
      "Ġcry": 3769,
      "ĠTrans": 3770,
      "Ġmachine": 3771,
      "force": 3772,
      "inated": 3773,
      "enty": 3774,
      "Ġpeace": 3775,
      "Ġ2007": 3776,
      "Ġtele": 3777,
      "ĠAlso": 3778,
      "Ġenh": 3779,
      "more": 3780,
      "itch": 3781,
      "Ġexpand": 3782,
      "Ġvirt": 3783,
      "Ġgiving": 3784,
      "Ġactions": 3785,
      "Ġacad": 3786,
      "Ġoffers": 3787,
      "Ġfresh": 3788,
      "Ġstories": 3789,
      "ĠUnion": 3790,
      "orge": 3791,
      "gery": 3792,
      "Ġsusp": 3793,
      "ĠSociety": 3794,
      "Ġvision": 3795,
      "Ġcities": 3796,
      "Ġappears": 3797,
      "Ġcitizens": 3798,
      "24": 3799,
      "Ġwid": 3800,
      "iate": 3801,
      "ĠInst": 3802,
      "ĠAustralia": 3803,
      "ula": 3804,
      "ĠLondon": 3805,
      "Ġchurch": 3806,
      "cont": 3807,
      "aign": 3808,
      "Ġenter": 3809,
      "Ġcontract": 3810,
      "Ġsigns": 3811,
      "iant": 3812,
      "Ġmoment": 3813,
      "Ġchanged": 3814,
      "Ġlimit": 3815,
      "ruary": 3816,
      "oted": 3817,
      "aste": 3818,
      "Ġphilos": 3819,
      "Ġdisplay": 3820,
      "Ġball": 3821,
      "Ġworth": 3822,
      "Ġproperties": 3823,
      "ĠBlack": 3824,
      "bre": 3825,
      "osy": 3826,
      "aint": 3827,
      "Ġjournal": 3828,
      "ĠVir": 3829,
      "Ġrunning": 3830,
      "house": 3831,
      "Ġemp": 3832,
      "Ġcompar": 3833,
      "Ġsymbol": 3834,
      "cious": 3835,
      "ees": 3836,
      "uls": 3837,
      "Ġ23": 3838,
      "ĠSince": 3839,
      "ĠCouncil": 3840,
      "Ġillust": 3841,
      "Ġunit": 3842,
      "Ġelement": 3843,
      "Ġpatterns": 3844,
      "rupt": 3845,
      "ĠWater": 3846,
      "ĠAre": 3847,
      "iny": 3848,
      "ĠGeneral": 3849,
      "Ġexisting": 3850,
      "ĠProt": 3851,
      "AL": 3852,
      "Ġassist": 3853,
      "Ġdetails": 3854,
      "ĠPeople": 3855,
      "Ġopportunities": 3856,
      "EC": 3857,
      "Ġversion": 3858,
      "Ġmouth": 3859,
      "Ġalcohol": 3860,
      "Ġemissions": 3861,
      "Ġdetect": 3862,
      "rehens": 3863,
      "Ġcapacity": 3864,
      "Ġanx": 3865,
      "Ġstrugg": 3866,
      "ken": 3867,
      "ĠIS": 3868,
      "Ġconstruct": 3869,
      "Ġimmune": 3870,
      "udd": 3871,
      "Pro": 3872,
      "ĠJust": 3873,
      "related": 3874,
      "Ġthousands": 3875,
      "Ġfindings": 3876,
      "iology": 3877,
      "Ġhuge": 3878,
      "Ġeducational": 3879,
      "Ġeventually": 3880,
      "Ġgold": 3881,
      "rab": 3882,
      "Ġgene": 3883,
      "Ġtransfer": 3884,
      "Ġrat": 3885,
      "ĠPat": 3886,
      "Ġchance": 3887,
      "Ġfigure": 3888,
      "Ġ22": 3889,
      "Ġmig": 3890,
      "rief": 3891,
      "Ġconvers": 3892,
      "pris": 3893,
      "Ġing": 3894,
      "Ġforward": 3895,
      "Ġbank": 3896,
      "Ġsurvey": 3897,
      "Ġoptions": 3898,
      "Ġevolution": 3899,
      "ĠJapanese": 3900,
      "bl": 3901,
      "Ġpresence": 3902,
      "craft": 3903,
      "They": 3904,
      "Ġchallenges": 3905,
      "eding": 3906,
      "ession": 3907,
      "Ġincor": 3908,
      "Ġbound": 3909,
      "Ġmission": 3910,
      "rec": 3911,
      "Ġkid": 3912,
      "Ġlearned": 3913,
      "yd": 3914,
      "âĢĿ,": 3915,
      "iance": 3916,
      "Ġmap": 3917,
      "Ġfactor": 3918,
      "Ġtechnologies": 3919,
      "ament": 3920,
      "ĠNA": 3921,
      "Ġbalance": 3922,
      "Ġplans": 3923,
      "Ġdefined": 3924,
      "Ġsuggests": 3925,
      "iring": 3926,
      "ĠUse": 3927,
      "Ġeffic": 3928,
      "Ġconsumption": 3929,
      "Ġstar": 3930,
      "Ġdat": 3931,
      "Ġfamous": 3932,
      "Ġinnov": 3933,
      "ĠMod": 3934,
      "ĠCongress": 3935,
      "Ġresistance": 3936,
      "Ġfilm": 3937,
      "ĠJewish": 3938,
      "Ġnuclear": 3939,
      "ingu": 3940,
      "Ġweak": 3941,
      "Ġdisorder": 3942,
      "Ġfunctions": 3943,
      "Ġseparate": 3944,
      "Is": 3945,
      "ĠRo": 3946,
      "Ġguide": 3947,
      "ĠAng": 3948,
      "Ġpicture": 3949,
      "Ġinsect": 3950,
      "ĠUN": 3951,
      "Ġfemale": 3952,
      "Ġtissue": 3953,
      "Ġreports": 3954,
      "Ġbra": 3955,
      "Ġcollabor": 3956,
      "abilities": 3957,
      "ifically": 3958,
      "Ġbox": 3959,
      "Ġseven": 3960,
      "ĠAssociation": 3961,
      "After": 3962,
      "Ġinstance": 3963,
      ");": 3964,
      "orage": 3965,
      "ĠJournal": 3966,
      "Ġdistance": 3967,
      "Ġbelieved": 3968,
      "Ġhappen": 3969,
      "ĠCour": 3970,
      "Ġforeign": 3971,
      "ĠEach": 3972,
      "Ġpassed": 3973,
      "Ġequal": 3974,
      "ĠMedic": 3975,
      "Ġprice": 3976,
      "ĠProf": 3977,
      "pped": 3978,
      "Ġcomponents": 3979,
      "semb": 3980,
      "Ġbelief": 3981,
      "Ġqual": 3982,
      "Un": 3983,
      "Ġmuscle": 3984,
      "ste": 3985,
      "resp": 3986,
      "Ġ195": 3987,
      "199": 3988,
      "iences": 3989,
      "Ad": 3990,
      "Ġregions": 3991,
      "Ġantib": 3992,
      "Ġstaff": 3993,
      "Ġabsor": 3994,
      "ĠPhil": 3995,
      "\",": 3996,
      "hors": 3997,
      "Ġtask": 3998,
      "ux": 3999,
      "Ġdirection": 4000,
      "ĠTheir": 4001,
      "eces": 4002,
      "Ġnames": 4003,
      "Ġmut": 4004,
      "Ġoffice": 4005,
      "Ġclassroom": 4006,
      "Ġmal": 4007,
      "ĠConf": 4008,
      "eech": 4009,
      "Ġchallenge": 4010,
      "Ġgarden": 4011,
      "icip": 4012,
      "isation": 4013,
      "ĠEnvironment": 4014,
      "Ġgain": 4015,
      "Ġwatch": 4016,
      "ternal": 4017,
      "ĠProgram": 4018,
      "Ġattract": 4019,
      "Ġstim": 4020,
      "Ġcand": 4021,
      "Ġextremely": 4022,
      "part": 4023,
      "lege": 4024,
      "Ġapply": 4025,
      "Ġdepression": 4026,
      "All": 4027,
      "uild": 4028,
      "Ġwrong": 4029,
      "Ġimmediately": 4030,
      "Ġnutrition": 4031,
      "Ġfriend": 4032,
      "asion": 4033,
      "Ġexplain": 4034,
      "omas": 4035,
      "Ġload": 4036,
      "Ġincome": 4037,
      "Ġstrategies": 4038,
      "ologist": 4039,
      "Ġdecades": 4040,
      "Ġblue": 4041,
      "Ġorganizations": 4042,
      "Ġtreated": 4043,
      "Ġexplore": 4044,
      "Ġvitamin": 4045,
      "Ġeasier": 4046,
      "Ġsac": 4047,
      "Ġhighest": 4048,
      "Ġplanning": 4049,
      "Ġlegisl": 4050,
      "Ġfavor": 4051,
      "Ġexperiences": 4052,
      "tee": 4053,
      "Ġgeneration": 4054,
      "Ġgoals": 4055,
      "ĠCom": 4056,
      "Ġexcess": 4057,
      "Ġexhib": 4058,
      "Be": 4059,
      "Ġassum": 4060,
      "Ġbuildings": 4061,
      "Ġconnected": 4062,
      "Ġvo": 4063,
      "Ġopin": 4064,
      "Ġsexual": 4065,
      "Ġstructures": 4066,
      "urt": 4067,
      "Ġurban": 4068,
      "Ġspring": 4069,
      "Ġmilk": 4070,
      "Ġtopic": 4071,
      "rick": 4072,
      "Ġapproximately": 4073,
      "RE": 4074,
      "Ġheavy": 4075,
      "ographic": 4076,
      "Ġstyle": 4077,
      "ĠUK": 4078,
      "care": 4079,
      "Ġnative": 4080,
      "cast": 4081,
      "ĠSocial": 4082,
      "Ġboard": 4083,
      "70": 4084,
      "Ġparty": 4085,
      "Ġcommercial": 4086,
      "Ġinstruct": 4087,
      "Ġclinical": 4088,
      "igen": 4089,
      "Ġemphas": 4090,
      "Ġdivid": 4091,
      "Ġ2000": 4092,
      "Ġobserved": 4093,
      "Ġphen": 4094,
      "char": 4095,
      "Ġtruth": 4096,
      "Ġpick": 4097,
      "Ġindustrial": 4098,
      "Ġhousehold": 4099,
      "Ġbodies": 4100,
      "ĠArch": 4101,
      "Ġmo": 4102,
      "Ġpresident": 4103,
      "Ġhomes": 4104,
      "Ġalternative": 4105,
      "nes": 4106,
      "ĠDavid": 4107,
      "Ġdyn": 4108,
      "DA": 4109,
      "Ġvary": 4110,
      "antic": 4111,
      "ĠInternet": 4112,
      "ygen": 4113,
      "Ġcopy": 4114,
      "Ġestimated": 4115,
      "atin": 4116,
      "Ġactual": 4117,
      "26": 4118,
      "Ġelectricity": 4119,
      "ĠFebruary": 4120,
      "ĠPlan": 4121,
      "Ġmedicine": 4122,
      "ĠBra": 4123,
      "Ġfeature": 4124,
      "Ġspect": 4125,
      "Ġsetting": 4126,
      "uit": 4127,
      "Ġrecords": 4128,
      "Ġdecisions": 4129,
      "Ġhair": 4130,
      "ald": 4131,
      "ĠWestern": 4132,
      "key": 4133,
      "Ġplastic": 4134,
      "ĠAut": 4135,
      "ĠGreen": 4136,
      "Ġliqu": 4137,
      "wards": 4138,
      "ĠDon": 4139,
      "ĠInter": 4140,
      "Ġrelease": 4141,
      "Ġutil": 4142,
      "otes": 4143,
      "Ġgets": 4144,
      "ĠFood": 4145,
      "Ġslight": 4146,
      "Ġdestroy": 4147,
      "lor": 4148,
      "ube": 4149,
      "Ġmoved": 4150,
      "elines": 4151,
      "omic": 4152,
      "Ġgraph": 4153,
      "Ġdistribution": 4154,
      "Ġlived": 4155,
      "Ġcarried": 4156,
      "Ġfields": 4157,
      "Ġitems": 4158,
      "che": 4159,
      "rations": 4160,
      "urally": 4161,
      "order": 4162,
      "cular": 4163,
      "Ġnotes": 4164,
      "Ġexperiment": 4165,
      "Ġreality": 4166,
      "Ġbecoming": 4167,
      "iment": 4168,
      "Ġfreedom": 4169,
      "Ġiniti": 4170,
      "ĠTur": 4171,
      "Ġbed": 4172,
      "oma": 4173,
      "ĠMich": 4174,
      "clus": 4175,
      "Ġbottom": 4176,
      "Ġign": 4177,
      "Ġstarting": 4178,
      "Ġrequirements": 4179,
      "Ġmetal": 4180,
      "ĠSur": 4181,
      "Ġ28": 4182,
      "plications": 4183,
      "change": 4184,
      "Ġtemperatures": 4185,
      "Ġtour": 4186,
      "Ġreleased": 4187,
      "HE": 4188,
      "Ġmeat": 4189,
      "Ġgames": 4190,
      "Ġpopulations": 4191,
      "Ġlayer": 4192,
      "Ġresource": 4193,
      "hetic": 4194,
      "ares": 4195,
      "ĠThus": 4196,
      "Ġesc": 4197,
      "Ġcausing": 4198,
      "ĠMor": 4199,
      "Ġcycle": 4200,
      "Ġserve": 4201,
      "Ġmag": 4202,
      "Ġsave": 4203,
      "Ġphysic": 4204,
      "ressive": 4205,
      "Ġhear": 4206,
      "bed": 4207,
      "Ġnovel": 4208,
      "Ġpartners": 4209,
      "Ġdisorders": 4210,
      "ean": 4211,
      "enth": 4212,
      "Ġaspects": 4213,
      "Ġreference": 4214,
      "Ġfig": 4215,
      "Ġfrequently": 4216,
      "Ġbran": 4217,
      "Ġperspect": 4218,
      "unction": 4219,
      "Ġ2015": 4220,
      "Ġalg": 4221,
      "Ġdogs": 4222,
      "ĠPal": 4223,
      "Ġchronic": 4224,
      "Ġneu": 4225,
      "Ġsignificantly": 4226,
      "Ġmale": 4227,
      "ingly": 4228,
      "Ġconnection": 4229,
      "Ġletter": 4230,
      "Ġbattle": 4231,
      "29": 4232,
      "Ġintroduced": 4233,
      "Ġbone": 4234,
      "Ġpresented": 4235,
      "Ġterrit": 4236,
      "ĠGovernment": 4237,
      "OS": 4238,
      "Ġwidely": 4239,
      "Ġ26": 4240,
      "Ġtrig": 4241,
      "Ġconducted": 4242,
      "Ġocean": 4243,
      "ĠJames": 4244,
      "porary": 4245,
      "ĠRel": 4246,
      "Ġkilled": 4247,
      "Ġstore": 4248,
      "Ġoperations": 4249,
      "iding": 4250,
      "oting": 4251,
      "ĠSpanish": 4252,
      "ulf": 4253,
      "II": 4254,
      "Ġdoub": 4255,
      "Ġrot": 4256,
      "Ġtim": 4257,
      "Ġvul": 4258,
      "Ġcombination": 4259,
      "Ġcampaign": 4260,
      "ĠPublic": 4261,
      "urance": 4262,
      "works": 4263,
      "ĠDevelopment": 4264,
      "Ġisland": 4265,
      "apers": 4266,
      "Ġfix": 4267,
      "Ġnumerous": 4268,
      "amental": 4269,
      "erate": 4270,
      "Ġdrop": 4271,
      "olid": 4272,
      "Ġstream": 4273,
      "Ġcompl": 4274,
      "Ġremove": 4275,
      "ogle": 4276,
      "Ġdesp": 4277,
      "rome": 4278,
      "ĠChe": 4279,
      "Ġcontrast": 4280,
      "ĠCollege": 4281,
      "Ġhappens": 4282,
      "stitution": 4283,
      "Ar": 4284,
      "Ġwin": 4285,
      "Ġtrust": 4286,
      "Ġrisks": 4287,
      "ĠOver": 4288,
      "Ġclearly": 4289,
      "Ġflood": 4290,
      "Ġannual": 4291,
      "ĠRepublic": 4292,
      "Ġnoted": 4293,
      "ida": 4294,
      "Ġturned": 4295,
      "ias": 4296,
      "Ġmer": 4297,
      "ager": 4298,
      "Ġorganic": 4299,
      "Ġagg": 4300,
      "rete": 4301,
      "Ġindependent": 4302,
      "ructure": 4303,
      "uses": 4304,
      "ĠFrance": 4305,
      "Ġcollege": 4306,
      "ologists": 4307,
      "tered": 4308,
      "ander": 4309,
      "ulum": 4310,
      "ped": 4311,
      "Ġpi": 4312,
      "Ġanyone": 4313,
      "Ġshap": 4314,
      "Ġliterature": 4315,
      "edic": 4316,
      "Ġves": 4317,
      "Ġ80": 4318,
      "Ġtum": 4319,
      "Ġoutput": 4320,
      "Ġchanging": 4321,
      "Ġstorage": 4322,
      "opy": 4323,
      "ollow": 4324,
      "Ġ2006": 4325,
      "Ġrecommended": 4326,
      "Ġconv": 4327,
      "Ġfinding": 4328,
      "Ġcore": 4329,
      "ĠLord": 4330,
      "erved": 4331,
      "ĠMuseum": 4332,
      "ĠUnder": 4333,
      "Ġ2016": 4334,
      "Ġdangerous": 4335,
      "icial": 4336,
      "atically": 4337,
      "Ġcovered": 4338,
      "ĠOb": 4339,
      "Ġtechnique": 4340,
      "ĠChildren": 4341,
      "ously": 4342,
      "Ġpolicies": 4343,
      "Ġdiscussion": 4344,
      "bal": 4345,
      "ĠDec": 4346,
      "Ġmeeting": 4347,
      "Ph": 4348,
      "Ġprefer": 4349,
      "Ġ27": 4350,
      "Ġresulting": 4351,
      "ĠNet": 4352,
      "Ġhelped": 4353,
      "Ġviolence": 4354,
      "Ġglass": 4355,
      "Ġdrive": 4356,
      "Ġinterpret": 4357,
      "onic": 4358,
      "According": 4359,
      "anging": 4360,
      "asks": 4361,
      "Ġthr": 4362,
      "Ġradiation": 4363,
      "ĠSpec": 4364,
      "Ġgrant": 4365,
      "met": 4366,
      "ilit": 4367,
      "olved": 4368,
      "Ġiron": 4369,
      "Ġnorthern": 4370,
      "Ġcredit": 4371,
      "rant": 4372,
      "Ġisol": 4373,
      "Ġbuy": 4374,
      "Ġparticipants": 4375,
      "ĠSee": 4376,
      "Ġready": 4377,
      "Ġgod": 4378,
      "Ġwanted": 4379,
      "Ġexactly": 4380,
      "ĠHuman": 4381,
      "Ġship": 4382,
      "ij": 4383,
      "Ġgrass": 4384,
      "ĠMary": 4385,
      "ĠSun": 4386,
      "Ġdegrees": 4387,
      "Ġassessment": 4388,
      "zz": 4389,
      "Ġauthors": 4390,
      "atform": 4391,
      "ĠFound": 4392,
      "Ġfine": 4393,
      "lick": 4394,
      "Ġtrib": 4395,
      "Ġupper": 4396,
      "Ġexcell": 4397,
      "Ġmessage": 4398,
      "Ġfaith": 4399,
      "ieties": 4400,
      "cers": 4401,
      "inate": 4402,
      "ams": 4403,
      "ĠMat": 4404,
      "Ġstatement": 4405,
      "Ġcomprehens": 4406,
      "Ġperformed": 4407,
      "Ġradio": 4408,
      "Ġsurgery": 4409,
      "orial": 4410,
      "28": 4411,
      "mark": 4412,
      "Ġinfections": 4413,
      "onds": 4414,
      "Ġserved": 4415,
      "rieved": 4416,
      "ping": 4417,
      "ĠMic": 4418,
      "Ġroot": 4419,
      "atural": 4420,
      "ishing": 4421,
      "Ġmel": 4422,
      "Ġoption": 4423,
      "Ġintellig": 4424,
      "ĠOff": 4425,
      "Ġoxygen": 4426,
      "ĠVol": 4427,
      "However": 4428,
      "Ġsolutions": 4429,
      "Ġreducing": 4430,
      "ophy": 4431,
      "tical": 4432,
      "Ġfeeling": 4433,
      "Ġminor": 4434,
      "Ġencourage": 4435,
      "Here": 4436,
      "Ġinternal": 4437,
      "Ġsand": 4438,
      "Ġreb": 4439,
      "Ġregarding": 4440,
      "ĠKore": 4441,
      "ĠCur": 4442,
      "ĠDes": 4443,
      "Ġupd": 4444,
      "27": 4445,
      "Ġcast": 4446,
      "Ġdram": 4447,
      "essor": 4448,
      "Ġcircum": 4449,
      "raction": 4450,
      "Ġsample": 4451,
      "imens": 4452,
      "ria": 4453,
      "ĠLet": 4454,
      "ĠAv": 4455,
      "Ġunivers": 4456,
      "Ġstrate": 4457,
      "Ġrelationships": 4458,
      "Ġstrategy": 4459,
      "Ġlandsc": 4460,
      "Ġpp": 4461,
      "Ġinflamm": 4462,
      "Ġprinciples": 4463,
      "ĠOnce": 4464,
      "Ġplease": 4465,
      "Ġbeautiful": 4466,
      "Ġreferred": 4467,
      "ressed": 4468,
      "Ġscen": 4469,
      "Ġvessel": 4470,
      "Ġeggs": 4471,
      "Ġcreation": 4472,
      "ĠMount": 4473,
      "ĠIsland": 4474,
      "Ġpreviously": 4475,
      "Ġvictim": 4476,
      "Many": 4477,
      "ago": 4478,
      "board": 4479,
      "EM": 4480,
      "ĠOrgan": 4481,
      "Ġburn": 4482,
      "Ġwhom": 4483,
      "Ġcounter": 4484,
      "Ġeffectively": 4485,
      "Ġvolunt": 4486,
      "ĠGeorge": 4487,
      "Ġexperienced": 4488,
      "ĠBel": 4489,
      "Ġmanufacture": 4490,
      "Ġsouthern": 4491,
      "Ġnor": 4492,
      "Ġlinked": 4493,
      "mal": 4494,
      "isher": 4495,
      "Ġlic": 4496,
      "90": 4497,
      "Ġspent": 4498,
      "ĠGreek": 4499,
      "CC": 4500,
      "Ġarm": 4501,
      "Ġhom": 4502,
      "osystem": 4503,
      "Ġexperts": 4504,
      "Ġremoved": 4505,
      "ags": 4506,
      "Sh": 4507,
      "Ġspot": 4508,
      "erences": 4509,
      "Ġconservation": 4510,
      "Ġdetermined": 4511,
      "Ġtransform": 4512,
      "Ġproperly": 4513,
      "och": 4514,
      "Ġemail": 4515,
      "Ġconfirm": 4516,
      "roph": 4517,
      "Ġmostly": 4518,
      "ĠPaul": 4519,
      "Ġ190": 4520,
      "ĠWork": 4521,
      "Ġexpert": 4522,
      "ception": 4523,
      "Ġtrou": 4524,
      "Ġspeech": 4525,
      "That": 4526,
      "ĠHIV": 4527,
      "ĠWeb": 4528,
      "ortunately": 4529,
      "Ġcharacteristics": 4530,
      "Ġhearing": 4531,
      "AM": 4532,
      "iveness": 4533,
      "Ġinterested": 4534,
      "Ġrelevant": 4535,
      "othes": 4536,
      "raw": 4537,
      "ĠIsl": 4538,
      "Ġdepending": 4539,
      "Ġimpl": 4540,
      "Ġreprodu": 4541,
      "Ġgenes": 4542,
      "Ġanxiety": 4543,
      "Ġwaters": 4544,
      "Ġclick": 4545,
      "Ġunf": 4546,
      "Ġvulner": 4547,
      "ras": 4548,
      "Ġidentity": 4549,
      "eline": 4550,
      "ĠTherefore": 4551,
      "Ġbelong": 4552,
      "Ġinvolve": 4553,
      "Ġsolid": 4554,
      "Ġcalc": 4555,
      "ĠIts": 4556,
      "Ġdescribe": 4557,
      "ĠMal": 4558,
      "ĠST": 4559,
      "Ġprepar": 4560,
      "Ġinjury": 4561,
      "Ġcris": 4562,
      "ĠDem": 4563,
      "ĠSen": 4564,
      "Ġinitial": 4565,
      "Ġbackground": 4566,
      "Ġmathemat": 4567,
      "Ġsav": 4568,
      "Ġinvent": 4569,
      "Ġinstitutions": 4570,
      "Our": 4571,
      "US": 4572,
      "ĠRev": 4573,
      "Ġinvolves": 4574,
      "Ġhop": 4575,
      "rian": 4576,
      "aughter": 4577,
      "leg": 4578,
      "road": 4579,
      "ognitive": 4580,
      "Ġvegetables": 4581,
      "Why": 4582,
      "Ġfarmers": 4583,
      "Ġobvious": 4584,
      "rows": 4585,
      "Ġtrend": 4586,
      "Ġpal": 4587,
      "Ġconflict": 4588,
      "Ġdistinct": 4589,
      "Ġleads": 4590,
      "Ġamounts": 4591,
      "ĠProject": 4592,
      "Ġyouth": 4593,
      "Ġarticles": 4594,
      "Ġreplace": 4595,
      "Ġmentioned": 4596,
      "Ġ2005": 4597,
      "Ġproposed": 4598,
      "Ġheard": 4599,
      "Ġpret": 4600,
      "Ġprepared": 4601,
      "Ġadvantage": 4602,
      "Ġexposed": 4603,
      "Ġdie": 4604,
      "umn": 4605,
      "ocal": 4606,
      "ĠWhy": 4607,
      "ĠTex": 4608,
      "Ġdecided": 4609,
      "Ġpromote": 4610,
      "Ġhour": 4611,
      "lease": 4612,
      "ĠAir": 4613,
      "Ġmeant": 4614,
      "Ġowners": 4615,
      "Ġmanage": 4616,
      "Ġnit": 4617,
      "Ġthick": 4618,
      "ss": 4619,
      "Ġchemicals": 4620,
      "Ġclasses": 4621,
      "Ġaid": 4622,
      "Ġinput": 4623,
      "ancing": 4624,
      "Ġreligion": 4625,
      "rum": 4626,
      "Ġ90": 4627,
      "Ġsynt": 4628,
      "Ġacademic": 4629,
      "ĠMars": 4630,
      "Ġofficial": 4631,
      "Ġpollution": 4632,
      "Ġpip": 4633,
      "ta": 4634,
      "uing": 4635,
      "Ġadvanced": 4636,
      "Ġadjust": 4637,
      "PS": 4638,
      "ault": 4639,
      "Ġ+": 4640,
      "ĠPort": 4641,
      "Ġhelping": 4642,
      "Ġsaying": 4643,
      "well": 4644,
      "Ġcharge": 4645,
      "Ġemotional": 4646,
      "Ġprofession": 4647,
      "riculum": 4648,
      "Ġprocessing": 4649,
      "Â°": 4650,
      "ributed": 4651,
      "Ġsort": 4652,
      "Ġelimin": 4653,
      "Ġfailure": 4654,
      "Ġpric": 4655,
      "Ġincorpor": 4656,
      "Ġround": 4657,
      "do": 4658,
      "Ġclos": 4659,
      "Ġtoxic": 4660,
      "rating": 4661,
      "Ġâ": 4662,
      "Ġtooth": 4663,
      "Ġsquare": 4664,
      "Ġdiscover": 4665,
      "uted": 4666,
      "Ġinstall": 4667,
      "Ġreached": 4668,
      "Ġpieces": 4669,
      "Ġmist": 4670,
      "ĠMark": 4671,
      "Ġ186": 4672,
      "Ġlib": 4673,
      "rog": 4674,
      "Ġunits": 4675,
      "Ġforced": 4676,
      "Ġconsult": 4677,
      "Ġessay": 4678,
      "Ġsem": 4679,
      "ĠGra": 4680,
      "rier": 4681,
      "kin": 4682,
      "Although": 4683,
      "Ġjour": 4684,
      "Ġinh": 4685,
      "Ġcomfort": 4686,
      "ĠFore": 4687,
      "iverse": 4688,
      "Ġkill": 4689,
      "Ġ2014": 4690,
      "oyal": 4691,
      "Ġelectrical": 4692,
      "ek": 4693,
      "Ġcontinues": 4694,
      "Ġatmosphere": 4695,
      "uration": 4696,
      "Ġprofessor": 4697,
      "Ġconclud": 4698,
      "Ġdiagnosis": 4699,
      "Ġlung": 4700,
      "Ġdiss": 4701,
      "Ġexpression": 4702,
      "Ġlooks": 4703,
      "Ġpun": 4704,
      "ears": 4705,
      "ĠNASA": 4706,
      "Ġdro": 4707,
      "Now": 4708,
      "acing": 4709,
      "Ġreaction": 4710,
      "Sp": 4711,
      "wood": 4712,
      "Ġban": 4713,
      "Ġ29": 4714,
      "Ġtrad": 4715,
      "Ġparticles": 4716,
      "Ġbrother": 4717,
      "Ġpresc": 4718,
      "Ġconcern": 4719,
      "ĠAsia": 4720,
      "Ġsustainable": 4721,
      "itz": 4722,
      "riage": 4723,
      "Ġkept": 4724,
      "Ġmotor": 4725,
      "atric": 4726,
      "Ġrace": 4727,
      "Ġtechnical": 4728,
      "Ġmanner": 4729,
      "Ġmainly": 4730,
      "Ġ2017": 4731,
      "Ġgar": 4732,
      "Ġnotice": 4733,
      "Ġpages": 4734,
      "Ġgender": 4735,
      "Ġstorm": 4736,
      "standing": 4737,
      "ii": 4738,
      "ĠAtl": 4739,
      "Ġconcerns": 4740,
      "ĠRussian": 4741,
      "ĠTest": 4742,
      "Ġoperation": 4743,
      "ET": 4744,
      "Res": 4745,
      "iling": 4746,
      "Ġconcepts": 4747,
      "Ġcert": 4748,
      "Ġwest": 4749,
      "Ġdoll": 4750,
      "ĠLa": 4751,
      "Ġeast": 4752,
      "west": 4753,
      "Ġtrial": 4754,
      "Ġdatab": 4755,
      "rosc": 4756,
      "Ġconver": 4757,
      "Ġengineering": 4758,
      "ework": 4759,
      "mat": 4760,
      "Ġfort": 4761,
      "Ġcoord": 4762,
      "Ġsong": 4763,
      "with": 4764,
      "place": 4765,
      "35": 4766,
      "vision": 4767,
      "Ġplatform": 4768,
      "oxide": 4769,
      "Ġfinally": 4770,
      "ĠCath": 4771,
      "Ġallowing": 4772,
      "ĠStudents": 4773,
      "akers": 4774,
      "'ll": 4775,
      "ya": 4776,
      "rans": 4777,
      "ĠEv": 4778,
      "Ġshared": 4779,
      "Ġlesson": 4780,
      "Ġflex": 4781,
      "Ġemergency": 4782,
      "ĠSam": 4783,
      "Ġvolume": 4784,
      "Ġgirls": 4785,
      "Ġphenomen": 4786,
      "ĠBas": 4787,
      "Ġprotected": 4788,
      "Ġcenturies": 4789,
      "Ġsettle": 4790,
      "ifying": 4791,
      "Ġintended": 4792,
      "ormal": 4793,
      "Ġremained": 4794,
      "rapy": 4795,
      "Ġjobs": 4796,
      "Ġ70": 4797,
      "Ġcamer": 4798,
      "Ġleader": 4799,
      "Ġefficiency": 4800,
      "vis": 4801,
      "Ġideal": 4802,
      "Ġwonder": 4803,
      "ĠRober": 4804,
      "ĠCourt": 4805,
      "Ġwealth": 4806,
      "Ġseek": 4807,
      "Ġgrand": 4808,
      "Ġcere": 4809,
      "Ġblog": 4810,
      "utive": 4811,
      "ĠMiss": 4812,
      "rus": 4813,
      "ĠMexico": 4814,
      "Ġsupported": 4815,
      "ĠRetrieved": 4816,
      "Ġdefic": 4817,
      "CO": 4818,
      "olars": 4819,
      "Ġrenew": 4820,
      "ĠMuslim": 4821,
      "Ġlinks": 4822,
      "Ġhighlight": 4823,
      "Ġsufficient": 4824,
      "Ġdrinking": 4825,
      "rep": 4826,
      "ules": 4827,
      "alle": 4828,
      "ĠWhite": 4829,
      "arrow": 4830,
      "itors": 4831,
      "roke": 4832,
      "Ġsecret": 4833,
      "ĠMart": 4834,
      "Ġarmy": 4835,
      "ĠBritain": 4836,
      "ixt": 4837,
      "Ġwel": 4838,
      "astern": 4839,
      "espite": 4840,
      "Ġawareness": 4841,
      "zing": 4842,
      "acific": 4843,
      "Ġmorning": 4844,
      "Ġprocedure": 4845,
      "Most": 4846,
      "Ġfoss": 4847,
      "Ġhit": 4848,
      "ĠSpace": 4849,
      "Ġmaster": 4850,
      "AD": 4851,
      "za": 4852,
      "oking": 4853,
      "Ġreduction": 4854,
      "Ġcombined": 4855,
      "Ġsnow": 4856,
      "clusion": 4857,
      "Ġprimarily": 4858,
      "Ġfluid": 4859,
      "which": 4860,
      "berg": 4861,
      "Ġpractical": 4862,
      "Ġlargely": 4863,
      "Ġcompleted": 4864,
      "Ġdefinition": 4865,
      "ĠSub": 4866,
      "Ġraised": 4867,
      "Ġoffered": 4868,
      "Ġcomment": 4869,
      "going": 4870,
      "ĠRem": 4871,
      "Ġimproved": 4872,
      "Ġmath": 4873,
      "ĠMedical": 4874,
      "Ġbegins": 4875,
      "Ġpark": 4876,
      "Ġhorm": 4877,
      "Americ": 4878,
      "Ġnav": 4879,
      "Ġcoal": 4880,
      "comes": 4881,
      "Ġmotiv": 4882,
      "'ve": 4883,
      "New": 4884,
      "oviet": 4885,
      "Ġthoughts": 4886,
      "ĠSer": 4887,
      "ndrome": 4888,
      "ĠRich": 4889,
      "Ġletters": 4890,
      "ĠArab": 4891,
      "Ġseeds": 4892,
      "Ġresist": 4893,
      "ĠDirect": 4894,
      "Ġbrief": 4895,
      "ĠCommission": 4896,
      "mp": 4897,
      "Ġkinds": 4898,
      "Ġauthority": 4899,
      "Ġagricultural": 4900,
      "ĠJer": 4901,
      "ĠThomas": 4902,
      "Ġther": 4903,
      "enced": 4904,
      "33": 4905,
      "Ġgrade": 4906,
      "ĠMedicine": 4907,
      "45": 4908,
      "Ġspecifically": 4909,
      "Ġoccurred": 4910,
      "iated": 4911,
      "Ġhabitat": 4912,
      "Ġfundamental": 4913,
      "Ġappoint": 4914,
      "Ġrecorded": 4915,
      "Ġliquid": 4916,
      "ĠDi": 4917,
      "ossible": 4918,
      "Ġsituations": 4919,
      "ĠTexas": 4920,
      "ĠQue": 4921,
      "oper": 4922,
      "col": 4923,
      "ĠBer": 4924,
      "Ġphase": 4925,
      "Ġtreatments": 4926,
      "win": 4927,
      "Ġtaught": 4928,
      "Ġseed": 4929,
      "Ġattacks": 4930,
      "Ġexplains": 4931,
      "Ġimpacts": 4932,
      "Ġpurposes": 4933,
      "Ġsector": 4934,
      "ĠService": 4935,
      "Ġextent": 4936,
      "Ġcontribute": 4937,
      "Ġcorresp": 4938,
      "Ġyellow": 4939,
      "ball": 4940,
      "Ġexcellent": 4941,
      "Ab": 4942,
      "Ġdespite": 4943,
      "Ġ2004": 4944,
      "ĠHen": 4945,
      "Ġindicate": 4946,
      "Ġclaims": 4947,
      "ĠHel": 4948,
      "ulating": 4949,
      "Ġlanguages": 4950,
      "Ġbud": 4951,
      "Ġlov": 4952,
      "Ġsurpris": 4953,
      "ĠArmy": 4954,
      "verty": 4955,
      "Ġadvice": 4956,
      "Ġfrequency": 4957,
      "ĠMet": 4958,
      "ĠLife": 4959,
      "Ġkn": 4960,
      "Ġdri": 4961,
      "Ġshar": 4962,
      "rence": 4963,
      "Ġdetailed": 4964,
      "ĠAcad": 4965,
      "igation": 4966,
      "Ġcollected": 4967,
      "Ġsamples": 4968,
      "Ġrecy": 4969,
      "Ġsounds": 4970,
      "Ġstraight": 4971,
      "Ġhospital": 4972,
      "Ġpoverty": 4973,
      "ĠCivil": 4974,
      "Ġformation": 4975,
      "Ġfocused": 4976,
      "ĠWell": 4977,
      "acters": 4978,
      "Ġhyper": 4979,
      "Ġfacts": 4980,
      "Ġwet": 4981,
      "Ġsignal": 4982,
      "ĠCentral": 4983,
      "Ġ...": 4984,
      "ishes": 4985,
      "gra": 4986,
      "ounced": 4987,
      "Ġmuscles": 4988,
      "Ġconsequences": 4989,
      "otic": 4990,
      "ĠAD": 4991,
      "osen": 4992,
      "ĠMass": 4993,
      "Ġplaying": 4994,
      "Ġexplan": 4995,
      "From": 4996,
      "ĠSal": 4997,
      "Ġaren": 4998,
      "ĠEvery": 4999,
      "Ġsend": 5000,
      "Ġcertainly": 5001,
      "Ġstem": 5002,
      "ĠJews": 5003,
      "Ġecosystem": 5004,
      "Cl": 5005,
      "Ġonto": 5006,
      "asure": 5007,
      "Ġmonitoring": 5008,
      "Ġlooked": 5009,
      "Ġresponsibility": 5010,
      "oo": 5011,
      "Ġfaster": 5012,
      "Ġinstrument": 5013,
      "Ġtro": 5014,
      "Ġcareer": 5015,
      "Ġadvance": 5016,
      "Ġsche": 5017,
      "Ġapproaches": 5018,
      "ses": 5019,
      "enses": 5020,
      "Ġnutrients": 5021,
      "ĠNews": 5022,
      "Ġspend": 5023,
      "Ġgreatest": 5024,
      "Ġvehicle": 5025,
      "Ġfib": 5026,
      "Ġaffects": 5027,
      "Ġshowing": 5028,
      "osite": 5029,
      "Ġbill": 5030,
      "Ġvital": 5031,
      "Ġfelt": 5032,
      "Ġstars": 5033,
      "Ġmort": 5034,
      "Ġquar": 5035,
      "Ġincreasingly": 5036,
      "Ġ#": 5037,
      "Ġstation": 5038,
      "ĠFre": 5039,
      "Ġwife": 5040,
      "Ġperman": 5041,
      "ey": 5042,
      "tes": 5043,
      "ĠOld": 5044,
      "ĠPhys": 5045,
      "Ġvaccine": 5046,
      "RO": 5047,
      "Ġkil": 5048,
      "Ġmaximum": 5049,
      "nic": 5050,
      "Ġpotentially": 5051,
      "Ġmotion": 5052,
      "Ġgovernments": 5053,
      "what": 5054,
      "ĠBay": 5055,
      "Ġperspective": 5056,
      "Ġhaz": 5057,
      "Ġflat": 5058,
      "aks": 5059,
      "oughly": 5060,
      "Ġrefers": 5061,
      "Ġsurrounding": 5062,
      "TS": 5063,
      "Ġnations": 5064,
      "Ġoperating": 5065,
      "ometimes": 5066,
      "Ġvast": 5067,
      "Ġhappened": 5068,
      "Ġreturned": 5069,
      "Ġsuggested": 5070,
      "Ġhundreds": 5071,
      "aker": 5072,
      "Ġrand": 5073,
      "Ġroll": 5074,
      "Ġsalt": 5075,
      "Ġcrops": 5076,
      "Ġpersons": 5077,
      "point": 5078,
      "ĠEnergy": 5079,
      "Ġinvestment": 5080,
      "rastructure": 5081,
      "ĠVirgin": 5082,
      "Ġflowers": 5083,
      "Ġrecognized": 5084,
      "Ġfirm": 5085,
      "ari": 5086,
      "Ġpul": 5087,
      "iced": 5088,
      "Ġbiological": 5089,
      "Ġbright": 5090,
      "ĠRussia": 5091,
      "Ġheight": 5092,
      "ĠToday": 5093,
      "rich": 5094,
      "Ġgoods": 5095,
      "Ġtopics": 5096,
      "Ġsyn": 5097,
      "Ġcontrolled": 5098,
      "Ġconsists": 5099,
      "nam": 5100,
      "ado": 5101,
      "Ġkeeping": 5102,
      "omin": 5103,
      "Ġprison": 5104,
      "Ġfamiliar": 5105,
      "anges": 5106,
      "ails": 5107,
      "oral": 5108,
      "olute": 5109,
      "ĠCle": 5110,
      "75": 5111,
      "Ġdu": 5112,
      "Ġhelpful": 5113,
      "Ġneighbor": 5114,
      "Ġ35": 5115,
      "rolog": 5116,
      "Ġmere": 5117,
      "Ġoral": 5118,
      "ĠDist": 5119,
      "Ġminimum": 5120,
      "ĠGoogle": 5121,
      "Ġrandom": 5122,
      "Ġproport": 5123,
      "resents": 5124,
      "lar": 5125,
      "ĠBudd": 5126,
      "Ġpolice": 5127,
      "ĠMr": 5128,
      "active": 5129,
      "Ġfif": 5130,
      "istan": 5131,
      "eal": 5132,
      "ĠSoviet": 5133,
      "Ġplayed": 5134,
      "Ġbow": 5135,
      "ample": 5136,
      "Ġrevolution": 5137,
      "Ġdivided": 5138,
      "Ġslightly": 5139,
      "tion": 5140,
      "Ġthin": 5141,
      "Ġrein": 5142,
      "Ġfing": 5143,
      "ĠLou": 5144,
      "Ġmoist": 5145,
      "Ġfle": 5146,
      "Ġvent": 5147,
      "Ġknew": 5148,
      "Ġdepth": 5149,
      "Ġastron": 5150,
      "Ġdocuments": 5151,
      "ĠBi": 5152,
      "ĠFlor": 5153,
      "Ġneut": 5154,
      "Ġfertil": 5155,
      "Ġlik": 5156,
      "Ġcharacters": 5157,
      "Ġsatis": 5158,
      "ĠOp": 5159,
      "Ġtrain": 5160,
      "band": 5161,
      "Ġotherwise": 5162,
      "Ġstudied": 5163,
      "inent": 5164,
      "Ġexistence": 5165,
      "Ġcontinuous": 5166,
      "hma": 5167,
      "ested": 5168,
      "Ġspl": 5169,
      "Ġbird": 5170,
      "Ġvalu": 5171,
      "Ġharvest": 5172,
      "Con": 5173,
      "mic": 5174,
      "ĠTwo": 5175,
      "Ġwalls": 5176,
      "Ġcouple": 5177,
      "78": 5178,
      "eters": 5179,
      "ĠGroup": 5180,
      "Ġsubstant": 5181,
      "No": 5182,
      "Ġstated": 5183,
      "Ġlose": 5184,
      "ĠBoth": 5185,
      "Ġstone": 5186,
      "ĠFurther": 5187,
      "Ġinterests": 5188,
      "Ġperiods": 5189,
      "igenous": 5190,
      "Ġmit": 5191,
      "Ġdiscovery": 5192,
      "itage": 5193,
      "Ġallerg": 5194,
      "ificial": 5195,
      "Ġtested": 5196,
      "ĠMac": 5197,
      "othing": 5198,
      "hips": 5199,
      "Ġproteins": 5200,
      "osa": 5201,
      "Ġappeared": 5202,
      "Ġresidents": 5203,
      "Ġclim": 5204,
      "Ġmeasured": 5205,
      "Ġfacilities": 5206,
      "ĠBible": 5207,
      "More": 5208,
      "Ġsin": 5209,
      "Ġages": 5210,
      "ĠElect": 5211,
      "Ġ2003": 5212,
      "ded": 5213,
      "Ġcrisis": 5214,
      "state": 5215,
      "Ġfunding": 5216,
      "field": 5217,
      "Ġconvent": 5218,
      "ĠSou": 5219,
      "Ġdirector": 5220,
      "Ġimmun": 5221,
      "cest": 5222,
      "Ġdomestic": 5223,
      "Ġpaint": 5224,
      "Ġconcerned": 5225,
      "Ġfollows": 5226,
      "ipped": 5227,
      "Ġgrown": 5228,
      "Ġmedications": 5229,
      "Ġcomponent": 5230,
      "Ġexternal": 5231,
      "ĠKen": 5232,
      "Ġwestern": 5233,
      "Ġrural": 5234,
      "ĠTechnology": 5235,
      "ĠRef": 5236,
      "ĠEmp": 5237,
      "Ġaccurate": 5238,
      "ael": 5239,
      "stood": 5240,
      "Ġ1990": 5241,
      "ensus": 5242,
      "Ġofficials": 5243,
      "Ġportion": 5244,
      "ĠDise": 5245,
      "ĠPacific": 5246,
      "Ġdepends": 5247,
      "ĠMiddle": 5248,
      "Ġapparent": 5249,
      "RI": 5250,
      "Ġsen": 5251,
      "ĠMil": 5252,
      "Ġleaving": 5253,
      "Ġvalid": 5254,
      "Ġtips": 5255,
      "ĠConstitution": 5256,
      "Ġnerv": 5257,
      "Ġdeliver": 5258,
      "Ġcrucial": 5259,
      "ĠTreat": 5260,
      "?âĢĿ": 5261,
      "umin": 5262,
      "unk": 5263,
      "Ġabuse": 5264,
      "Ġtasks": 5265,
      "Ġstret": 5266,
      "Ġdisapp": 5267,
      "Ġexplained": 5268,
      "Ġclosely": 5269,
      "Ġconcentration": 5270,
      "ĠBC": 5271,
      "atever": 5272,
      "Ġtried": 5273,
      "ĠâĢ¦": 5274,
      "inding": 5275,
      "Ġtypical": 5276,
      "ĠClass": 5277,
      "Ġtitle": 5278,
      "Pl": 5279,
      "Ġliver": 5280,
      "ST": 5281,
      "Ġnan": 5282,
      "ĠJose": 5283,
      "chers": 5284,
      "Ġrepresents": 5285,
      "celer": 5286,
      "ĠCD": 5287,
      "gal": 5288,
      "Ġfloor": 5289,
      "ville": 5290,
      "ĠLake": 5291,
      "Ġrail": 5292,
      "Ġcontem": 5293,
      "Ġmuseum": 5294,
      "olf": 5295,
      "Ġparties": 5296,
      "ĠFoundation": 5297,
      "attle": 5298,
      "Ġcup": 5299,
      "Ġpaid": 5300,
      "Ġdiscrim": 5301,
      "Ġ2001": 5302,
      "Ġnaturally": 5303,
      "eria": 5304,
      "ĠSecond": 5305,
      "Ġspiritual": 5306,
      "EL": 5307,
      "nel": 5308,
      "ĠLatin": 5309,
      "Ġsubjects": 5310,
      "Another": 5311,
      "Ġvoice": 5312,
      "ĠBook": 5313,
      "ĠWomen": 5314,
      "Ġweap": 5315,
      "Ġselected": 5316,
      "ĠHol": 5317,
      "Ġcolors": 5318,
      "Ġcircumst": 5319,
      "van": 5320,
      "ĠEconom": 5321,
      "Ġmetab": 5322,
      "ĠColumb": 5323,
      "Ġadding": 5324,
      "Ġfeelings": 5325,
      "Ġpump": 5326,
      "ĠDef": 5327,
      "ĠBen": 5328,
      "itness": 5329,
      "Ġrapidly": 5330,
      "roc": 5331,
      "ellect": 5332,
      "iled": 5333,
      "36": 5334,
      "oster": 5335,
      "Ġvisible": 5336,
      "MS": 5337,
      "Ġju": 5338,
      "Ġsecure": 5339,
      "Ġdouble": 5340,
      "ĠÃ": 5341,
      "Ġod": 5342,
      "Ġmovements": 5343,
      "Ġviews": 5344,
      "Ġcolleag": 5345,
      "Ġingred": 5346,
      "ĠMem": 5347,
      "Ġcognitive": 5348,
      "racy": 5349,
      "Ġlatest": 5350,
      "Ġmarine": 5351,
      "ĠOut": 5352,
      "Ġlessons": 5353,
      "Ġinstruction": 5354,
      "âĢĻ.": 5355,
      "ĠWild": 5356,
      "AP": 5357,
      "Ġcurriculum": 5358,
      "ĠUp": 5359,
      "that": 5360,
      "Ġrecovery": 5361,
      "cript": 5362,
      "Ġchief": 5363,
      "Ġband": 5364,
      "Ġfruits": 5365,
      "ĠCommit": 5366,
      "Im": 5367,
      "gl": 5368,
      "ĠControl": 5369,
      "down": 5370,
      "Ġsed": 5371,
      "ompl": 5372,
      "ĠRights": 5373,
      "Ġrecognize": 5374,
      "Ġdial": 5375,
      "iest": 5376,
      "Ġbones": 5377,
      "dden": 5378,
      "la": 5379,
      "liam": 5380,
      "ĠMont": 5381,
      "ĠFranc": 5382,
      "500": 5383,
      "zy": 5384,
      "ĠDel": 5385,
      "Ġroots": 5386,
      "ĠInformation": 5387,
      "Ġreform": 5388,
      "Ġphone": 5389,
      "Ġelev": 5390,
      "Ġraise": 5391,
      "Ġmillions": 5392,
      "Do": 5393,
      "Ġfiles": 5394,
      "Ġemployees": 5395,
      "lers": 5396,
      "Ġbusinesses": 5397,
      "Ġnarrow": 5398,
      "ascular": 5399,
      "Ġcontaining": 5400,
      "Ġdeaths": 5401,
      "Ġtalking": 5402,
      "Ġoutcomes": 5403,
      "des": 5404,
      "amily": 5405,
      "Ġdecrease": 5406,
      "Ġvillage": 5407,
      "name": 5408,
      "Ġ2020": 5409,
      "Ġprices": 5410,
      "ĠAnother": 5411,
      "During": 5412,
      "ĠIr": 5413,
      "ĠData": 5414,
      "ĠStand": 5415,
      "Ġsmart": 5416,
      "Ġjustice": 5417,
      "Ġleadership": 5418,
      "isp": 5419,
      "Ġregularly": 5420,
      "Ġhouses": 5421,
      "Ġpregnancy": 5422,
      "ulin": 5423,
      "osc": 5424,
      "Ġwarming": 5425,
      "Ġadvoc": 5426,
      "Ġopinion": 5427,
      "Ġmamm": 5428,
      "Ġconscious": 5429,
      "Ġimmig": 5430,
      "Ġdiscussed": 5431,
      "mas": 5432,
      "Ġapart": 5433,
      "ĠSuch": 5434,
      "Ġaccomp": 5435,
      "Ġinternet": 5436,
      "Ġcomputers": 5437,
      "ctic": 5438,
      "Ġ2018": 5439,
      "sts": 5440,
      "obe": 5441,
      "ĠSea": 5442,
      "OT": 5443,
      "pass": 5444,
      "ario": 5445,
      "Ġnarr": 5446,
      "osph": 5447,
      "ĠInstead": 5448,
      "Gen": 5449,
      "Ġsudden": 5450,
      "Ġsubsequ": 5451,
      "eck": 5452,
      "ĠSte": 5453,
      "Ġshel": 5454,
      "ĠCanadian": 5455,
      "Ġsides": 5456,
      "ĠNations": 5457,
      "Ġdescribes": 5458,
      "ymph": 5459,
      "Ġmyth": 5460,
      "Ġexpensive": 5461,
      "Ġmoon": 5462,
      "ĠLike": 5463,
      "Ġregional": 5464,
      "Ġble": 5465,
      "Ġtouch": 5466,
      "alian": 5467,
      "BC": 5468,
      "long": 5469,
      "ND": 5470,
      "Ġkm": 5471,
      "ibilities": 5472,
      "pat": 5473,
      "Ġaccompl": 5474,
      "Ġsets": 5475,
      "My": 5476,
      "cling": 5477,
      "ĠLearning": 5478,
      "ocratic": 5479,
      "rust": 5480,
      "Ġprocedures": 5481,
      "Ġwindow": 5482,
      "Ġcreative": 5483,
      "ĠLand": 5484,
      "Ġcomprehensive": 5485,
      "anta": 5486,
      "Ġinfrastructure": 5487,
      "Ġvaluable": 5488,
      "Ind": 5489,
      "gment": 5490,
      "ĠNature": 5491,
      "Ġsubstance": 5492,
      "ĠMake": 5493,
      "Ġformal": 5494,
      "Ġsuffering": 5495,
      "fall": 5496,
      "Ġinterview": 5497,
      "Ġpretty": 5498,
      "ĠFlorida": 5499,
      "Ġnetworks": 5500,
      "Ġsurvival": 5501,
      "Ġclosed": 5502,
      "Ġ2002": 5503,
      "Ġtiny": 5504,
      "Ġpig": 5505,
      "Ġincl": 5506,
      "Ġinflammation": 5507,
      "hi": 5508,
      "Ġprecise": 5509,
      "Ġargument": 5510,
      "Ġlifest": 5511,
      "oric": 5512,
      "uilding": 5513,
      "ION": 5514,
      "ny": 5515,
      "ĠFederal": 5516,
      "Ġscholars": 5517,
      "liament": 5518,
      "Ġdut": 5519,
      "Ġlaun": 5520,
      "Ġslowly": 5521,
      "ĠWind": 5522,
      "pping": 5523,
      "Ġdriving": 5524,
      "Ġimpossible": 5525,
      "ĠCharles": 5526,
      "Ġguidelines": 5527,
      "Ġarms": 5528,
      "Ġunlike": 5529,
      "Ġcardi": 5530,
      "Ġpure": 5531,
      "ĠLabor": 5532,
      "Ġrestrict": 5533,
      "Ġpil": 5534,
      "icks": 5535,
      "athy": 5536,
      "Ġpictures": 5537,
      "Other": 5538,
      "tage": 5539,
      "Ġalt": 5540,
      "ĠUsing": 5541,
      "Ġpray": 5542,
      "osal": 5543,
      "Ġtraffic": 5544,
      "Ġmoral": 5545,
      "ĠEnvironmental": 5546,
      "ĠSupp": 5547,
      "Ġchann": 5548,
      "ĠNor": 5549,
      "Ġaccepted": 5550,
      "Ġbrown": 5551,
      "Ġcorrespond": 5552,
      "Ġinfected": 5553,
      "tenance": 5554,
      "ĠCarol": 5555,
      "Ġcoff": 5556,
      "Ġfrag": 5557,
      "Ġtow": 5558,
      "plicated": 5559,
      "Ġsatell": 5560,
      "Ġcandid": 5561,
      "100": 5562,
      "inations": 5563,
      "Ġera": 5564,
      "Ġdoctors": 5565,
      "Ġtoler": 5566,
      "Ġancest": 5567,
      "ĠRobert": 5568,
      "ooth": 5569,
      "Ġinches": 5570,
      "Ġproducing": 5571,
      "ĠJud": 5572,
      "Ġsuffer": 5573,
      "Ġagreement": 5574,
      "ĠTer": 5575,
      "Ġchapter": 5576,
      "Ġinterf": 5577,
      "ca": 5578,
      "ĠCatholic": 5579,
      "Ġwildlife": 5580,
      "Ġoriginally": 5581,
      "Ġagriculture": 5582,
      "ĠDisc": 5583,
      "Ġrecip": 5584,
      "Ġdream": 5585,
      "vironments": 5586,
      "Ġmassive": 5587,
      "Ġwire": 5588,
      "Ġpossibly": 5589,
      "Ġmicrob": 5590,
      "ĠSat": 5591,
      "ibl": 5592,
      "Ġextract": 5593,
      "ĠAp": 5594,
      "acts": 5595,
      "Ġdiam": 5596,
      "Ġlands": 5597,
      "Ġpu": 5598,
      "ĠPost": 5599,
      "Ġworse": 5600,
      "Ġmedication": 5601,
      "Ġsoldiers": 5602,
      "Ġframework": 5603,
      "olve": 5604,
      "esity": 5605,
      "Ġgun": 5606,
      "Ġnormally": 5607,
      "Ġlandscape": 5608,
      "Ġintroduction": 5609,
      "Ġprepare": 5610,
      "urd": 5611,
      "Ġplate": 5612,
      "Ġmanaged": 5613,
      "Ġ189": 5614,
      "alse": 5615,
      "Ġ45": 5616,
      "ĠEngine": 5617,
      "Ġsan": 5618,
      "Ġminim": 5619,
      "abil": 5620,
      "Ġsky": 5621,
      "Ġimproving": 5622,
      "ĠManagement": 5623,
      "48": 5624,
      "Ã¡": 5625,
      "Ġpossibility": 5626,
      "Ġcapable": 5627,
      "ÃŃ": 5628,
      "Ġexchange": 5629,
      "Ġcalls": 5630,
      "Ġprinciple": 5631,
      "Ġinner": 5632,
      "Ġdiversity": 5633,
      "Ġhunt": 5634,
      "ĠSum": 5635,
      "Ġgenerate": 5636,
      "othe": 5637,
      "Ġedge": 5638,
      "spec": 5639,
      "Ġadopted": 5640,
      "Ġcorpor": 5641,
      "Ġvehicles": 5642,
      "Ġworldwide": 5643,
      "Ġopened": 5644,
      "HO": 5645,
      "Ġcorn": 5646,
      "bing": 5647,
      "Ġsecondary": 5648,
      "ĠBet": 5649,
      "Ġextensive": 5650,
      "being": 5651,
      "Dr": 5652,
      "Ġdust": 5653,
      "ĠCompany": 5654,
      "Ġfacilit": 5655,
      "prise": 5656,
      "Ġtail": 5657,
      "lements": 5658,
      "ĠLibrary": 5659,
      "rants": 5660,
      "umber": 5661,
      "ava": 5662,
      "ĠOffice": 5663,
      "Ġsensitive": 5664,
      "Ġwear": 5665,
      "Ġfigures": 5666,
      "Ġmobile": 5667,
      "exp": 5668,
      "Ġlabel": 5669,
      "Ġdepos": 5670,
      "Ġsurf": 5671,
      "Ġabsolute": 5672,
      "Ġobtained": 5673,
      "ifies": 5674,
      "Ġspeaking": 5675,
      "ĠSaf": 5676,
      "indu": 5677,
      "reed": 5678,
      "ĠCommon": 5679,
      "olester": 5680,
      "Ġadministration": 5681,
      "Ġelectronic": 5682,
      "Ġappearance": 5683,
      "Ġdatabase": 5684,
      "Ġstored": 5685,
      "ĠNav": 5686,
      "ht": 5687,
      "Ġtun": 5688,
      "Ġfell": 5689,
      "Ġdecade": 5690,
      "Ġprevention": 5691,
      "Ġrevealed": 5692,
      "Ġrid": 5693,
      "Ġdiverse": 5694,
      "rem": 5695,
      "Ġstock": 5696,
      "Ġparam": 5697,
      "38": 5698,
      "orrow": 5699,
      "Ġflight": 5700,
      "war": 5701,
      "orith": 5702,
      "Ġmedium": 5703,
      "Ġconcrete": 5704,
      "Ġtroops": 5705,
      "39": 5706,
      "ola": 5707,
      "Ġchain": 5708,
      "free": 5709,
      "Ġachieved": 5710,
      "normal": 5711,
      "Ġdecline": 5712,
      "Ġdistrict": 5713,
      "abric": 5714,
      "Ġacts": 5715,
      "Ġwants": 5716,
      "Ġvote": 5717,
      "Ġunderstood": 5718,
      "Ġstarts": 5719,
      "inet": 5720,
      "Ġgather": 5721,
      "Ġcreates": 5722,
      "ĠSmith": 5723,
      "Ġgal": 5724,
      "Ġsuitable": 5725,
      "ĠGood": 5726,
      "ĠWil": 5727,
      "Ġunless": 5728,
      "Ġsurvive": 5729,
      "ota": 5730,
      "Ġdistingu": 5731,
      "Ġanswers": 5732,
      "Ġstick": 5733,
      "Ġassemb": 5734,
      "stream": 5735,
      "ĠThose": 5736,
      "Ġpoet": 5737,
      "Ġvolunte": 5738,
      "Ġ2019": 5739,
      "Ġhorse": 5740,
      "Ġsick": 5741,
      "Ġsyndrome": 5742,
      "apping": 5743,
      "Ġmountain": 5744,
      "Ġchart": 5745,
      "anguage": 5746,
      "Ġsell": 5747,
      "icians": 5748,
      "ĠLeg": 5749,
      "ĠScient": 5750,
      "Ġafford": 5751,
      "ING": 5752,
      "Ġenhance": 5753,
      "Ġrub": 5754,
      "ĠCommittee": 5755,
      "Ġagencies": 5756,
      "Ġrepeated": 5757,
      "ĠTem": 5758,
      "idden": 5759,
      "ĠAlex": 5760,
      "ĠKnow": 5761,
      "olesterol": 5762,
      "Ġformat": 5763,
      "Ġprotocol": 5764,
      "Te": 5765,
      "Ġentirely": 5766,
      "ye": 5767,
      "Ġinject": 5768,
      "Ġdedic": 5769,
      "Ġsports": 5770,
      "Ġintake": 5771,
      "Ġadequ": 5772,
      "Ġtransition": 5773,
      "Ġintellect": 5774,
      "Ġconstitution": 5775,
      "Ġapprec": 5776,
      "Ġcars": 5777,
      "Ġhttps": 5778,
      "Ġ185": 5779,
      "Ġ188": 5780,
      "ait": 5781,
      "wing": 5782,
      "ada": 5783,
      "Ġneck": 5784,
      "Ġimper": 5785,
      "Ġlatter": 5786,
      "Ġenvironments": 5787,
      "Ġstages": 5788,
      "Ġnewsp": 5789,
      "Ġengage": 5790,
      "34": 5791,
      "Ġtwice": 5792,
      "ditionally": 5793,
      "Ġ1980": 5794,
      "Ġtal": 5795,
      "Ġfill": 5796,
      "Ġselection": 5797,
      "Ġassistance": 5798,
      "Ġelectron": 5799,
      "Ġmanufacturing": 5800,
      "ĠHenry": 5801,
      "agers": 5802,
      "Ġsharing": 5803,
      "ĠLouis": 5804,
      "Ġthor": 5805,
      "anda": 5806,
      "Ġfasc": 5807,
      "Ġfailed": 5808,
      "Ġsuc": 5809,
      "asive": 5810,
      "Sc": 5811,
      "hist": 5812,
      "alysis": 5813,
      "osqu": 5814,
      "Ġobl": 5815,
      "asp": 5816,
      ".âĢĻ": 5817,
      "zen": 5818,
      "Ġdin": 5819,
      "teries": 5820,
      "Ġroutine": 5821,
      "ĠPower": 5822,
      "izer": 5823,
      "aria": 5824,
      "ston": 5825,
      "Ġlisted": 5826,
      "ona": 5827,
      "abits": 5828,
      "Ġsteel": 5829,
      "Ġharmful": 5830,
      "Re": 5831,
      "Ġlibrary": 5832,
      "De": 5833,
      "ects": 5834,
      "ocracy": 5835,
      "Ġuniverse": 5836,
      "Ġopening": 5837,
      "See": 5838,
      "Ġaw": 5839,
      "Ġnurs": 5840,
      "ints": 5841,
      "Ġequival": 5842,
      "Ġtruly": 5843,
      "Ġsupplies": 5844,
      "rors": 5845,
      "Us": 5846,
      "Ġdigest": 5847,
      "Ġexpressed": 5848,
      "Ġprofessionals": 5849,
      "ĠVirginia": 5850,
      "DF": 5851,
      "cel": 5852,
      "Ġperce": 5853,
      "ropical": 5854,
      "rot": 5855,
      "Ġrefuge": 5856,
      "Ġinjuries": 5857,
      "Ġconsid": 5858,
      "Ġ300": 5859,
      "Ġcatch": 5860,
      "imer": 5861,
      "ĠInf": 5862,
      "Ġchoices": 5863,
      "Ġreaders": 5864,
      "Ġjourney": 5865,
      "Ġcircumstances": 5866,
      "roid": 5867,
      "luding": 5868,
      "Ġseeing": 5869,
      "Ġsweet": 5870,
      "Ġobtain": 5871,
      "Ġintelligence": 5872,
      "âĢĺ": 5873,
      "ĠBro": 5874,
      "rine": 5875,
      "ĠTor": 5876,
      "ĠPers": 5877,
      "Ġtells": 5878,
      "Ġexperiments": 5879,
      "ĠStudies": 5880,
      "Ġremind": 5881,
      "Ġgreatly": 5882,
      "Ġaccounts": 5883,
      "CR": 5884,
      "Ġhealthcare": 5885,
      "ctive": 5886,
      "flow": 5887,
      "omach": 5888,
      "Ġsupplement": 5889,
      "Read": 5890,
      "Ġdomin": 5891,
      "cture": 5892,
      "Ġindeed": 5893,
      "Ġpossess": 5894,
      "using": 5895,
      "ansion": 5896,
      "Ġphr": 5897,
      "Ġacceler": 5898,
      "Ġdecide": 5899,
      "Ġgenerated": 5900,
      "Ġcalcium": 5901,
      "Ġbudget": 5902,
      "organ": 5903,
      "Ġgall": 5904,
      "Ġchildhood": 5905,
      "Ġreject": 5906,
      "Ġ1999": 5907,
      "born": 5908,
      "uke": 5909,
      "erent": 5910,
      "Ġtea": 5911,
      "ato": 5912,
      "Ġlots": 5913,
      "ĠId": 5914,
      "Ġremote": 5915,
      "Ġfoundation": 5916,
      "Ġreader": 5917,
      "Ġcourses": 5918,
      "Ġhappy": 5919,
      "tra": 5920,
      "Ġflag": 5921,
      "Ġextended": 5922,
      "Ġshell": 5923,
      "Ġparalle": 5924,
      "Ġwaves": 5925,
      "ĠProv": 5926,
      "Ġkit": 5927,
      "Ġforests": 5928,
      "called": 5929,
      "oto": 5930,
      "Ġoptim": 5931,
      "Ġunknown": 5932,
      "ĠVict": 5933,
      "Ġproduces": 5934,
      "Ġwors": 5935,
      "ini": 5936,
      "Ġlaboratory": 5937,
      "Ġinsects": 5938,
      "BN": 5939,
      "Ġbroken": 5940,
      "ipping": 5941,
      "Ġimplementation": 5942,
      "Ġabund": 5943,
      "Ġdesire": 5944,
      "Ġgrav": 5945,
      "Ġdoubt": 5946,
      "ivery": 5947,
      "erals": 5948,
      "ĠGet": 5949,
      "Ġdescription": 5950,
      "Ġerror": 5951,
      "Ġdaughter": 5952,
      "rob": 5953,
      "ĠKh": 5954,
      "itative": 5955,
      "Ġamb": 5956,
      "ĠAtt": 5957,
      "inction": 5958,
      "arant": 5959,
      "Ġourselves": 5960,
      "Ġremaining": 5961,
      "hemical": 5962,
      "Ġcolleagues": 5963,
      "Ġwww": 5964,
      "Ġagency": 5965,
      "ita": 5966,
      "ĠYet": 5967,
      "Ġfewer": 5968,
      "Ġstruggle": 5969,
      "add": 5970,
      "bert": 5971,
      "Ġmulti": 5972,
      "ĠAustralian": 5973,
      "eper": 5974,
      "Ġconsumers": 5975,
      "En": 5976,
      "Ġunp": 5977,
      "icon": 5978,
      "ypes": 5979,
      "Ġattend": 5980,
      "Ġstudying": 5981,
      "Ġpull": 5982,
      "ĠChic": 5983,
      "Ġaqu": 5984,
      "44": 5985,
      "Ġfilled": 5986,
      "Ġantibiot": 5987,
      "Ġdestroyed": 5988,
      "Ġshift": 5989,
      "anged": 5990,
      "LE": 5991,
      "Ġshut": 5992,
      "ĠAbout": 5993,
      "ĠProfessor": 5994,
      "Äģ": 5995,
      "orter": 5996,
      "Ġplays": 5997,
      "Ġfossil": 5998,
      "Cont": 5999,
      "ĠLab": 6000,
      "ĠItaly": 6001,
      "Ġsupports": 6002,
      "Ġroof": 6003,
      "ĠReview": 6004,
      "Ġlimits": 6005,
      "ĠEmpire": 6006,
      "Ġlocations": 6007,
      "Ġbehaviour": 6008,
      "ĠDan": 6009,
      "ĠOnly": 6010,
      "Ġbeneficial": 6011,
      "ĠValley": 6012,
      "Ġax": 6013,
      "Ġhandle": 6014,
      "Ġphotograph": 6015,
      "icide": 6016,
      "aser": 6017,
      "DP": 6018,
      "Ġsentence": 6019,
      "Ġships": 6020,
      "Ġwave": 6021,
      "amil": 6022,
      "ogue": 6023,
      "Ġ500": 6024,
      "zil": 6025,
      "ribed": 6026,
      "Ġserver": 6027,
      "ĠAC": 6028,
      "Ġenable": 6029,
      "inking": 6030,
      "Ġcounty": 6031,
      "Ġath": 6032,
      "Ġfly": 6033,
      "ĠThrough": 6034,
      "Ġskill": 6035,
      "Ġyounger": 6036,
      "Ġcloser": 6037,
      "Pe": 6038,
      "Ġsolve": 6039,
      "Ġauthorities": 6040,
      "Ġvulnerable": 6041,
      "ka": 6042,
      "Ġpref": 6043,
      "ĠAnn": 6044,
      "Ġorganized": 6045,
      "Ġoutl": 6046,
      "Ġmarriage": 6047,
      "abul": 6048,
      "Ġboost": 6049,
      "Ġhydrogen": 6050,
      "Ġstroke": 6051,
      "American": 6052,
      "ague": 6053,
      "Ġcloud": 6054,
      "Ġcultures": 6055,
      "Ġsuccessfully": 6056,
      "Ġwalking": 6057,
      "under": 6058,
      "Ġstanding": 6059,
      "ĠCancer": 6060,
      "Ġmarked": 6061,
      "ĠJoseph": 6062,
      "Ġcarefully": 6063,
      "Ġaf": 6064,
      "Ġflav": 6065,
      "hand": 6066,
      "cules": 6067,
      "Ġmaintenance": 6068,
      "Ġalgorith": 6069,
      "Ġnerve": 6070,
      "ĠSl": 6071,
      "Ġdiscipl": 6072,
      "ĠTHE": 6073,
      "Ġtransportation": 6074,
      "32": 6075,
      "ĠJe": 6076,
      "isters": 6077,
      "Ġcritic": 6078,
      "ĠLong": 6079,
      "Since": 6080,
      "kes": 6081,
      "ĠSecurity": 6082,
      "Ġdoor": 6083,
      "ena": 6084,
      "Ġuns": 6085,
      "ĠAny": 6086,
      "Ġhousing": 6087,
      "Ġlisten": 6088,
      "Ġ1970": 6089,
      "ĠExp": 6090,
      "Ġcryst": 6091,
      "Ġhus": 6092,
      "ĠPsych": 6093,
      "Ġprem": 6094,
      "Can": 6095,
      "Se": 6096,
      "ua": 6097,
      "ĠViet": 6098,
      "Ġprincip": 6099,
      "burg": 6100,
      "ĠUSA": 6101,
      "Ġfunds": 6102,
      "Ġbrand": 6103,
      "Ġimmediate": 6104,
      "Ã¼": 6105,
      "inn": 6106,
      "Ġnine": 6107,
      "Ġreplaced": 6108,
      "Ġaudience": 6109,
      "Ġrank": 6110,
      "Ġrhy": 6111,
      "Ġoverl": 6112,
      "Ġtraum": 6113,
      "Ġobst": 6114,
      "ĠSouthern": 6115,
      "Ġbear": 6116,
      "Ġ31": 6117,
      "mary": 6118,
      "Ġamaz": 6119,
      "Ġissued": 6120,
      "Ġcultiv": 6121,
      "Ġcoffee": 6122,
      "oned": 6123,
      "Ġdental": 6124,
      "ums": 6125,
      "Ġpowers": 6126,
      "Ġarchitecture": 6127,
      "etime": 6128,
      "ĠGlobal": 6129,
      "irty": 6130,
      "ĠFe": 6131,
      "antly": 6132,
      "Ġmarried": 6133,
      "Ġdebate": 6134,
      "Ġfighting": 6135,
      "Ġsubs": 6136,
      "Ġcircuit": 6137,
      "inity": 6138,
      "Ġwish": 6139,
      "edu": 6140,
      "Ġsupposed": 6141,
      "Ġthousand": 6142,
      "Ġvessels": 6143,
      "37": 6144,
      "no": 6145,
      "Ġcentre": 6146,
      "ĠCare": 6147,
      "elled": 6148,
      "ĠStreet": 6149,
      "Ġterritory": 6150,
      "Ġpermanent": 6151,
      "Ġcustomers": 6152,
      "Ġgone": 6153,
      "Ġindex": 6154,
      "Ġregulations": 6155,
      "ediatric": 6156,
      "Ġstomach": 6157,
      "ĠReport": 6158,
      "Ġlifestyle": 6159,
      "Ġjoin": 6160,
      "body": 6161,
      "iform": 6162,
      "Ġemployment": 6163,
      "Ġconsistent": 6164,
      "ĠOx": 6165,
      "Ġfounded": 6166,
      "Stud": 6167,
      "Ġearthqu": 6168,
      "Ġfixed": 6169,
      "Ġleaf": 6170,
      "Ġdifficulty": 6171,
      "heast": 6172,
      "Ġtransmission": 6173,
      "sey": 6174,
      "Ġstands": 6175,
      "Ġinteraction": 6176,
      "Ġdrawing": 6177,
      "Ġderived": 6178,
      "Ġrising": 6179,
      "Ġbattery": 6180,
      "level": 6181,
      "ĠSpain": 6182,
      "ĠCap": 6183,
      "Ġorganisms": 6184,
      "Ġopposite": 6185,
      "lets": 6186,
      "Ġsupporting": 6187,
      "ĠIll": 6188,
      "Ġsignals": 6189,
      "Ġzone": 6190,
      "Ġindicates": 6191,
      "Ġcommunicate": 6192,
      "Ġdedicated": 6193,
      "iration": 6194,
      "Ġtex": 6195,
      "Ġsmoke": 6196,
      "Ġdioxide": 6197,
      "Ġcarb": 6198,
      "Ġrepresented": 6199,
      "then": 6200,
      "Ġremark": 6201,
      "Ġmixed": 6202,
      "ache": 6203,
      "ĠNorthern": 6204,
      "Ġinstitution": 6205,
      "Ġpurchase": 6206,
      "ĠDiv": 6207,
      "Ġrelax": 6208,
      "Ġgluc": 6209,
      "Ġcutting": 6210,
      "Ġtaste": 6211,
      "Ġsight": 6212,
      "ĠMad": 6213,
      "Ġcomments": 6214,
      "Ġunable": 6215,
      "Ġaward": 6216,
      "Ġacids": 6217,
      "fortunately": 6218,
      "Ġcomposition": 6219,
      "ctor": 6220,
      "gent": 6221,
      "ĠCamp": 6222,
      "Ġchosen": 6223,
      "igned": 6224,
      "CS": 6225,
      "but": 6226,
      "Ġaircraft": 6227,
      "65": 6228,
      "Ġsod": 6229,
      "Ġnecessarily": 6230,
      "Ġresponses": 6231,
      "Ġasthma": 6232,
      "pet": 6233,
      "Ġreserv": 6234,
      "ĠPub": 6235,
      "ĠIndians": 6236,
      "Ġvoltage": 6237,
      "31": 6238,
      "ĠIP": 6239,
      "Ġturns": 6240,
      "ĠPan": 6241,
      "kins": 6242,
      "ĠAcademy": 6243,
      "Ġvoc": 6244,
      "Ġcholesterol": 6245,
      "Ġpercentage": 6246,
      "Ġarrived": 6247,
      "Ġhem": 6248,
      "aped": 6249,
      "Ġknows": 6250,
      "Ġpersist": 6251,
      "Ġbiggest": 6252,
      "Ġsequence": 6253,
      "osquit": 6254,
      "Ġinsurance": 6255,
      "ĠGold": 6256,
      "earchers": 6257,
      "Ġcomparison": 6258,
      "Ġgrew": 6259,
      "99": 6260,
      "Ġsimpl": 6261,
      "ĠBoard": 6262,
      "Ġconventional": 6263,
      "Ġbreathing": 6264,
      "ĠBur": 6265,
      "ĠParty": 6266,
      "ki": 6267,
      "ĠRad": 6268,
      "ĠRob": 6269,
      "Ġdiagnosed": 6270,
      "Ġunus": 6271,
      "Ġpup": 6272,
      "ĠStat": 6273,
      "ashion": 6274,
      "ĠHall": 6275,
      "Ġscript": 6276,
      "Ġunderlying": 6277,
      "ĠCamb": 6278,
      "ĠHome": 6279,
      "Ġcontamin": 6280,
      "ifications": 6281,
      "ora": 6282,
      "Ġraw": 6283,
      "âĢĻ,": 6284,
      "Ġregul": 6285,
      "Ġadministr": 6286,
      "Ġkidney": 6287,
      "zed": 6288,
      "ĠMag": 6289,
      "asty": 6290,
      "Ġpus": 6291,
      "Ġbutter": 6292,
      "Ġdefe": 6293,
      "Ġemotions": 6294,
      "wo": 6295,
      "Ġtall": 6296,
      "Ġdensity": 6297,
      "ĠMill": 6298,
      "Ġsucceed": 6299,
      "ugh": 6300,
      "uation": 6301,
      "Ġexplo": 6302,
      "ployment": 6303,
      "Ġlayers": 6304,
      "uter": 6305,
      "Ġteen": 6306,
      "Ġfabric": 6307,
      "Ġlies": 6308,
      "umes": 6309,
      "Ġinstruments": 6310,
      "].": 6311,
      "Ġmice": 6312,
      "throp": 6313,
      "Ġblocks": 6314,
      "from": 6315,
      "Ġhabits": 6316,
      "utch": 6317,
      "Ġattached": 6318,
      "word": 6319,
      "Ġcards": 6320,
      "Ġstable": 6321,
      "Ġparticipate": 6322,
      "ĠBre": 6323,
      "Ġtrained": 6324,
      "Ġdownload": 6325,
      "ĠAdminist": 6326,
      "Ġconnections": 6327,
      "ĠSol": 6328,
      "Ġcolour": 6329,
      "Ġintervention": 6330,
      "Ġobservations": 6331,
      "Ġultimately": 6332,
      "hop": 6333,
      "Ġcos": 6334,
      "ĠBank": 6335,
      "Ġepid": 6336,
      "Ġclust": 6337,
      "ĠClimate": 6338,
      "cher": 6339,
      "Ġreven": 6340,
      "Ġhoriz": 6341,
      "bran": 6342,
      "Ġtons": 6343,
      "Ġresolution": 6344,
      "Ġmatters": 6345,
      "ĠDisease": 6346,
      "Ġguarant": 6347,
      "itter": 6348,
      "ione": 6349,
      "ĠExt": 6350,
      "Ġprev": 6351,
      "Ġmagnetic": 6352,
      "Ġbehaviors": 6353,
      "ĠPeter": 6354,
      "Ġ1998": 6355,
      "Ġimprovement": 6356,
      "Ġphilosophy": 6357,
      "Ġ>": 6358,
      "Ġyield": 6359,
      "ĠExpl": 6360,
      "46": 6361,
      "Ġshop": 6362,
      "Ġmolecules": 6363,
      "Ġjoined": 6364,
      "orous": 6365,
      "ĠBr": 6366,
      "ĠWood": 6367,
      "Ġends": 6368,
      "ĠCult": 6369,
      "hether": 6370,
      "Ġnearby": 6371,
      "Ġwitness": 6372,
      "Ġborder": 6373,
      "ribe": 6374,
      "Ġresulted": 6375,
      "Ġprompt": 6376,
      "76": 6377,
      "ĠStudy": 6378,
      "inating": 6379,
      "Ġartificial": 6380,
      "Ġeastern": 6381,
      "Ġfrequent": 6382,
      "sets": 6383,
      "ĠAI": 6384,
      "Ġmechanism": 6385,
      "Ġfalse": 6386,
      "stein": 6387,
      "Ġdelivery": 6388,
      "Ġprove": 6389,
      "Ġveter": 6390,
      "ĠParis": 6391,
      "ĠIN": 6392,
      "Ġexamine": 6393,
      "Ġrequest": 6394,
      "how": 6395,
      "Ġexists": 6396,
      "Ġcompounds": 6397,
      "Ġvariable": 6398,
      "UR": 6399,
      "gans": 6400,
      "ĠPenn": 6401,
      "Ġwhereas": 6402,
      "rovers": 6403,
      "Ġaccum": 6404,
      "Ġcats": 6405,
      "Ġlegislation": 6406,
      "adder": 6407,
      "Ġobesity": 6408,
      "Ġholds": 6409,
      "Ġmild": 6410,
      "ĠGal": 6411,
      "peror": 6412,
      "riers": 6413,
      "ih": 6414,
      "Ġemployed": 6415,
      "while": 6416,
      "Ġchrom": 6417,
      "Ġscan": 6418,
      "Ġlegs": 6419,
      "Ġtwenty": 6420,
      "Ġacknow": 6421,
      "pan": 6422,
      "icious": 6423,
      "ĠRome": 6424,
      "Ġshot": 6425,
      "Ġwasn": 6426,
      "ĠVis": 6427,
      "Ġbiod": 6428,
      "Ġestimates": 6429,
      "ĠAst": 6430,
      "Ġzero": 6431,
      "Ġmand": 6432,
      "Ġholid": 6433,
      "riting": 6434,
      "Ġoccasion": 6435,
      "ĠTime": 6436,
      "ĠMo": 6437,
      "Ġmanip": 6438,
      "ĠAdd": 6439,
      "First": 6440,
      "Ġwhatever": 6441,
      "ighter": 6442,
      "Ġcrim": 6443,
      "ĠBrazil": 6444,
      "ester": 6445,
      "Ġmac": 6446,
      "ĠNative": 6447,
      "Ġaccident": 6448,
      "Ġcontained": 6449,
      "such": 6450,
      "Ġusage": 6451,
      "Ġstatistics": 6452,
      "onia": 6453,
      "aud": 6454,
      "Ġrivers": 6455,
      "Ġequivalent": 6456,
      "ĠChicago": 6457,
      "Ġbread": 6458,
      "Ġfract": 6459,
      "opic": 6460,
      "Ġwilling": 6461,
      "Ġestimate": 6462,
      "Ã¶": 6463,
      "cycl": 6464,
      "bur": 6465,
      "stract": 6466,
      "Ġcoastal": 6467,
      "Let": 6468,
      "Ġeld": 6469,
      "opl": 6470,
      "Ġdemonstrate": 6471,
      "ĠRichard": 6472,
      "EP": 6473,
      "Ġmachines": 6474,
      "Ġethnic": 6475,
      "Ġinstructions": 6476,
      "Ġexplanation": 6477,
      "49": 6478,
      "earing": 6479,
      "Ġgenerations": 6480,
      "ĠClin": 6481,
      "Ġelection": 6482,
      "Ġgreenhouse": 6483,
      "Ġindependence": 6484,
      "Ġmood": 6485,
      "ĠKeep": 6486,
      "gu": 6487,
      "Ġcommitted": 6488,
      "erior": 6489,
      "Ġdemonstrated": 6490,
      "ĠBab": 6491,
      "Ġpanel": 6492,
      "Ġsacr": 6493,
      "Ġswim": 6494,
      "Ġpra": 6495,
      "Ġbridge": 6496,
      "Ġrice": 6497,
      "Ġpron": 6498,
      "Ġgap": 6499,
      "Ġment": 6500,
      "ĠSk": 6501,
      "ĠFace": 6502,
      "ĠOh": 6503,
      "ĠConst": 6504,
      "Ġnegot": 6505,
      "Ġscene": 6506,
      "een": 6507,
      "irds": 6508,
      "usal": 6509,
      "Ġpreval": 6510,
      "Ġdefine": 6511,
      "idity": 6512,
      "Not": 6513,
      "sue": 6514,
      "Ġsettings": 6515,
      "Ġuniversity": 6516,
      "ĠItalian": 6517,
      "Ġsurve": 6518,
      "ĠISBN": 6519,
      "Bl": 6520,
      "Ġcart": 6521,
      "ocy": 6522,
      "Ġspaces": 6523,
      "itely": 6524,
      "Ġreactions": 6525,
      "Ġratio": 6526,
      "abled": 6527,
      "ĠOF": 6528,
      "Ġconfidence": 6529,
      "Ġfold": 6530,
      "Ġhistoric": 6531,
      "orph": 6532,
      "ĠSing": 6533,
      "Ġcamera": 6534,
      "eenth": 6535,
      "ĠMer": 6536,
      "Ġdelay": 6537,
      "rat": 6538,
      "Ġislands": 6539,
      "Ġphysics": 6540,
      "Ġpassage": 6541,
      "Ġconsumer": 6542,
      "Go": 6543,
      "Ġearn": 6544,
      "uts": 6545,
      "ĠSciences": 6546,
      "Ġoperate": 6547,
      "ĠTimes": 6548,
      "Ġpolitics": 6549,
      "ĠEth": 6550,
      "Ġrecognition": 6551,
      "Ġpsychological": 6552,
      "IL": 6553,
      "produ": 6554,
      "ĠNatural": 6555,
      "Ġtrip": 6556,
      "Ġdistur": 6557,
      "comm": 6558,
      "Ġnone": 6559,
      "Ġburning": 6560,
      "Rec": 6561,
      "Ġsections": 6562,
      "phone": 6563,
      "Ġgram": 6564,
      "ĠCy": 6565,
      "Ġmode": 6566,
      "ditional": 6567,
      "198": 6568,
      "Ġdebt": 6569,
      "Ġongoing": 6570,
      "Ġfunctional": 6571,
      ".|": 6572,
      "fish": 6573,
      "Ġpool": 6574,
      "teen": 6575,
      "Ġeveryday": 6576,
      "Ġviruses": 6577,
      "ĠEnd": 6578,
      "Ġmold": 6579,
      "Ġcapture": 6580,
      "ĠAgricult": 6581,
      "Ġaer": 6582,
      "Ġmaintaining": 6583,
      "Ġdiscrimination": 6584,
      "Ġnob": 6585,
      "ĠRoyal": 6586,
      "Ġwriter": 6587,
      "Ġdrawn": 6588,
      "etics": 6589,
      "Ġsheet": 6590,
      "Ġplayers": 6591,
      "Ġtissues": 6592,
      "Ġdollars": 6593,
      "iability": 6594,
      "ĠColor": 6595,
      "BS": 6596,
      "Ġcoc": 6597,
      "Ġhun": 6598,
      "Ġagreed": 6599,
      "uh": 6600,
      "Ġthanks": 6601,
      "Ġregist": 6602,
      "Ġsmoking": 6603,
      "scale": 6604,
      "ĠIII": 6605,
      "Your": 6606,
      "Ġindustries": 6607,
      "Ġfeeding": 6608,
      "irt": 6609,
      "Ġspending": 6610,
      "Ġinsulin": 6611,
      "espread": 6612,
      "Ġparallel": 6613,
      "isk": 6614,
      "ĠBrown": 6615,
      "arsh": 6616,
      "Ġmeters": 6617,
      "Ġ1960": 6618,
      "Ġinhib": 6619,
      "Ġmaps": 6620,
      "Ġconclusion": 6621,
      "Int": 6622,
      "Ġtut": 6623,
      "orical": 6624,
      "ults": 6625,
      "ĠMichael": 6626,
      "ented": 6627,
      "ĠWik": 6628,
      "Ġboys": 6629,
      "ĠAtlantic": 6630,
      "itual": 6631,
      "ĠExper": 6632,
      "Ġmechanisms": 6633,
      "Ġahead": 6634,
      "Ġpounds": 6635,
      "Ġrecept": 6636,
      "Ġcalories": 6637,
      "Ġdamaged": 6638,
      "Ġpregnant": 6639,
      "Ġlymph": 6640,
      "Ġcrime": 6641,
      "Ġexercises": 6642,
      "55": 6643,
      "Ġnoise": 6644,
      "ourage": 6645,
      "Lear": 6646,
      "rd": 6647,
      "Ġdrain": 6648,
      "Ġforget": 6649,
      "ĠGeorg": 6650,
      "Once": 6651,
      "athe": 6652,
      "Ġruns": 6653,
      "Ġfeedback": 6654,
      "Ġdanger": 6655,
      "Ġended": 6656,
      "Ġbio": 6657,
      "ĠCa": 6658,
      "Ġcovers": 6659,
      "Ġintellectual": 6660,
      "esis": 6661,
      "Ġfu": 6662,
      "omer": 6663,
      "Ġtrials": 6664,
      "Ġholding": 6665,
      "Ġmoisture": 6666,
      "Ġtexts": 6667,
      "Ġneither": 6668,
      "weight": 6669,
      "Ġrealize": 6670,
      "Ġglucose": 6671,
      "Ġboy": 6672,
      "Ġapproved": 6673,
      "Ġmatch": 6674,
      "Ġtel": 6675,
      "asters": 6676,
      "ĠProp": 6677,
      "Ġspok": 6678,
      "Ġevaluation": 6679,
      "avery": 6680,
      "Ġpublication": 6681,
      "everal": 6682,
      "Even": 6683,
      "ittle": 6684,
      "Ġsole": 6685,
      "Ġphoto": 6686,
      "fit": 6687,
      "ĠDet": 6688,
      "Ġinteractions": 6689,
      "ĠColumbia": 6690,
      "Ġhypothes": 6691,
      "Ġcircle": 6692,
      "umps": 6693,
      "ĠHaw": 6694,
      "Ġpositions": 6695,
      "Ġworry": 6696,
      "Ġpartner": 6697,
      "forcement": 6698,
      "Ġfro": 6699,
      "Ġfiber": 6700,
      "Ġalle": 6701,
      "ifts": 6702,
      "ĠRom": 6703,
      "ĠStep": 6704,
      "nee": 6705,
      "bour": 6706,
      "Ġmeal": 6707,
      "Ġpainting": 6708,
      "Ġputting": 6709,
      "yles": 6710,
      "ĠBig": 6711,
      "ĠScott": 6712,
      "Ġ150": 6713,
      "ĠVictor": 6714,
      "ĠMa": 6715,
      "aph": 6716,
      "ishment": 6717,
      "orses": 6718,
      "Ġsubstances": 6719,
      "Ġvictims": 6720,
      "Over": 6721,
      "Ġille": 6722,
      "reated": 6723,
      "Ġvs": 6724,
      "Ġmanif": 6725,
      "Ġaccessible": 6726,
      "itudes": 6727,
      "77": 6728,
      "reland": 6729,
      "Ġenemy": 6730,
      "Ġrocks": 6731,
      "Ġparticipation": 6732,
      "Ġforth": 6733,
      "Ġcriminal": 6734,
      "Figure": 6735,
      "Ġcrow": 6736,
      "Ġsomewhat": 6737,
      "itt": 6738,
      "Ġpapers": 6739,
      "Ġconstructed": 6740,
      "Ġblow": 6741,
      "Ġmeth": 6742,
      "ĠConn": 6743,
      "Ġ75": 6744,
      "Don": 6745,
      "Ġbrings": 6746,
      "ulty": 6747,
      "Ġartists": 6748,
      "ĠAS": 6749,
      "Ġstreet": 6750,
      "Ġvisitors": 6751,
      "igan": 6752,
      "Ġorient": 6753,
      "ĠPy": 6754,
      "usiness": 6755,
      "ureau": 6756,
      "Ġrow": 6757,
      "Ġentered": 6758,
      "Ġdestruction": 6759,
      "Ġlaunched": 6760,
      "inson": 6761,
      "ohyd": 6762,
      "Ġprohib": 6763,
      "ĠMD": 6764,
      "Ġshad": 6765,
      "ritis": 6766,
      "Ġrelation": 6767,
      "Ġexpansion": 6768,
      "Ġ1997": 6769,
      "Ġchallenging": 6770,
      "rite": 6771,
      "tering": 6772,
      "ĠFree": 6773,
      "Ġarrange": 6774,
      "Ġdepart": 6775,
      "Ġcompetition": 6776,
      "Ġnest": 6777,
      "ĠOcean": 6778,
      "Ġrepair": 6779,
      "Ġpresentation": 6780,
      "itivity": 6781,
      "Ġhole": 6782,
      "ĠDesign": 6783,
      "ĠPet": 6784,
      "gs": 6785,
      "Ġconven": 6786,
      "hesis": 6787,
      "Ġinvolving": 6788,
      "Ġcategories": 6789,
      "CD": 6790,
      "ether": 6791,
      "Ġintegrated": 6792,
      "ĠKorea": 6793,
      "Comp": 6794,
      "Ã³": 6795,
      "ĠDiff": 6796,
      "Ġentry": 6797,
      "Ġmarkets": 6798,
      "Ġsail": 6799,
      "Ġoutbre": 6800,
      "Ġserving": 6801,
      "Ġescape": 6802,
      "Ġchick": 6803,
      "Ġpeak": 6804,
      "Ġaims": 6805,
      "aine": 6806,
      "Ġreliable": 6807,
      "ĠFrank": 6808,
      "ĠCat": 6809,
      "ĠFort": 6810,
      "Ġresident": 6811,
      "ĠTake": 6812,
      "Ġrelief": 6813,
      "ĠKingdom": 6814,
      "Ġframe": 6815,
      "Ġcomposed": 6816,
      "car": 6817,
      "Ġdefense": 6818,
      "pes": 6819,
      "ĠScot": 6820,
      "Ġphysician": 6821,
      "hent": 6822,
      "Ġlake": 6823,
      "Ġminerals": 6824,
      "Of": 6825,
      "Ġhero": 6826,
      "Ġslavery": 6827,
      "ĠGuide": 6828,
      "Ġtub": 6829,
      "osion": 6830,
      "Ġfacility": 6831,
      "Ġstrongly": 6832,
      "Ġarchae": 6833,
      "Ġinstalled": 6834,
      "azine": 6835,
      "Ġloved": 6836,
      "Ġye": 6837,
      "agon": 6838,
      "Ġphosph": 6839,
      "Ġprogramming": 6840,
      "Ġdeclared": 6841,
      "Ġtrouble": 6842,
      "Note": 6843,
      "iological": 6844,
      "Ġflo": 6845,
      "Ġdesigns": 6846,
      "ĠRevolution": 6847,
      "cons": 6848,
      "Ġske": 6849,
      "Ġwidespread": 6850,
      "abulary": 6851,
      "Ġped": 6852,
      "aska": 6853,
      "Ġturning": 6854,
      "ĠCarolina": 6855,
      "itan": 6856,
      "Ġsmooth": 6857,
      "Ġbabies": 6858,
      "alls": 6859,
      "Ġingredients": 6860,
      "AA": 6861,
      "Ġwait": 6862,
      "Ġmolecular": 6863,
      "Ġguidance": 6864,
      "ugg": 6865,
      "ĠIslam": 6866,
      "dule": 6867,
      "Ġundert": 6868,
      "Ġevaluate": 6869,
      "Ġtheories": 6870,
      "Ġheating": 6871,
      "gers": 6872,
      "Ġdisaster": 6873,
      "Ġrecommendations": 6874,
      "Ġgalax": 6875,
      "oln": 6876,
      "ĠEqu": 6877,
      "Ġcontrovers": 6878,
      "Ġcolumn": 6879,
      "Ġdivision": 6880,
      "Ġroute": 6881,
      "Ġfer": 6882,
      "Ġvolcan": 6883,
      "Ġsought": 6884,
      "ĠIreland": 6885,
      "Ġpair": 6886,
      "reek": 6887,
      "Ġasking": 6888,
      "liest": 6889,
      "ĠCast": 6890,
      "Ġdischar": 6891,
      "rary": 6892,
      "yal": 6893,
      "Ġ*": 6894,
      "Ġrely": 6895,
      "Ġrig": 6896,
      "Ġfourth": 6897,
      "Ġcategory": 6898,
      "Every": 6899,
      "LA": 6900,
      "Ġarrest": 6901,
      "Ġseeking": 6902,
      "Ġdistributed": 6903,
      "VID": 6904,
      "ĠNaz": 6905,
      "Ġbond": 6906,
      "anes": 6907,
      "Ġchest": 6908,
      "Ġbeliefs": 6909,
      "utrition": 6910,
      "urrent": 6911,
      "ĠAgency": 6912,
      "Ġring": 6913,
      "Ġneur": 6914,
      "ĠEastern": 6915,
      "ĠServices": 6916,
      "stone": 6917,
      "Ġcarrying": 6918,
      "Ġcollaboration": 6919,
      "ĠMartin": 6920,
      "ĠDirector": 6921,
      "Ġmerely": 6922,
      "eless": 6923,
      "ĠForm": 6924,
      "Ġdefend": 6925,
      "ĠFamily": 6926,
      "Ġminute": 6927,
      "____": 6928,
      "tic": 6929,
      "otion": 6930,
      "ĠAge": 6931,
      "asts": 6932,
      "Ġobjective": 6933,
      "icit": 6934,
      "Ġintense": 6935,
      "Ġbot": 6936,
      "Ġhur": 6937,
      "Ġplus": 6938,
      "Ġinformed": 6939,
      "iox": 6940,
      "Ġrenewable": 6941,
      "47": 6942,
      "Ġtight": 6943,
      "ĠPC": 6944,
      "ĠPract": 6945,
      "ĠDig": 6946,
      "ĠEss": 6947,
      "Ġstring": 6948,
      "Ġreceiving": 6949,
      "operation": 6950,
      "making": 6951,
      "Ġ36": 6952,
      "Ġpoem": 6953,
      "Ġterror": 6954,
      "Ġbringing": 6955,
      "Ġfavorite": 6956,
      "Ġtank": 6957,
      "Ġconversation": 6958,
      "Ġproportion": 6959,
      "Ġsurfaces": 6960,
      "ala": 6961,
      "Ġaband": 6962,
      "Ġcompens": 6963,
      "ĠOrganization": 6964,
      "Ġfurn": 6965,
      "Ġcash": 6966,
      "Ġdent": 6967,
      "ĠEarly": 6968,
      "ĠAngel": 6969,
      "hav": 6970,
      "Ġorgans": 6971,
      "ĠGre": 6972,
      "Ġbiology": 6973,
      "Ġjudge": 6974,
      "Ġelectro": 6975,
      "Ġsignificance": 6976,
      "Ġfacing": 6977,
      "she": 6978,
      "Ġannounced": 6979,
      "herent": 6980,
      "Ġcav": 6981,
      "Ġcomplicated": 6982,
      "Ġincred": 6983,
      "Ġpharm": 6984,
      "Ġassume": 6985,
      "Ġ400": 6986,
      "inally": 6987,
      "Ġcrew": 6988,
      "Ġbreeding": 6989,
      "Ġassociation": 6990,
      "Ġphotos": 6991,
      "ĠIran": 6992,
      "Ġcod": 6993,
      "Ġthy": 6994,
      "Ġbeings": 6995,
      "Ġmaybe": 6996,
      "Ġhusband": 6997,
      "Ġstrict": 6998,
      "Ġpassing": 6999,
      "Ġfulf": 7000,
      "Ġmembran": 7001,
      "Ġrarely": 7002,
      "%)": 7003,
      "ĠChange": 7004,
      "ĠDar": 7005,
      "Ġtranslation": 7006,
      "htm": 7007,
      "TM": 7008,
      "Today": 7009,
      "heimer": 7010,
      "iratory": 7011,
      "acher": 7012,
      "Ġtheme": 7013,
      "ĠSet": 7014,
      "Ġcompris": 7015,
      "Ġoutcome": 7016,
      "ĠAsian": 7017,
      "rooms": 7018,
      "Ġsharp": 7019,
      "Ġweapons": 7020,
      "amine": 7021,
      "oples": 7022,
      "ĠHave": 7023,
      "ĠFacebook": 7024,
      "opes": 7025,
      "ixture": 7026,
      "Ġphenomenon": 7027,
      "Ġsigned": 7028,
      "ĠSometimes": 7029,
      "Ġconstantly": 7030,
      "itamin": 7031,
      "Ġforg": 7032,
      "Ġcaptured": 7033,
      "Ġclaimed": 7034,
      "Ġtraditions": 7035,
      "Ġcenters": 7036,
      "Ġattempts": 7037,
      "ĠNetwork": 7038,
      "Ġnitrogen": 7039,
      "ĠÎ": 7040,
      "Ġmosquit": 7041,
      "ocation": 7042,
      "Ġfever": 7043,
      "Ġreduces": 7044,
      "ĠThough": 7045,
      "Ġpoison": 7046,
      "rin": 7047,
      "ĠMoon": 7048,
      "Ġthreats": 7049,
      "Ġmissing": 7050,
      "abb": 7051,
      "ĠGard": 7052,
      "Ġoverw": 7053,
      "rowing": 7054,
      "Ġplane": 7055,
      "Ġpush": 7056,
      "ĠEU": 7057,
      "Ġ32": 7058,
      "Ġproved": 7059,
      "Ġdepartment": 7060,
      "Ġseconds": 7061,
      "Ġadequate": 7062,
      "Ġfashion": 7063,
      "Ġplanned": 7064,
      "ĠDistrict": 7065,
      "IG": 7066,
      "Ġimplications": 7067,
      "Ġwarning": 7068,
      "Ġbreath": 7069,
      "Ġkilomet": 7070,
      "Ġtract": 7071,
      "Ġknowing": 7072,
      "Ġoffering": 7073,
      "Ġindicated": 7074,
      "isdom": 7075,
      "Ġdealing": 7076,
      "ĠVer": 7077,
      "ĠWhere": 7078,
      "Ġwriters": 7079,
      "Ġfinished": 7080,
      "net": 7081,
      "Ġlie": 7082,
      "oston": 7083,
      "Ġcompare": 7084,
      "Ġdependent": 7085,
      "Because": 7086,
      "Ġpestic": 7087,
      "ortion": 7088,
      "Ġspin": 7089,
      "Ġmechanical": 7090,
      "Ġvirtual": 7091,
      "itarian": 7092,
      "Ġbanks": 7093,
      "ella": 7094,
      "ricts": 7095,
      "Ġitem": 7096,
      "ĠBefore": 7097,
      "Ġirrit": 7098,
      "including": 7099,
      "Ġcontrols": 7100,
      "Ġstructural": 7101,
      "Ġmoves": 7102,
      "Ġcompound": 7103,
      "Ġopposed": 7104,
      "Ġtargets": 7105,
      "plant": 7106,
      "Ġcontemporary": 7107,
      "Ġroughly": 7108,
      "Ġcareful": 7109,
      "%.": 7110,
      "79": 7111,
      "Ġplenty": 7112,
      "iah": 7113,
      "orders": 7114,
      "ĠChristmas": 7115,
      "ĠSecret": 7116,
      "Ġ1996": 7117,
      "Ġgradually": 7118,
      "Ġimagine": 7119,
      "ĠSym": 7120,
      "Ġjump": 7121,
      "Ġseemed": 7122,
      "mes": 7123,
      "Ġabnormal": 7124,
      "Ġfarming": 7125,
      "Ġsession": 7126,
      "Ġequally": 7127,
      "OL": 7128,
      "Ġdeeper": 7129,
      "Ġshock": 7130,
      "ercury": 7131,
      "Ġhonor": 7132,
      "oa": 7133,
      "Ġstre": 7134,
      "ĠCreat": 7135,
      "Ġdesired": 7136,
      "Ġengaged": 7137,
      "Ġempt": 7138,
      "Ġnervous": 7139,
      "cyclop": 7140,
      "heric": 7141,
      "Ġimplemented": 7142,
      "Ġtowns": 7143,
      "ollowing": 7144,
      "ihood": 7145,
      "Ġvac": 7146,
      "ĠWall": 7147,
      "ooking": 7148,
      "ĠHeb": 7149,
      "Ġmaintained": 7150,
      "Ġsatellite": 7151,
      "Qu": 7152,
      "Ġblind": 7153,
      "Ġmathematics": 7154,
      "ivered": 7155,
      "Ġeffectiveness": 7156,
      "Ġessentially": 7157,
      "health": 7158,
      "aming": 7159,
      "Ġjur": 7160,
      "Ġshapes": 7161,
      "Ġtheore": 7162,
      "ĠHill": 7163,
      "Ġagents": 7164,
      "acco": 7165,
      "Ġstimul": 7166,
      "Ġproven": 7167,
      "....": 7168,
      "Ġelected": 7169,
      "airy": 7170,
      "incoln": 7171,
      "Ġconsiderable": 7172,
      "Ġcopper": 7173,
      "thritis": 7174,
      "Ġmeasurements": 7175,
      "Ġbranches": 7176,
      "chen": 7177,
      "Ġparas": 7178,
      "Ġstronger": 7179,
      "Ġencouraged": 7180,
      "Ġgained": 7181,
      "ĠMen": 7182,
      "Ġran": 7183,
      "outs": 7184,
      "ictionary": 7185,
      "sis": 7186,
      "Ġowner": 7187,
      "Ġfairly": 7188,
      "Ġbath": 7189,
      "ĠHy": 7190,
      "66": 7191,
      "rays": 7192,
      "Ġinsert": 7193,
      "IM": 7194,
      "IR": 7195,
      "ĠAcc": 7196,
      "Ġmessages": 7197,
      "Ġwithd": 7198,
      "Ġbeauty": 7199,
      "Ġassigned": 7200,
      "ĠLanguage": 7201,
      "Ġconfirmed": 7202,
      "alm": 7203,
      "irus": 7204,
      "ading": 7205,
      "ĠDen": 7206,
      "ĠDespite": 7207,
      "Ġroles": 7208,
      "Ġpreventing": 7209,
      "Ġflows": 7210,
      "iat": 7211,
      "Ġdates": 7212,
      "Ġrect": 7213,
      "ansas": 7214,
      "Ġexamination": 7215,
      "Ġinfluenced": 7216,
      "Ġ180": 7217,
      "Ġcombat": 7218,
      "Ġcooking": 7219,
      "oven": 7220,
      "ĠCre": 7221,
      "Ġmining": 7222,
      "Ġsunlight": 7223,
      "Ġcattle": 7224,
      "Ġnose": 7225,
      "Ġexperimental": 7226,
      "Ġaudio": 7227,
      "ĠOpen": 7228,
      "Ġunusual": 7229,
      "Ġtube": 7230,
      "Ġinher": 7231,
      "eren": 7232,
      "Ġdose": 7233,
      "ĠCheck": 7234,
      "Ġinterpretation": 7235,
      "aked": 7236,
      "Ġdecor": 7237,
      "Ġmountains": 7238,
      "Ġtrigger": 7239,
      "88": 7240,
      "Ġarts": 7241,
      "Ġlaunch": 7242,
      "Ġneighborhood": 7243,
      "Ġrhyth": 7244,
      "va": 7245,
      "ĠKar": 7246,
      "ĠMoreover": 7247,
      "Ġtransp": 7248,
      "ommod": 7249,
      "Ġfalls": 7250,
      "Ġprincipal": 7251,
      "95": 7252,
      "Ġwheat": 7253,
      "Le": 7254,
      "Ġhoney": 7255,
      "Ġwindows": 7256,
      "Ġathlet": 7257,
      "Ġroads": 7258,
      "Ġobserve": 7259,
      "Ġembry": 7260,
      "Ġscar": 7261,
      "Ġstatements": 7262,
      "Ġsuffered": 7263,
      "ĠCoast": 7264,
      "Ġsatisf": 7265,
      "Ġartist": 7266,
      "Ġdomain": 7267,
      "ĠAP": 7268,
      "ĠPlease": 7269,
      "ĠBill": 7270,
      "riz": 7271,
      "ocolate": 7272,
      "Ġexcessive": 7273,
      "Ġhazard": 7274,
      "ĠJeff": 7275,
      "gov": 7276,
      "Ġadvert": 7277,
      "ĠVen": 7278,
      "Ġordered": 7279,
      "IDS": 7280,
      "apse": 7281,
      "isco": 7282,
      "Ġmetabol": 7283,
      "People": 7284,
      "'m": 7285,
      "Ġaged": 7286,
      "Ġdemands": 7287,
      "Ġslaves": 7288,
      "Ġhappening": 7289,
      "Ġbigger": 7290,
      "Ġepis": 7291,
      "ano": 7292,
      "olesc": 7293,
      "istical": 7294,
      "ĠLead": 7295,
      "ventions": 7296,
      "ounter": 7297,
      "Ġswitch": 7298,
      "vard": 7299,
      "Ġ65": 7300,
      "HD": 7301,
      "ĠStar": 7302,
      "example": 7303,
      "Ġbreed": 7304,
      "Ġ1995": 7305,
      "Ġfemales": 7306,
      "Ġconsidering": 7307,
      "ĠYear": 7308,
      "Ġadds": 7309,
      "Ġpreparation": 7310,
      "Ġconcluded": 7311,
      "rass": 7312,
      "Ġorbit": 7313,
      "ĠLib": 7314,
      "olving": 7315,
      "Ġproof": 7316,
      "ĠPop": 7317,
      "ĠPolic": 7318,
      "BT": 7319,
      "ĠHoly": 7320,
      "Ġcriteria": 7321,
      "ĠMel": 7322,
      "Ġclothing": 7323,
      "Ġedition": 7324,
      "Ġvarieties": 7325,
      "Ġerrors": 7326,
      "ĠIrish": 7327,
      "ĠGrand": 7328,
      "inder": 7329,
      "Ġinterpre": 7330,
      "Ġaccuracy": 7331,
      "Ġadvantages": 7332,
      "Ġgiant": 7333,
      "ĠFund": 7334,
      "ogs": 7335,
      "ĠResources": 7336,
      "Ġpermission": 7337,
      "Ġrecover": 7338,
      "Ġfocuses": 7339,
      "Ġflour": 7340,
      "icted": 7341,
      "raining": 7342,
      "Ġargue": 7343,
      "Ġamazing": 7344,
      "Ġfest": 7345,
      "Ġusual": 7346,
      "medi": 7347,
      "Ġhorses": 7348,
      "Ġbees": 7349,
      "Ġlights": 7350,
      "ĠEdward": 7351,
      "zheimer": 7352,
      "oured": 7353,
      "roduction": 7354,
      "Ġdelivered": 7355,
      "ĠLearn": 7356,
      "Ġsubsequent": 7357,
      "ĠAdministration": 7358,
      "Su": 7359,
      "aired": 7360,
      "Ġholes": 7361,
      "Ġcomplications": 7362,
      "ĠPen": 7363,
      "Ġradical": 7364,
      "Ġmeasurement": 7365,
      "oir": 7366,
      "Ġscore": 7367,
      "ĠSpecial": 7368,
      "Ġgranted": 7369,
      "Ġmodified": 7370,
      "Ġscreening": 7371,
      "Ġtelevision": 7372,
      "greg": 7373,
      "Ġwound": 7374,
      "ounce": 7375,
      "ĠLar": 7376,
      "ĠType": 7377,
      "ĠAccess": 7378,
      "ograp": 7379,
      "Ġpresents": 7380,
      "Ġconference": 7381,
      "ĠCentre": 7382,
      "Ġsplit": 7383,
      "ĠMS": 7384,
      "Ġ1950": 7385,
      "Ġinnovation": 7386,
      "essions": 7387,
      "Ġprocessed": 7388,
      "Ġremoval": 7389,
      "Ġpanels": 7390,
      "esides": 7391,
      "igue": 7392,
      "teb": 7393,
      "Ġfaced": 7394,
      "Ġisolated": 7395,
      "ioxid": 7396,
      "Ġfed": 7397,
      "mers": 7398,
      "ĠTV": 7399,
      "ima": 7400,
      "etary": 7401,
      "ogether": 7402,
      "ruption": 7403,
      "Ġsuperior": 7404,
      "eut": 7405,
      "isted": 7406,
      "Ġevil": 7407,
      "ĠAmong": 7408,
      "Ġlaid": 7409,
      "Ġrespectively": 7410,
      "fts": 7411,
      "amins": 7412,
      "ĠPot": 7413,
      "Ġanywhere": 7414,
      "lishing": 7415,
      "UN": 7416,
      "Ġmales": 7417,
      "Ġintest": 7418,
      "rene": 7419,
      "Ġregulation": 7420,
      "Ġexamined": 7421,
      "Ġsitting": 7422,
      "Ġconcerning": 7423,
      "ulpt": 7424,
      "Ġalph": 7425,
      "Ġhealing": 7426,
      "Ġearliest": 7427,
      "Ġfishing": 7428,
      "ĠSwed": 7429,
      "upt": 7430,
      "amber": 7431,
      "Ġconj": 7432,
      "agraph": 7433,
      "Ġnewly": 7434,
      "ĠWho": 7435,
      "IA": 7436,
      "ĠAdv": 7437,
      "riend": 7438,
      "Ġremed": 7439,
      "Ġreveal": 7440,
      "Ġaccompan": 7441,
      "itals": 7442,
      "ĠSup": 7443,
      "Ġproceed": 7444,
      "ĠEp": 7445,
      "Get": 7446,
      "IP": 7447,
      "Ġreward": 7448,
      "Ġscientist": 7449,
      "Ġvariation": 7450,
      "theless": 7451,
      "Ġidentification": 7452,
      "Ġsenior": 7453,
      "ilation": 7454,
      "Ġangle": 7455,
      "UT": 7456,
      "Ġintent": 7457,
      "iana": 7458,
      "Ġfung": 7459,
      "Ġconfident": 7460,
      "Ġlearners": 7461,
      "Ġdifficulties": 7462,
      "rolled": 7463,
      "ĠMinister": 7464,
      "vania": 7465,
      "hyd": 7466,
      "Ġinitially": 7467,
      "rous": 7468,
      "Ġcorner": 7469,
      "Ġcarbohyd": 7470,
      "last": 7471,
      "Ã¢": 7472,
      "ĠUr": 7473,
      "coming": 7474,
      "encing": 7475,
      "Ġblo": 7476,
      "ovascular": 7477,
      "Ġfinds": 7478,
      "Ġcharacterized": 7479,
      "Ear": 7480,
      "ĠIV": 7481,
      "Ġexclus": 7482,
      "Ġdemocracy": 7483,
      "ĠFinally": 7484,
      "Ġbranch": 7485,
      "eness": 7486,
      "Ġcaught": 7487,
      "ĠSuper": 7488,
      "Ġstead": 7489,
      "allow": 7490,
      "ipedia": 7491,
      "Ġslave": 7492,
      "Ġspectrum": 7493,
      "Ġmusical": 7494,
      "Or": 7495,
      "Ġunw": 7496,
      "Ġcommission": 7497,
      "Ġprovider": 7498,
      "Ġclar": 7499,
      "aws": 7500,
      "Ġautism": 7501,
      "Ġsubstantial": 7502,
      "door": 7503,
      "Ġpin": 7504,
      "ady": 7505,
      "Ġserves": 7506,
      "Ġprinted": 7507,
      "iner": 7508,
      "erman": 7509,
      "ĠAmaz": 7510,
      "ĠThree": 7511,
      "ĠYoung": 7512,
      "ĠEffect": 7513,
      "Ġouter": 7514,
      "Ġstores": 7515,
      "Ġstuff": 7516,
      "Ġconqu": 7517,
      "42": 7518,
      "Ġguard": 7519,
      "Ġofficers": 7520,
      "ĠProtection": 7521,
      "bles": 7522,
      "iture": 7523,
      "uset": 7524,
      "Ġsoul": 7525,
      "Ġquarter": 7526,
      "Ġconserv": 7527,
      "Ġtemple": 7528,
      "Ġteams": 7529,
      "Ġdys": 7530,
      "Ġgut": 7531,
      "Ġacres": 7532,
      "ĠIndust": 7533,
      "Ġanalys": 7534,
      "Ġeliminate": 7535,
      "sen": 7536,
      "Ġbomb": 7537,
      "Ġreaching": 7538,
      "ĠWord": 7539,
      "Ġinfect": 7540,
      "Ġacute": 7541,
      "Ġoldest": 7542,
      "Ġlistening": 7543,
      "Ġinvestigation": 7544,
      "Ġuncertain": 7545,
      "iary": 7546,
      "Ġ<": 7547,
      "elfare": 7548,
      "print": 7549,
      "Ġlens": 7550,
      "ĠFour": 7551,
      "ĠArctic": 7552,
      "Ġliteracy": 7553,
      "Ġnarrative": 7554,
      "Ġvideos": 7555,
      "CE": 7556,
      "osh": 7557,
      "ĠHor": 7558,
      "ĠAlzheimer": 7559,
      "Ġmanufacturers": 7560,
      "roat": 7561,
      "Ġworst": 7562,
      "uality": 7563,
      "Ġuniversal": 7564,
      "OM": 7565,
      "tles": 7566,
      "Ġprofit": 7567,
      "arents": 7568,
      "just": 7569,
      "Ġfires": 7570,
      "ĠBoston": 7571,
      "Ġemphasis": 7572,
      "igate": 7573,
      "unicip": 7574,
      "ĠDutch": 7575,
      "ĠJac": 7576,
      "Ġmarks": 7577,
      "ĠTre": 7578,
      "Ġconsume": 7579,
      "Ġfatty": 7580,
      "Ġlaser": 7581,
      "ĠTim": 7582,
      "ucky": 7583,
      "rox": 7584,
      "aded": 7585,
      "ĠEst": 7586,
      "Ġinfant": 7587,
      "Ġplanets": 7588,
      "class": 7589,
      "Ġdriven": 7590,
      "Ġexperiencing": 7591,
      "icy": 7592,
      "achuset": 7593,
      "43": 7594,
      "Ġpy": 7595,
      "emb": 7596,
      "Ġdetection": 7597,
      "Ġgrows": 7598,
      "ĠFurthermore": 7599,
      "achusetts": 7600,
      "Ġattitude": 7601,
      "Ġcourts": 7602,
      "Ġcomfortable": 7603,
      "Ġtropical": 7604,
      "Ġbag": 7605,
      "ĠAND": 7606,
      "iva": 7607,
      "Ġabilities": 7608,
      "rency": 7609,
      "Ġtumor": 7610,
      "real": 7611,
      "Ġwine": 7612,
      "Ġdrought": 7613,
      "ocial": 7614,
      "ishop": 7615,
      "ĠMicro": 7616,
      "Ġsup": 7617,
      "ĠConservation": 7618,
      "About": 7619,
      "otherapy": 7620,
      "RC": 7621,
      "lete": 7622,
      "asant": 7623,
      "Ġmineral": 7624,
      "ĠDoes": 7625,
      "HA": 7626,
      "ani": 7627,
      "icate": 7628,
      "otton": 7629,
      "amination": 7630,
      "ĠNon": 7631,
      "Ġenorm": 7632,
      "ells": 7633,
      "Ġintensity": 7634,
      "Ġrelie": 7635,
      "Ġengineers": 7636,
      "Ġprominent": 7637,
      "Ġcyber": 7638,
      "Ġinspired": 7639,
      "ĠAuthor": 7640,
      "ĠSil": 7641,
      "Ġvisited": 7642,
      "ĠGeorgia": 7643,
      "nov": 7644,
      "Ã¤": 7645,
      "ĠEc": 7646,
      "Ġunion": 7647,
      "Ġsettlement": 7648,
      "Ġcontributed": 7649,
      "Ġexpanded": 7650,
      "41": 7651,
      "effect": 7652,
      "Ġov": 7653,
      "ĠLow": 7654,
      "Ġmouse": 7655,
      "ultane": 7656,
      "Ġdisrupt": 7657,
      "Ġtreating": 7658,
      "ĠGar": 7659,
      "ĠList": 7660,
      "Ġcomprom": 7661,
      "Ġflash": 7662,
      "Ġprogramme": 7663,
      "Ġdecreased": 7664,
      "She": 7665,
      "amics": 7666,
      "ĠPo": 7667,
      "Ġrose": 7668,
      "Ġaccommod": 7669,
      "Ġflower": 7670,
      "Ġbeans": 7671,
      "ĠFar": 7672,
      "Ġgases": 7673,
      "irms": 7674,
      "forest": 7675,
      "syl": 7676,
      "Ġseparated": 7677,
      "Ġstrengthen": 7678,
      "Am": 7679,
      "onym": 7680,
      "ĠPak": 7681,
      "ĠLincoln": 7682,
      "Ġplayer": 7683,
      "Ġmeasuring": 7684,
      "Ġconsideration": 7685,
      "Ġauthent": 7686,
      "Ġbiom": 7687,
      "Ġsales": 7688,
      "Ġheads": 7689,
      "RA": 7690,
      "Ġhosp": 7691,
      "Ġgro": 7692,
      "Ġovercome": 7693,
      "Ġindigenous": 7694,
      "atial": 7695,
      "achers": 7696,
      "ĠLight": 7697,
      "Ġexped": 7698,
      "Ġconfig": 7699,
      "Ġprotecting": 7700,
      "action": 7701,
      "Ġ1994": 7702,
      "Pre": 7703,
      "vin": 7704,
      "Ġcann": 7705,
      "angered": 7706,
      "Ġcoverage": 7707,
      "Ġrepresentation": 7708,
      "ĠPrinc": 7709,
      "Ġheavily": 7710,
      "Ġvariables": 7711,
      "ĠForest": 7712,
      "Ġfo": 7713,
      "Ġmothers": 7714,
      "rong": 7715,
      "Ġmeals": 7716,
      "Ġpolar": 7717,
      "ĠAdditionally": 7718,
      "ĠMichigan": 7719,
      "Per": 7720,
      "Ġsport": 7721,
      "Ġcontribution": 7722,
      "Ġevolved": 7723,
      "ĠStart": 7724,
      "Ġmicrosc": 7725,
      "ĠSund": 7726,
      "Ġalive": 7727,
      "ĠChapter": 7728,
      "Ġregardless": 7729,
      "Ġvocabulary": 7730,
      "Ġarray": 7731,
      "Ġdiameter": 7732,
      "itory": 7733,
      "Ġexceed": 7734,
      "pling": 7735,
      "Ġobjectives": 7736,
      "Ġcleaning": 7737,
      "ĠQueen": 7738,
      "Â·": 7739,
      "ĠAL": 7740,
      "occ": 7741,
      "Ġperm": 7742,
      "Ġaffecting": 7743,
      "Ġdegrad": 7744,
      "Ġquantum": 7745,
      "awn": 7746,
      "illa": 7747,
      "Ġenables": 7748,
      "ega": 7749,
      "ĠâĨ": 7750,
      "Car": 7751,
      "ĠGulf": 7752,
      "Ġinterface": 7753,
      "Ġextend": 7754,
      "Ġinitiative": 7755,
      "Ġmortality": 7756,
      "CT": 7757,
      "requ": 7758,
      "century": 7759,
      "Ġhouseholds": 7760,
      "rav": 7761,
      "irth": 7762,
      "Ġformula": 7763,
      "agram": 7764,
      "SS": 7765,
      "yer": 7766,
      "Ġgirl": 7767,
      "oids": 7768,
      "Ġfra": 7769,
      "Ġnice": 7770,
      "ĠCross": 7771,
      "Ġsus": 7772,
      "Ġoccurring": 7773,
      "Ġobservation": 7774,
      "Ġidentifying": 7775,
      "ĠCOVID": 7776,
      "Ġautomatically": 7777,
      "ĠCommunity": 7778,
      "abeth": 7779,
      "Ġsilver": 7780,
      "ĠPalest": 7781,
      "brid": 7782,
      "Ġtick": 7783,
      "Ġdetected": 7784,
      "Ġrespiratory": 7785,
      "Ġoverwhel": 7786,
      "Ġuniform": 7787,
      "Ġboat": 7788,
      "Ġtrends": 7789,
      "Ġschedule": 7790,
      "Ġsupplements": 7791,
      "Ġglac": 7792,
      "Ġeducators": 7793,
      "Ġresearcher": 7794,
      "ĠMethod": 7795,
      "ĠLo": 7796,
      "Ġimaging": 7797,
      "anger": 7798,
      "ersonal": 7799,
      "Ġweakness": 7800,
      "Med": 7801,
      "Ġalter": 7802,
      "quir": 7803,
      "ustain": 7804,
      "Ġperception": 7805,
      "Ġopposition": 7806,
      "Ġmm": 7807,
      "Ġ38": 7808,
      "Ġid": 7809,
      "Ġstability": 7810,
      "Ġswit": 7811,
      "Ġbiodiversity": 7812,
      "ĠHeart": 7813,
      "Ġbrows": 7814,
      "Ġdance": 7815,
      "ĠWorks": 7816,
      "Ġprovince": 7817,
      "Ġampl": 7818,
      "Ġeditor": 7819,
      "Ġinsight": 7820,
      "Ġinteractive": 7821,
      "05": 7822,
      "Ġsculpt": 7823,
      "Ġviewed": 7824,
      "haust": 7825,
      "ĠBul": 7826,
      "Ġritual": 7827,
      "Ġclient": 7828,
      "Ġdirected": 7829,
      "Ġfarms": 7830,
      "Ġregarded": 7831,
      "Ġcovering": 7832,
      "Ġpit": 7833,
      "ĠResp": 7834,
      "Ġproviders": 7835,
      "Ġwrites": 7836,
      "hester": 7837,
      "sm": 7838,
      "Ġfisher": 7839,
      "aying": 7840,
      "Ġhardware": 7841,
      "Ġdietary": 7842,
      "Ġaddressed": 7843,
      "Ġcommunications": 7844,
      "ĠMassachusetts": 7845,
      "sylvania": 7846,
      "night": 7847,
      "icing": 7848,
      "Ġadm": 7849,
      "Ġcommitment": 7850,
      "bar": 7851,
      "Ġpreced": 7852,
      "Ġcooling": 7853,
      "ĠLin": 7854,
      "Ġdistricts": 7855,
      "ĠOxford": 7856,
      "rh": 7857,
      "ude": 7858,
      "orted": 7859,
      "Ġexploration": 7860,
      "Ġprinting": 7861,
      "Ġillegal": 7862,
      "Ġcm": 7863,
      "Ġstations": 7864,
      "Ġlosses": 7865,
      "Ġabsence": 7866,
      "Ġstopped": 7867,
      "archy": 7868,
      "Ġceremon": 7869,
      "ĠWindows": 7870,
      "ĠOhio": 7871,
      "Comm": 7872,
      "emia": 7873,
      "ĠNov": 7874,
      "atively": 7875,
      "ĠSimilar": 7876,
      "Ġsuscept": 7877,
      "rical": 7878,
      "ĠBattle": 7879,
      "Ġbelieves": 7880,
      "icular": 7881,
      "Ġrational": 7882,
      "Ġpeoples": 7883,
      "Ġtables": 7884,
      "Ġchap": 7885,
      "ĠUt": 7886,
      "ĠSign": 7887,
      "Ġgrain": 7888,
      "Ġstrain": 7889,
      "Ġasc": 7890,
      "Ġhence": 7891,
      "ĠNever": 7892,
      "ieval": 7893,
      "Ġagent": 7894,
      "Ġantioxid": 7895,
      "ĠPlant": 7896,
      "Ġinhabit": 7897,
      "Ġmur": 7898,
      "cking": 7899,
      "Ġadvis": 7900,
      "Ġharder": 7901,
      "angle": 7902,
      "ĠWithout": 7903,
      "72": 7904,
      "mod": 7905,
      "Ġton": 7906,
      "Ġmoderate": 7907,
      "opyright": 7908,
      "OC": 7909,
      "oli": 7910,
      "neys": 7911,
      "Ġcalling": 7912,
      "Ġreporting": 7913,
      "Ġgrounds": 7914,
      "esh": 7915,
      "ami": 7916,
      "adel": 7917,
      "ĠFrancisco": 7918,
      "soft": 7919,
      "Ġ1992": 7920,
      "Ġtaxes": 7921,
      "Ġprosp": 7922,
      "Ġsubt": 7923,
      "Ġexception": 7924,
      "Ġexecutive": 7925,
      "ĠHebrew": 7926,
      "Ġsizes": 7927,
      "Ġbutton": 7928,
      "Ġexciting": 7929,
      "ĠParliament": 7930,
      "à¤": 7931,
      "ifice": 7932,
      "eping": 7933,
      "Ġhormone": 7934,
      "erb": 7935,
      "Ġbless": 7936,
      "Ġauton": 7937,
      "Ġconcentrations": 7938,
      "Ġupdated": 7939,
      "sell": 7940,
      "amples": 7941,
      "gener": 7942,
      "Ġchannel": 7943,
      "HS": 7944,
      "aning": 7945,
      "olt": 7946,
      "urning": 7947,
      "Ġthereby": 7948,
      "Ġracial": 7949,
      "Ġthreatened": 7950,
      "bul": 7951,
      "inf": 7952,
      "iti": 7953,
      "acent": 7954,
      "aus": 7955,
      "ĠFigure": 7956,
      "Ġresid": 7957,
      "Ġroyal": 7958,
      "Ġdesert": 7959,
      "Ġcounsel": 7960,
      "Ġdramatic": 7961,
      "Last": 7962,
      "ĠÐ": 7963,
      "raq": 7964,
      "Ġcharacteristic": 7965,
      "Ġestablishment": 7966,
      "Ġinnovative": 7967,
      "Ġflexible": 7968,
      "Ġearthquake": 7969,
      "71": 7970,
      "Ġadvent": 7971,
      "ogenic": 7972,
      "May": 7973,
      "Ġol": 7974,
      "Ġdisabilities": 7975,
      "Ġfalling": 7976,
      "mm": 7977,
      "ĠHospital": 7978,
      "Ġcharged": 7979,
      "Ġelder": 7980,
      "64": 7981,
      "asma": 7982,
      "ĠDou": 7983,
      "ĠLiter": 7984,
      "73": 7985,
      "Ġmine": 7986,
      "Ġforming": 7987,
      "Ġembra": 7988,
      "PR": 7989,
      "Ġhidden": 7990,
      "Ġraising": 7991,
      "Ġcorrel": 7992,
      "Ġhumanity": 7993,
      "ildren": 7994,
      "Ġsensitivity": 7995,
      "Ġhabitats": 7996,
      "ĠEgyptian": 7997,
      "ĠPass": 7998,
      "Ġmathematical": 7999,
      "ĠSar": 8000,
      "Ġpros": 8001,
      "ĠRock": 8002,
      "Ġplot": 8003,
      "Ġcorrectly": 8004,
      "ĠEngineering": 8005,
      "Ġchlor": 8006,
      "ĠIslamic": 8007,
      "run": 8008,
      "Ġbare": 8009,
      "ĠSir": 8010,
      "Ġorb": 8011,
      "Ġspray": 8012,
      "Ġsocieties": 8013,
      "Ġpointed": 8014,
      "bean": 8015,
      "Ġmixture": 8016,
      "ayer": 8017,
      "Ġvan": 8018,
      "erty": 8019,
      "Ġdrag": 8020,
      "Ġprobability": 8021,
      "Ġnutrient": 8022,
      "Ġtribes": 8023,
      "uy": 8024,
      "estion": 8025,
      "plete": 8026,
      "ĠSafety": 8027,
      "85": 8028,
      "ĠLess": 8029,
      "ĠPrevention": 8030,
      "Ġelsewhere": 8031,
      "athered": 8032,
      "Also": 8033,
      "ĠCurrent": 8034,
      "Ġpand": 8035,
      "rison": 8036,
      "Ġvap": 8037,
      "lymp": 8038,
      "Ġplanting": 8039,
      "Ġfunctioning": 8040,
      "bec": 8041,
      "omatic": 8042,
      "Ġparticle": 8043,
      "Ġurine": 8044,
      "Ġaimed": 8045,
      "Ġantibiotics": 8046,
      "eor": 8047,
      "ĠTop": 8048,
      "Ġmanaging": 8049,
      "Ġordinary": 8050,
      "Ġlungs": 8051,
      "Ġthermal": 8052,
      "Ġnewspaper": 8053,
      "01": 8054,
      "zym": 8055,
      "Ġclub": 8056,
      "Ġperforming": 8057,
      "Ġcreatures": 8058,
      "Ġacquired": 8059,
      "utation": 8060,
      "Ġcancers": 8061,
      "ĠDC": 8062,
      "Ġimprovements": 8063,
      "Ġles": 8064,
      "Ġaging": 8065,
      "ĠUnfortunately": 8066,
      "Ġpreserve": 8067,
      "Ġcure": 8068,
      "Ġgrid": 8069,
      "Ġvaccines": 8070,
      "iments": 8071,
      "Ġgrains": 8072,
      "Ġversions": 8073,
      "ĠArticle": 8074,
      "Part": 8075,
      "rection": 8076,
      "ĠTable": 8077,
      "Ġparad": 8078,
      "Ġstrike": 8079,
      "Ġcustomer": 8080,
      "ĠSupreme": 8081,
      "ao": 8082,
      "vi": 8083,
      "ostic": 8084,
      "ruit": 8085,
      "apes": 8086,
      "Ġdriver": 8087,
      "Ġwisdom": 8088,
      "ĠTO": 8089,
      "ĠMah": 8090,
      "Ġsurge": 8091,
      "ranean": 8092,
      "ĠPennsylvania": 8093,
      "QL": 8094,
      "ette": 8095,
      "Ġconclus": 8096,
      "Ġsettled": 8097,
      "Ġappointed": 8098,
      "%,": 8099,
      "ĠNote": 8100,
      "ĠJul": 8101,
      "ontal": 8102,
      "Ġofficer": 8103,
      "Ġplain": 8104,
      "Ġquiet": 8105,
      "Ġfatigue": 8106,
      "Ġargued": 8107,
      "pd": 8108,
      "alog": 8109,
      "Ġinequ": 8110,
      "rize": 8111,
      "iop": 8112,
      "uits": 8113,
      "isd": 8114,
      "istant": 8115,
      "Ġseat": 8116,
      "ĠConvention": 8117,
      "Ġorders": 8118,
      "Ġconce": 8119,
      "ĠLos": 8120,
      "Ġemerging": 8121,
      "ĠAlexander": 8122,
      "ĠScotland": 8123,
      "enger": 8124,
      "Ġevening": 8125,
      "Ġentit": 8126,
      "Ġprofile": 8127,
      "ĠChristians": 8128,
      "ĠMusic": 8129,
      "ĠPakistan": 8130,
      "Ġtor": 8131,
      "Ġspr": 8132,
      "Ġmarg": 8133,
      "ĠZeal": 8134,
      "Ġduty": 8135,
      "Ġmir": 8136,
      "Ġheritage": 8137,
      "Ġavailability": 8138,
      "uan": 8139,
      "Ġflying": 8140,
      "Ġyog": 8141,
      "Ġ1930": 8142,
      "Ġphysically": 8143,
      "Ġanalyze": 8144,
      "Ġteens": 8145,
      "Ġsimultane": 8146,
      "Ġprotective": 8147,
      "Ġliterary": 8148,
      "Ġecological": 8149,
      "ENT": 8150,
      "Ġsad": 8151,
      "ĠIT": 8152,
      "Ġparagraph": 8153,
      "Ġdynamic": 8154,
      "izabeth": 8155,
      "Ġsubstit": 8156,
      "ĠPortug": 8157,
      "Under": 8158,
      "oler": 8159,
      "ĠSanta": 8160,
      "Ġchair": 8161,
      "ĠFather": 8162,
      "Ġadolesc": 8163,
      "Ġsched": 8164,
      "Ġtemporary": 8165,
      "ket": 8166,
      "otal": 8167,
      "Ġtechnological": 8168,
      "Ġconsumed": 8169,
      "Ġdeficiency": 8170,
      "usalem": 8171,
      "Ġfur": 8172,
      "Ġrecycling": 8173,
      "Ġstreets": 8174,
      "ĠPoint": 8175,
      "ĠColl": 8176,
      "Step": 8177,
      "Ġboundaries": 8178,
      "alities": 8179,
      "Ġfought": 8180,
      "ĠPM": 8181,
      "Ġowned": 8182,
      "endment": 8183,
      "Ġchemistry": 8184,
      "Ġintroduce": 8185,
      "Ġlifetime": 8186,
      "Ġlists": 8187,
      "roud": 8188,
      "Ġvariations": 8189,
      "Ed": 8190,
      "Ġfaces": 8191,
      "Ġburied": 8192,
      "Ġstrategic": 8193,
      "Ġsustainability": 8194,
      "ĠClick": 8195,
      "ĠBM": 8196,
      "quar": 8197,
      "Ġrab": 8198,
      "App": 8199,
      "ĠTry": 8200,
      "aren": 8201,
      "Ġinterior": 8202,
      "Ġpursu": 8203,
      "Ġfinger": 8204,
      "ĠPolicy": 8205,
      "Ġtom": 8206,
      "Ġchances": 8207,
      "Ġguess": 8208,
      "Ġdirections": 8209,
      "Ġminds": 8210,
      "Ġexpectations": 8211,
      "ĠConference": 8212,
      "ĠVietnam": 8213,
      "cyclopedia": 8214,
      "Ġdisability": 8215,
      "Ġrestoration": 8216,
      "Ġpleasure": 8217,
      "Ġexhaust": 8218,
      "ĠOl": 8219,
      "Ġsurg": 8220,
      "Ġphrase": 8221,
      "Ġchromos": 8222,
      "Ġ)": 8223,
      "Ġtab": 8224,
      "ura": 8225,
      "Ġgravity": 8226,
      "Ġphotographs": 8227,
      "Ġfellow": 8228,
      "ĠReading": 8229,
      "ĠRoad": 8230,
      "har": 8231,
      "Ġ55": 8232,
      "Ġentertain": 8233,
      "Ġtempor": 8234,
      "Ġfocusing": 8235,
      "Ġcopyright": 8236,
      "NS": 8237,
      "wan": 8238,
      "Ġcran": 8239,
      "ashes": 8240,
      "elve": 8241,
      "Ġwonderful": 8242,
      "Ġmyst": 8243,
      "Ġclassified": 8244,
      "ographical": 8245,
      "Ġincident": 8246,
      "Ġresc": 8247,
      "Ġ1993": 8248,
      "Ġtens": 8249,
      "Ġadverse": 8250,
      "Ġcomputing": 8251,
      "holders": 8252,
      "Col": 8253,
      "ema": 8254,
      "Ġconstra": 8255,
      "Ġkeeps": 8256,
      "Ġshaped": 8257,
      "Ġtrauma": 8258,
      "?\"": 8259,
      "Ġwider": 8260,
      "Ġ48": 8261,
      "Ġlock": 8262,
      "ĠIdent": 8263,
      "Ġfuels": 8264,
      "def": 8265,
      "Ġspinal": 8266,
      "ipe": 8267,
      "Ġtargeted": 8268,
      "ĠZealand": 8269,
      "ĠSand": 8270,
      "Ġstake": 8271,
      "Ġproductivity": 8272,
      "Ġvitamins": 8273,
      "Ġworship": 8274,
      "fast": 8275,
      "Ġentering": 8276,
      "Ġexplicit": 8277,
      "omers": 8278,
      "ĠTom": 8279,
      "through": 8280,
      "ecess": 8281,
      "Ġexisted": 8282,
      "Ġinvestigate": 8283,
      "Ġholiday": 8284,
      "Ġbeat": 8285,
      "ĠSection": 8286,
      "ricted": 8287,
      "Ġapplying": 8288,
      "Ġmedicines": 8289,
      "eries": 8290,
      "Ġdimens": 8291,
      "otype": 8292,
      "Ġassets": 8293,
      "zyme": 8294,
      "Ġengaging": 8295,
      "Ġpropag": 8296,
      "Ġprivile": 8297,
      "Ġscheme": 8298,
      "Ġlosing": 8299,
      "ĠBusiness": 8300,
      "Ġexpertise": 8301,
      "ĠOlymp": 8302,
      "Ġparameters": 8303,
      "AB": 8304,
      "ĠPage": 8305,
      "ĠIns": 8306,
      "Ġdeeply": 8307,
      "Ġcelebrate": 8308,
      "ĠSenate": 8309,
      "Ġconsciousness": 8310,
      "ĠAmazon": 8311,
      "top": 8312,
      "world": 8313,
      "ĠAM": 8314,
      "Ġlowest": 8315,
      "Ġpromoting": 8316,
      "borne": 8317,
      "Ġempty": 8318,
      "rey": 8319,
      "Ġpione": 8320,
      "ician": 8321,
      "Ġactively": 8322,
      "Ġwouldn": 8323,
      "ĠForce": 8324,
      "ĠPolit": 8325,
      "Ġpill": 8326,
      "Ġhaven": 8327,
      "una": 8328,
      "Ġensuring": 8329,
      "Where": 8330,
      "ceans": 8331,
      "econ": 8332,
      "Ġdism": 8333,
      "ĠJohnson": 8334,
      "ĠColorado": 8335,
      "kind": 8336,
      "press": 8337,
      "urches": 8338,
      "ailed": 8339,
      "Ġreasonable": 8340,
      "ometry": 8341,
      "Ġadapted": 8342,
      "rity": 8343,
      "ethe": 8344,
      "Ġinterventions": 8345,
      "Ġcurve": 8346,
      "Ġwaiting": 8347,
      "Art": 8348,
      "98": 8349,
      "words": 8350,
      "ĠAz": 8351,
      "Ġchocolate": 8352,
      "ĠLittle": 8353,
      "Ġdescript": 8354,
      "Ġcontainer": 8355,
      "Ġquantity": 8356,
      "Are": 8357,
      "Ġease": 8358,
      "Ġpersonality": 8359,
      "ĠOnline": 8360,
      "Ġvertical": 8361,
      "Ġcontributions": 8362,
      "ĠHead": 8363,
      "ĠAnalysis": 8364,
      "Ġbegun": 8365,
      "ĠLaboratory": 8366,
      "John": 8367,
      "TP": 8368,
      "Ġ33": 8369,
      "Ġattach": 8370,
      "Ġherb": 8371,
      "Ġseriously": 8372,
      "Ġassumed": 8373,
      "Ġperceived": 8374,
      "Ġspoken": 8375,
      "oul": 8376,
      "Ġanger": 8377,
      "ĠLee": 8378,
      "agen": 8379,
      "Ġacting": 8380,
      "Ġclassical": 8381,
      "ĠBooks": 8382,
      "Ġenormous": 8383,
      "Ġtob": 8384,
      "Ġlip": 8385,
      "ĠObs": 8386,
      "Ġversus": 8387,
      "Ġvegetation": 8388,
      "Ġjoints": 8389,
      "uten": 8390,
      "ĠBa": 8391,
      "ĠFind": 8392,
      "ensed": 8393,
      "ĠCho": 8394,
      "Ġtrace": 8395,
      "Ġstyles": 8396,
      "Ġwheel": 8397,
      "Ġpainful": 8398,
      "urated": 8399,
      "Ġstones": 8400,
      "aya": 8401,
      "Ġnotion": 8402,
      "Ġextension": 8403,
      "ĠNeu": 8404,
      "ĠCambridge": 8405,
      "Ġenth": 8406,
      "Ġtelling": 8407,
      "Ġcow": 8408,
      "ouds": 8409,
      "ĠFire": 8410,
      "Ġsummary": 8411,
      "Ġprivacy": 8412,
      "Ġsafely": 8413,
      "Ġdefinitely": 8414,
      "Ġopinions": 8415,
      "74": 8416,
      "ĠCE": 8417,
      "Ġcontinuing": 8418,
      "Ġfilter": 8419,
      "Ġrequirement": 8420,
      "Ġreturns": 8421,
      "gence": 8422,
      "ĠIraq": 8423,
      "Ġasp": 8424,
      "ĠPur": 8425,
      "amps": 8426,
      "ĠAgain": 8427,
      "Ġsaved": 8428,
      "idal": 8429,
      "ifted": 8430,
      "Ġabstract": 8431,
      "Ġmyself": 8432,
      "Ġvirtually": 8433,
      "Cons": 8434,
      "ĠMult": 8435,
      "Ġranging": 8436,
      "riday": 8437,
      "ĠDrug": 8438,
      "ĠRight": 8439,
      "Ġrac": 8440,
      "Ġcommittee": 8441,
      "ĠWildlife": 8442,
      "Ġvel": 8443,
      "Ġfats": 8444,
      "eting": 8445,
      "uting": 8446,
      "ĠDown": 8447,
      "Ġintention": 8448,
      "Ġkilling": 8449,
      "Ġequality": 8450,
      "Ġplanted": 8451,
      "Using": 8452,
      "Ġmanifest": 8453,
      "Ġemotion": 8454,
      "Ġwebsites": 8455,
      "Ġcelebrated": 8456,
      "Ġnutritional": 8457,
      "onal": 8458,
      "ailable": 8459,
      "Ġdescend": 8460,
      "Ġremoving": 8461,
      "Ġpriority": 8462,
      "ba": 8463,
      "Ġsensors": 8464,
      "iterranean": 8465,
      "Ġmigration": 8466,
      "Ġpets": 8467,
      "ĠMoses": 8468,
      "lines": 8469,
      "Ġchose": 8470,
      "Ġears": 8471,
      "Ġposts": 8472,
      "ĠModern": 8473,
      "Ġdropped": 8474,
      "foot": 8475,
      "imp": 8476,
      "mentation": 8477,
      "Ġaggressive": 8478,
      "ĠJerusalem": 8479,
      "Ġcardiovascular": 8480,
      "Each": 8481,
      "ourse": 8482,
      "aret": 8483,
      "Ġfunded": 8484,
      "ĠÂ£": 8485,
      "Ġvolunteers": 8486,
      "Ġmanager": 8487,
      "Ġpsychology": 8488,
      "Ġpreferred": 8489,
      "ĠWay": 8490,
      "Ġshoot": 8491,
      "adelph": 8492,
      "plo": 8493,
      "pled": 8494,
      "ĠPeace": 8495,
      "ĠJustice": 8496,
      "Ġhunting": 8497,
      "Ġtong": 8498,
      "Ġbehavioral": 8499,
      "Ġgods": 8500,
      "Ġom": 8501,
      "Ġcord": 8502,
      "ĠBack": 8503,
      "ĠEr": 8504,
      "ups": 8505,
      "ĠHarvard": 8506,
      "Ġtobacco": 8507,
      "orig": 8508,
      "ĠWal": 8509,
      "ipher": 8510,
      "aware": 8511,
      "Ġviolent": 8512,
      "Ġcul": 8513,
      "Ġcort": 8514,
      "Ġborrow": 8515,
      "Ġdecay": 8516,
      "Ġcoat": 8517,
      "ĠMinistry": 8518,
      "Ġlogic": 8519,
      "Ġreconst": 8520,
      "Who": 8521,
      "Ġcertific": 8522,
      "68": 8523,
      "Co": 8524,
      "Hist": 8525,
      "ali": 8526,
      "Ġnom": 8527,
      "ĠCard": 8528,
      "ĠLy": 8529,
      "ĠLast": 8530,
      "berry": 8531,
      "Ġanticip": 8532,
      "Ġneutral": 8533,
      "Ġoblig": 8534,
      "Ġaccompanied": 8535,
      "Ġlibr": 8536,
      "Ġconvert": 8537,
      "Ġsuicide": 8538,
      "Ġrobot": 8539,
      "Ġtack": 8540,
      "ifier": 8541,
      "ĠAsk": 8542,
      "Ġforecast": 8543,
      "Ġmarketing": 8544,
      "Ġuniversities": 8545,
      "Ġwelfare": 8546,
      "ĠFDA": 8547,
      "Ġrecre": 8548,
      "Ġfeels": 8549,
      "Ġelections": 8550,
      "Ġvictory": 8551,
      "ĠCirc": 8552,
      "ivest": 8553,
      "Ġregime": 8554,
      "Ġ1991": 8555,
      "Ġexhibit": 8556,
      "Ġremarkable": 8557,
      "Ġreverse": 8558,
      "Ġ1920": 8559,
      "text": 8560,
      "Ġinvention": 8561,
      "Ġcapabilities": 8562,
      "Ġcorresponding": 8563,
      "Ġ2021": 8564,
      "Ġmetals": 8565,
      "Ġmovie": 8566,
      "Ġkingdom": 8567,
      "ĠAgriculture": 8568,
      "lu": 8569,
      "Ġmg": 8570,
      "Ġspan": 8571,
      "Ġverb": 8572,
      "Ġarguments": 8573,
      "69": 8574,
      "raham": 8575,
      "Ġenjoyed": 8576,
      "flamm": 8577,
      "best": 8578,
      "ett": 8579,
      "Ġsuit": 8580,
      "Ġresil": 8581,
      "Ġfolk": 8582,
      "IF": 8583,
      "Ġwars": 8584,
      "Ġsevent": 8585,
      "Ġconverted": 8586,
      "Ġsoph": 8587,
      "ĠHand": 8588,
      "Ġeleph": 8589,
      "Ġshore": 8590,
      "Ġsessions": 8591,
      "Ġqualities": 8592,
      "ĠTestament": 8593,
      "Ġpoetry": 8594,
      "Just": 8595,
      "Like": 8596,
      "disc": 8597,
      "Ġdim": 8598,
      "Ġnoticed": 8599,
      "Ġownership": 8600,
      "Ġapparently": 8601,
      "Ġmature": 8602,
      "Ġdense": 8603,
      "adelphia": 8604,
      "Ġwage": 8605,
      "anted": 8606,
      "rix": 8607,
      "Ġtransc": 8608,
      "ĠOrig": 8609,
      "Ġcraft": 8610,
      "Ġfrust": 8611,
      "Ġconvey": 8612,
      "Ġweigh": 8613,
      "ĠOper": 8614,
      "ouses": 8615,
      "ĠSpring": 8616,
      "Ġbatteries": 8617,
      "Ġoxid": 8618,
      "Ġrestrictions": 8619,
      "Ġclock": 8620,
      "Ġevident": 8621,
      "Ġscope": 8622,
      "ĠEconomic": 8623,
      "Despite": 8624,
      "erts": 8625,
      "ĠES": 8626,
      "Ġscores": 8627,
      "Ġliterally": 8628,
      "ĠTurkey": 8629,
      "ĠAk": 8630,
      "eling": 8631,
      "esthetic": 8632,
      "aka": 8633,
      "Ġunderground": 8634,
      "arn": 8635,
      "Ġmunicip": 8636,
      "Ġhall": 8637,
      "ĠSolar": 8638,
      "mented": 8639,
      "Ġpermit": 8640,
      "Ġindirect": 8641,
      "Ġsymbols": 8642,
      "zymes": 8643,
      "dr": 8644,
      "opher": 8645,
      "Ġ120": 8646,
      "Ġcooperation": 8647,
      "Ġdrinks": 8648,
      "agnetic": 8649,
      "Ġdetermining": 8650,
      "Ġsodium": 8651,
      "mond": 8652,
      "Ġtraits": 8653,
      "Ġmeaningful": 8654,
      "gien": 8655,
      "uity": 8656,
      "Ġrepresentative": 8657,
      "Ġsleeping": 8658,
      "Ġpowder": 8659,
      "',": 8660,
      "rint": 8661,
      "Ġpassion": 8662,
      "Ġrestaur": 8663,
      "Ġtransmitted": 8664,
      "Ġloose": 8665,
      "nedy": 8666,
      "Ġadopt": 8667,
      "ĠSunday": 8668,
      "htt": 8669,
      "Ġwat": 8670,
      "Ġstood": 8671,
      "ifer": 8672,
      "mentia": 8673,
      "Ġspots": 8674,
      "Ġbasically": 8675,
      "Ġengines": 8676,
      "ĠMedia": 8677,
      "Ġtag": 8678,
      "imm": 8679,
      "ĠEPA": 8680,
      "Ġcompost": 8681,
      "chnology": 8682,
      "Ġdevast": 8683,
      "Ġbacterial": 8684,
      "Ġdominant": 8685,
      "Ġcotton": 8686,
      "Ġpel": 8687,
      "Ġspoke": 8688,
      "Ġdiscussions": 8689,
      "Ġlinear": 8690,
      "Ġgardens": 8691,
      "ĠSS": 8692,
      "Ġdevelopments": 8693,
      "awa": 8694,
      "Ġdifferently": 8695,
      "Ġpromise": 8696,
      "Ġassociate": 8697,
      "ĠAssess": 8698,
      "Ġecosystems": 8699,
      "Ġexploring": 8700,
      "Ġlabour": 8701,
      "Ġsentences": 8702,
      "Ġcouncil": 8703,
      "Ġwatching": 8704,
      "Ġsubsid": 8705,
      "Ġhypothesis": 8706,
      "Ġcab": 8707,
      "Ġgent": 8708,
      "ĠVe": 8709,
      "ĠIndepend": 8710,
      "Ġlighting": 8711,
      "ĠDO": 8712,
      "ĠMediterranean": 8713,
      "ĠSystems": 8714,
      "Ġtone": 8715,
      "ĠContin": 8716,
      "itting": 8717,
      "ĠMuslims": 8718,
      "'.": 8719,
      "made": 8720,
      "Ġreef": 8721,
      "Ġaccord": 8722,
      "ĠIndeed": 8723,
      "onents": 8724,
      "asy": 8725,
      "ocated": 8726,
      "ptic": 8727,
      "ĠConfed": 8728,
      "you": 8729,
      "Ġalarm": 8730,
      "Ġclassic": 8731,
      "Ġirrig": 8732,
      "Before": 8733,
      "eutic": 8734,
      "ati": 8735,
      "Ġpace": 8736,
      "icts": 8737,
      "ĠStan": 8738,
      "Ġbleeding": 8739,
      "Ġven": 8740,
      "iano": 8741,
      "Ġoccas": 8742,
      "ĠDev": 8743,
      "ĠImp": 8744,
      "Ġachievement": 8745,
      "ĠTurk": 8746,
      "ĠKorean": 8747,
      "Ġsongs": 8748,
      "EE": 8749,
      "usive": 8750,
      "umer": 8751,
      "Ġassert": 8752,
      "Ġrealized": 8753,
      "Ġelectrons": 8754,
      "CA": 8755,
      "mia": 8756,
      "Ġreign": 8757,
      "cho": 8758,
      "Ġshorter": 8759,
      "onday": 8760,
      "Ġbuff": 8761,
      "ĠIslands": 8762,
      "Ġcollective": 8763,
      "ĠGreece": 8764,
      "sembly": 8765,
      ".'": 8766,
      "bel": 8767,
      "aints": 8768,
      "Ġdevelops": 8769,
      "Ġanalog": 8770,
      "ĠBeing": 8771,
      "Sm": 8772,
      "Ġtip": 8773,
      "ico": 8774,
      "Ġdeploy": 8775,
      "ateral": 8776,
      "Ġsurprise": 8777,
      "Ġmodule": 8778,
      "Ġengagement": 8779,
      "Ġfacilitate": 8780,
      "ĠAff": 8781,
      "Ġtransmit": 8782,
      "mann": 8783,
      "!âĢĿ": 8784,
      "Ġcas": 8785,
      "CP": 8786,
      "ĠCreek": 8787,
      "Ġcheap": 8788,
      "Ġemerged": 8789,
      "Ġorigins": 8790,
      "Ġchoosing": 8791,
      "Ġheaven": 8792,
      "ĠAntar": 8793,
      "Ġfet": 8794,
      "Ġstrange": 8795,
      "Ġlanding": 8796,
      "ĠChristianity": 8797,
      "Ġshed": 8798,
      "Ġlun": 8799,
      "oca": 8800,
      "Ġpartnership": 8801,
      "Sec": 8802,
      "atal": 8803,
      "advant": 8804,
      "ĠBureau": 8805,
      "Ġabsorb": 8806,
      "Ġinvolvement": 8807,
      "Ġrevenue": 8808,
      "uther": 8809,
      "ructive": 8810,
      "Ġbreaking": 8811,
      "Ġcalculated": 8812,
      "ivestock": 8813,
      "Ġreaches": 8814,
      "ĠTown": 8815,
      "Ġgathered": 8816,
      "Ġcompos": 8817,
      "Ġvaried": 8818,
      "ĠKey": 8819,
      "ĠAvoid": 8820,
      "iac": 8821,
      "Ġgast": 8822,
      "ĠMath": 8823,
      "thon": 8824,
      "Ġreserved": 8825,
      "Ġhandling": 8826,
      "Ġ95": 8827,
      "Ġspacecraft": 8828,
      "Ġreflected": 8829,
      "Ġcolonies": 8830,
      "ĠDivision": 8831,
      "ĠAngeles": 8832,
      "Ġtact": 8833,
      "Ġpeer": 8834,
      "Ġrecall": 8835,
      "Ġintegration": 8836,
      "ĠPerhaps": 8837,
      "Ġmaxim": 8838,
      "Ġprescribed": 8839,
      "ĠSecretary": 8840,
      "06": 8841,
      "ĠNob": 8842,
      "izers": 8843,
      "ĠInvest": 8844,
      "Ġwooden": 8845,
      "astics": 8846,
      "Ġdiffer": 8847,
      "terior": 8848,
      "Ġsalmon": 8849,
      "ĠElizabeth": 8850,
      "08": 8851,
      "EF": 8852,
      "enh": 8853,
      "Ġcub": 8854,
      "Ġbuying": 8855,
      "Ġpersonnel": 8856,
      "Ġunlikely": 8857,
      "'d": 8858,
      "Ġtap": 8859,
      "ĠAction": 8860,
      "Ġunn": 8861,
      "ĠBlue": 8862,
      "Ġethical": 8863,
      "ĠFred": 8864,
      "ptions": 8865,
      "Ġeverywhere": 8866,
      "ĠNO": 8867,
      "Ġunem": 8868,
      "Ġlogical": 8869,
      "ĠSurvey": 8870,
      "Ġresistant": 8871,
      "BM": 8872,
      "Scient": 8873,
      "orters": 8874,
      "Ġdairy": 8875,
      "ĠCorn": 8876,
      "Ġrestore": 8877,
      "Ġpaying": 8878,
      "flu": 8879,
      "fe": 8880,
      "Ġgift": 8881,
      "olk": 8882,
      "Ġvot": 8883,
      "ĠFact": 8884,
      "Ġarmed": 8885,
      "ĠBuilding": 8886,
      "outheast": 8887,
      "Ġadvances": 8888,
      "Ġspecialist": 8889,
      "Ġannually": 8890,
      "ĠImpro": 8891,
      "ĠMexican": 8892,
      "Ġlicense": 8893,
      "Ġmira": 8894,
      "Ġrecon": 8895,
      "Ġreferences": 8896,
      "Ġseasonal": 8897,
      "Ġtelesc": 8898,
      "Ge": 8899,
      "Ġhat": 8900,
      "Ġvaries": 8901,
      "Ġseparation": 8902,
      "box": 8903,
      "Ġsensor": 8904,
      "Ġgate": 8905,
      "Ġsees": 8906,
      "ĠJo": 8907,
      "Ġclients": 8908,
      "ologically": 8909,
      "Ġcirculation": 8910,
      "Ġtherm": 8911,
      "dep": 8912,
      "ometer": 8913,
      "irable": 8914,
      "ĠIncre": 8915,
      "Ġreplacement": 8916,
      "Ġsuddenly": 8917,
      "jo": 8918,
      "Ġbonds": 8919,
      "iral": 8920,
      "Ġzones": 8921,
      "feed": 8922,
      "iations": 8923,
      "Ġsug": 8924,
      "ĠRest": 8925,
      "Then": 8926,
      "Ġequation": 8927,
      "ĠObama": 8928,
      "Ġmembrane": 8929,
      "ols": 8930,
      "Ġwearing": 8931,
      "claim": 8932,
      "Ġ1940": 8933,
      "Ġgraduate": 8934,
      "Ġcalculate": 8935,
      "UL": 8936,
      "omal": 8937,
      "ĠDiet": 8938,
      "ogens": 8939,
      "ĠÂ©": 8940,
      "ĠHeritage": 8941,
      "Ġdict": 8942,
      "ilst": 8943,
      "ĠPhot": 8944,
      "Ġsteam": 8945,
      "Ġalgae": 8946,
      "Eng": 8947,
      "also": 8948,
      "rip": 8949,
      "Ġproductive": 8950,
      "ippi": 8951,
      "Ġburden": 8952,
      "Ġpurchased": 8953,
      "Ġvillages": 8954,
      "Ġtransferred": 8955,
      "lock": 8956,
      "Ġdress": 8957,
      "ĠâĢ¢": 8958,
      "Ġscenario": 8959,
      "ĠTreatment": 8960,
      "Sim": 8961,
      "Ġtu": 8962,
      "ĠDie": 8963,
      "regular": 8964,
      "iblical": 8965,
      "bell": 8966,
      "host": 8967,
      "Ġdeer": 8968,
      "ushing": 8969,
      "ĠRail": 8970,
      "Ġfinish": 8971,
      "hemistry": 8972,
      "Ġperfectly": 8973,
      "Ġempire": 8974,
      "operative": 8975,
      "ĠHam": 8976,
      "Ġsmell": 8977,
      "Ġcolonial": 8978,
      "Ġmammals": 8979,
      "ĠFarm": 8980,
      "Ġuncle": 8981,
      "Ġherself": 8982,
      "Ġrefused": 8983,
      "Ġgrades": 8984,
      "Ġcream": 8985,
      "Ġdistant": 8986,
      "67": 8987,
      "Ġbee": 8988,
      "ĠMax": 8989,
      "icking": 8990,
      "ĠCentury": 8991,
      "Ġjuice": 8992,
      "Ġjurisd": 8993,
      "mble": 8994,
      "Ġsending": 8995,
      "Ġcodes": 8996,
      "Ġdil": 8997,
      "izz": 8998,
      "obile": 8999,
      "fulness": 9000,
      "Ġreadily": 9001,
      "Ġglobe": 9002,
      "Ġestablishing": 9003,
      "Ġlimitations": 9004,
      "ĠKennedy": 9005,
      "Ġchicken": 9006,
      "ĠMid": 9007,
      "ĠMajor": 9008,
      "ĠBang": 9009,
      "ĠFil": 9010,
      "Ġoutdoor": 9011,
      "Ġpreserved": 9012,
      "Ġdocumented": 9013,
      "Ġbutterf": 9014,
      "View": 9015,
      "ĠMove": 9016,
      "ĠPu": 9017,
      "Ġsurgical": 9018,
      "Ġcanal": 9019,
      "Ġclay": 9020,
      "Ġruled": 9021,
      "Ġneurons": 9022,
      "63": 9023,
      "uum": 9024,
      "Ġsaving": 9025,
      "ĠNext": 9026,
      "Ġvegetable": 9027,
      ".).": 9028,
      "rue": 9029,
      "Ġ34": 9030,
      "inois": 9031,
      "Ġoccupied": 9032,
      "MA": 9033,
      "Â®": 9034,
      "ĠSeveral": 9035,
      "ĠGDP": 9036,
      "regon": 9037,
      "Ġwithdraw": 9038,
      "Ġprovision": 9039,
      "Ġcontrolling": 9040,
      "function": 9041,
      "mail": 9042,
      "rons": 9043,
      "ĠHum": 9044,
      "ĠOtt": 9045,
      "Ġclothes": 9046,
      "ĠPhiladelphia": 9047,
      "ĠMississ": 9048,
      "09": 9049,
      "bra": 9050,
      "power": 9051,
      "Ġdipl": 9052,
      "Ġpossibilities": 9053,
      "Ġfriendly": 9054,
      "friend": 9055,
      "swe": 9056,
      "Ġbeach": 9057,
      "Ġvag": 9058,
      "aved": 9059,
      "Ġfifth": 9060,
      "Rel": 9061,
      "oons": 9062,
      "hea": 9063,
      "issance": 9064,
      "Ġkilometers": 9065,
      "Ġduration": 9066,
      "ĠRh": 9067,
      "Ġshr": 9068,
      "Ġregulate": 9069,
      "specific": 9070,
      "ĠDigital": 9071,
      "Ġestate": 9072,
      "Ġcomplexity": 9073,
      "Ġsacred": 9074,
      "Ġstreams": 9075,
      "Ġgly": 9076,
      "Ġcurrency": 9077,
      "Ġfaculty": 9078,
      "section": 9079,
      "ĠPoly": 9080,
      "erving": 9081,
      "Ġattribut": 9082,
      "Ġgrammar": 9083,
      "Source": 9084,
      "Ġinev": 9085,
      "Ġash": 9086,
      "Ġincent": 9087,
      "Ġliberal": 9088,
      "ĠJacob": 9089,
      "Ref": 9090,
      "Ġenforcement": 9091,
      "Ġrooms": 9092,
      "Ġcouldn": 9093,
      "shaped": 9094,
      "Ġacknowled": 9095,
      "Ġenthus": 9096,
      "Ġdies": 9097,
      "ĠMP": 9098,
      "ĠChief": 9099,
      "asm": 9100,
      "ĠIce": 9101,
      "Ġalign": 9102,
      "Ġmanual": 9103,
      "Ġabsolutely": 9104,
      "Ġfascinating": 9105,
      "04": 9106,
      "EG": 9107,
      "ĠBiology": 9108,
      "Ġcontents": 9109,
      "ubble": 9110,
      "Ġlegit": 9111,
      "html": 9112,
      "Ġsale": 9113,
      "oline": 9114,
      "mental": 9115,
      "ospel": 9116,
      "Ġacceptable": 9117,
      "89": 9118,
      "Tra": 9119,
      "this": 9120,
      "enda": 9121,
      "Ġworker": 9122,
      "Ġbullying": 9123,
      "Ġillnesses": 9124,
      "Ġcandidates": 9125,
      ")|": 9126,
      "EA": 9127,
      "ĠFair": 9128,
      "assium": 9129,
      "Ġoverview": 9130,
      "Ġhumidity": 9131,
      "Ġrequiring": 9132,
      "aterials": 9133,
      "ĠTrust": 9134,
      "Ġbalanced": 9135,
      "Ġcrown": 9136,
      "Ġdating": 9137,
      "ĠCA": 9138,
      "Ġchurches": 9139,
      "Ġvisits": 9140,
      "pos": 9141,
      "ĠSaint": 9142,
      "ĠCT": 9143,
      "Ġatoms": 9144,
      "Ġpasses": 9145,
      "Ġnuts": 9146,
      "Ġdebris": 9147,
      "Ġcompetitive": 9148,
      "Ġassignment": 9149,
      "Ġhopes": 9150,
      "Ġtort": 9151,
      "Ġrays": 9152,
      "Ġsolving": 9153,
      "Ġneurolog": 9154,
      "orus": 9155,
      "enter": 9156,
      "endar": 9157,
      "Ġscr": 9158,
      "Ġhappiness": 9159,
      "Ġbreaks": 9160,
      "Ġdisplayed": 9161,
      "ĠStandard": 9162,
      "emies": 9163,
      "Ġinsights": 9164,
      "Ġoptimal": 9165,
      "Ġreveals": 9166,
      "Ġdrivers": 9167,
      "ĠNavy": 9168,
      "!!": 9169,
      "Ġtension": 9170,
      "Ġworkplace": 9171,
      "Ġ37": 9172,
      "Ġdramatically": 9173,
      "Ġpaintings": 9174,
      "urable": 9175,
      "Ġencl": 9176,
      "Ġprey": 9177,
      "BI": 9178,
      "after": 9179,
      "ĠJr": 9180,
      "apped": 9181,
      "Ġcycles": 9182,
      "Ġappeal": 9183,
      "DS": 9184,
      "sor": 9185,
      "western": 9186,
      "Ġprecisely": 9187,
      "Ġminimize": 9188,
      "ĠTemple": 9189,
      "ĠWikipedia": 9190,
      "Os": 9191,
      "ritten": 9192,
      "Ġspecified": 9193,
[...]
