{
  "version": "1.0",
  "truncation": null,
  "padding": null,
  "added_tokens": [
    {
      "id": 0,
      "content": "<|endoftext|>",
      "single_word": false,
      "lstrip": false,
      "rstrip": false,
      "normalized": false,
      "special": true
    },
    {
      "id": 1,
      "content": "<|pad|>",
      "single_word": false,
      "lstrip": false,
      "rstrip": false,
      "normalized": false,
      "special": true
    },
    {
      "id": 2,
      "content": "<|unk|>",
      "single_word": false,
      "lstrip": false,
      "rstrip": false,
      "normalized": false,
      "special": true
    },
    {
      "id": 3,
      "content": "<|im_start|>",
      "single_word": false,
      "lstrip": false,
      "rstrip": false,
      "normalized": false,
      "special": true
    },
    {
      "id": 4,
      "content": "<|im_end|>",
      "single_word": false,
      "lstrip": false,
      "rstrip": false,
      "normalized": false,
      "special": true
    }
  ],
  "normalizer": {
    "type": "NFC"
  },
  "pre_tokenizer": {
    "type": "ByteLevel",
    "add_prefix_space": false,
    "trim_offsets": true,
    "use_regex": true
  },
  "post_processor": null,
  "decoder": {
    "type": "ByteLevel",
    "add_prefix_space": true,
    "trim_offsets": true,
    "use_regex": true
  },
  "model": {
    "type": "BPE",
    "dropout": null,
    "unk_token": "<|unk|>",
    "continuing_subword_prefix": null,
    "end_of_word_suffix": null,
    "fuse_unk": false,
    "byte_fallback": false,
    "ignore_merges": false,
    "vocab": {
      "<|endoftext|>": 0,
      "<|pad|>": 1,
      "<|unk|>": 2,
      "<|im_start|>": 3,
      "<|im_end|>": 4,
      "!": 5,
      "\"": 6,
      "#": 7,
      "$": 8,
      "%": 9,
      "&": 10,
      "'": 11,
      "(": 12,
      ")": 13,
      "*": 14,
      "+": 15,
      ",": 16,
      "-": 17,
      ".": 18,
      "/": 19,
      "0": 20,
      "1": 21,
      "2": 22,
      "3": 23,
      "4": 24,
      "5": 25,
      "6": 26,
      "7": 27,
      "8": 28,
      "9": 29,
      ":": 30,
      ";": 31,
      "<": 32,
      "=": 33,
      ">": 34,
      "?": 35,
      "@": 36,
      "A": 37,
      "B": 38,
      "C": 39,
      "D": 40,
      "E": 41,
      "F": 42,
      "G": 43,
      "H": 44,
      "I": 45,
      "J": 46,
      "K": 47,
      "L": 48,
      "M": 49,
      "N": 50,
      "O": 51,
      "P": 52,
      "Q": 53,
      "R": 54,
      "S": 55,
      "T": 56,
      "U": 57,
      "V": 58,
      "W": 59,
      "X": 60,
      "Y": 61,
      "Z": 62,
      "[": 63,
      "]": 64,
      "_": 65,
      "a": 66,
      "b": 67,
      "c": 68,
      "d": 69,
      "e": 70,
      "f": 71,
      "g": 72,
      "h": 73,
      "i": 74,
      "j": 75,
      "k": 76,
      "l": 77,
      "m": 78,
      "n": 79,
      "o": 80,
      "p": 81,
      "q": 82,
      "r": 83,
      "s": 84,
      "t": 85,
      "u": 86,
      "v": 87,
      "w": 88,
      "x": 89,
      "y": 90,
      "z": 91,
      "|": 92,
      "~": 93,
      "¢": 94,
      "£": 95,
      "¦": 96,
      "§": 97,
      "¨": 98,
      "©": 99,
      "®": 100,
      "¯": 101,
      "°": 102,
      "±": 103,
      "¶": 104,
      "·": 105,
      "º": 106,
      "Â": 107,
      "Ã": 108,
      "×": 109,
      "â": 110,
      "Ċ": 111,
      "Ġ": 112,
      "Ģ": 113,
      "Ĩ": 114,
      "Ĳ": 115,
      "ĳ": 116,
      "Ĵ": 117,
      "ĵ": 118,
      "Ķ": 119,
      "ķ": 120,
      "ĸ": 121,
      "ĺ": 122,
      "Ļ": 123,
      "ļ": 124,
      "Ľ": 125,
      "ľ": 126,
      "Ŀ": 127,
      "ŀ": 128,
      "Ġt": 129,
      "Ġa": 130,
      "he": 131,
      "in": 132,
      "re": 133,
      "Ġo": 134,
      "Ġthe": 135,
      "er": 136,
      "at": 137,
      "Ġs": 138,
      "on": 139,
      "is": 140,
      "en": 141,
      "Ġw": 142,
      "Ġc": 143,
      "es": 144,
      "Ġp": 145,
      "or": 146,
      "an": 147,
      "it": 148,
      "Ġof": 149,
      "ed": 150,
      "Ġan": 151,
      "Ġb": 152,
      "al": 153,
      "ing": 154,
      "ou": 155,
      "Ġf": 156,
      "ic": 157,
      "Ġin": 158,
      "Ġm": 159,
      "Ġto": 160,
      "ar": 161,
      "Ġd": 162,
      "Ġand": 163,
      "ion": 164,
      "le": 165,
      "ro": 166,
      "ct": 167,
      "Ġh": 168,
      "Ġth": 169,
      "as": 170,
      "ent": 171,
      "Ġe": 172,
      "Ġre": 173,
      "st": 174,
      "ve": 175,
      "il": 176,
      "om": 177,
      "Ġl": 178,
      "Ġn": 179,
      "Ġis": 180,
      "ly": 181,
      "Ġbe": 182,
      "se": 183,
      "ow": 184,
      "ce": 185,
      "im": 186,
      "Ġg": 187,
      "âĢ": 188,
      "ĠT": 189,
      "ra": 190,
      "ut": 191,
      "ur": 192,
      "ation": 193,
      "Ġon": 194,
      "id": 195,
      "ot": 196,
      "ĠA": 197,
      "Ġfor": 198,
      "ol": 199,
      "ch": 200,
      "ĠI": 201,
      "ĠS": 202,
      "Ġthat": 203,
      "Ġu": 204,
      "ig": 205,
      "ver": 206,
      "et": 207,
      "ĠC": 208,
      "Ġy": 209,
      "Ġas": 210,
      "ir": 211,
      "Ġst": 212,
      "ay": 213,
      "if": 214,
      "ul": 215,
      "Ġpro": 216,
      "Ġor": 217,
      "am": 218,
      "ith": 219,
      "ĠM": 220,
      "her": 221,
      "Ġyou": 222,
      "el": 223,
      "Ġwh": 224,
      "Ġwith": 225,
      "ad": 226,
      "em": 227,
      "Ġcon": 228,
      "ist": 229,
      "ri": 230,
      "Ġare": 231,
      "nd": 232,
      "ĠP": 233,
      "ter": 234,
      "ect": 235,
      "Ġmo": 236,
      "Ġ(": 237,
      "ain": 238,
      "ge": 239,
      "ere": 240,
      "op": 241,
      "ĠB": 242,
      "Ġal": 243,
      "ies": 244,
      "os": 245,
      "ate": 246,
      "res": 247,
      "Ġit": 248,
      "Ġex": 249,
      "Ġhe": 250,
      "ĠThe": 251,
      "um": 252,
      "Ġat": 253,
      "ĠH": 254,
      "ers": 255,
      "ess": 256,
      "Ġha": 257,
      "us": 258,
      "pp": 259,
      "qu": 260,
      "ive": 261,
      "Ġcom": 262,
      "ort": 263,
      "ld": 264,
      "Ġsu": 265,
      "ĠF": 266,
      "Ġde": 267,
      "Ġ1": 268,
      "Ġby": 269,
      "nt": 270,
      "od": 271,
      "ill": 272,
      "ab": 273,
      "ity": 274,
      "and": 275,
      "ke": 276,
      "Ġr": 277,
      "Ġch": 278,
      "ant": 279,
      "ĠW": 280,
      "ment": 281,
      "igh": 282,
      "rom": 283,
      "Ġv": 284,
      "est": 285,
      "ĠE": 286,
      "ĠR": 287,
      "all": 288,
      "âĢĻ": 289,
      "Ġhave": 290,
      "du": 291,
      "Ġle": 292,
      "Ġwas": 293,
      "ud": 294,
      "ure": 295,
      "Ġne": 296,
      "ac": 297,
      "ĠG": 298,
      "pt": 299,
      "iv": 300,
      "Ġse": 301,
      "ich": 302,
      "out": 303,
      "ĠD": 304,
      "oc": 305,
      "Ġnot": 306,
      "are": 307,
      "Ġfrom": 308,
      "ical": 309,
      "ions": 310,
      "art": 311,
      "Ġus": 312,
      "Ġsh": 313,
      "ĠL": 314,
      "Ġwor": 315,
      "Ġwhich": 316,
      "Ġ2": 317,
      "Ġk": 318,
      "Ġcan": 319,
      "ard": 320,
      "The": 321,
      "rou": 322,
      "ance": 323,
      "Ġthis": 324,
      "ight": 325,
      "ff": 326,
      "gh": 327,
      "ine": 328,
      "Ġwe": 329,
      "our": 330,
      "ther": 331,
      "ĠâĢ": 332,
      "ould": 333,
      "Ġpl": 334,
      "end": 335,
      "ip": 336,
      "un": 337,
      "Ġim": 338,
      "th": 339,
      "ag": 340,
      "ore": 341,
      "ated": 342,
      "Ġac": 343,
      "pe": 344,
      "ĠN": 345,
      "ĠO": 346,
      "'s": 347,
      "per": 348,
      "ous": 349,
      "ĠIn": 350,
      "Ġwhe": 351,
      "Ġab": 352,
      "Ġso": 353,
      "ome": 354,
      "00": 355,
      "ire": 356,
      "ial": 357,
      "ĠU": 358,
      "orm": 359,
      "Ġtheir": 360,
      "ĠJ": 361,
      "ust": 362,
      "Ġmore": 363,
      "Ġper": 364,
      "ew": 365,
      "og": 366,
      "Ġ\"": 367,
      "ft": 368,
      "Ġen": 369,
      "Ġma": 370,
      "Ġres": 371,
      "Ġcomp": 372,
      "ction": 373,
      "Ġint": 374,
      "Ġhis": 375,
      "Ġad": 376,
      "Ġone": 377,
      "now": 378,
      "Ġbut": 379,
      "ult": 380,
      "Ġcont": 381,
      "iff": 382,
      "au": 383,
      "iz": 384,
      "ran": 385,
      "so": 386,
      "ents": 387,
      "Ġall": 388,
      "ater": 389,
      "ence": 390,
      "ell": 391,
      "ia": 392,
      "ition": 393,
      "ign": 394,
      "ations": 395,
      "Ġwere": 396,
      "Ġdes": 397,
      "vel": 398,
      "ide": 399,
      "cess": 400,
      "Ġpre": 401,
      "Ġman": 402,
      "ary": 403,
      "Ġknow": 404,
      "age": 405,
      "Ġother": 406,
      "Ġdiff": 407,
      "âĢĿ": 408,
      "Ġprodu": 409,
      "ress": 410,
      "ind": 411,
      "Ġwho": 412,
      "ep": 413,
      "ib": 414,
      "ry": 415,
      "ount": 416,
      "Ġimp": 417,
      "ild": 418,
      "ric": 419,
      "ear": 420,
      "ru": 421,
      "ach": 422,
      "Ġhas": 423,
      "ĠTh": 424,
      "ron": 425,
      "ally": 426,
      "Ġinc": 427,
      "Ġgo": 428,
      "ens": 429,
      "Ġdo": 430,
      "ap": 431,
      "ject": 432,
      "Ġwill": 433,
      "ice": 434,
      "able": 435,
      "Ġar": 436,
      "lect": 437,
      "ces": 438,
      "Ġthey": 439,
      "vers": 440,
      "Ġtim": 441,
      "ast": 442,
      "Ġyour": 443,
      "Ġdis": 444,
      "lo": 445,
      "led": 446,
      "av": 447,
      "act": 448,
      "yst": 449,
      "ĠK": 450,
      "Ġpe": 451,
      "Ġpat": 452,
      "Ġme": 453,
      "ause": 454,
      "Ġbec": 455,
      "Ġ19": 456,
      "form": 457,
      "Ġapp": 458,
      "king": 459,
      "ase": 460,
      "ass": 461,
      "ities": 462,
      "ĠâĢľ": 463,
      "Ġpart": 464,
      "ound": 465,
      "Ġj": 466,
      "Ġout": 467,
      "ware": 468,
      "Ġun": 469,
      "very": 470,
      "ory": 471,
      "Ġabout": 472,
      "Ġthere": 473,
      "ord": 474,
      "Ġalso": 475,
      "ystem": 476,
      "ber": 477,
      "hy": 478,
      "ple": 479,
      "ace": 480,
      "Ġpo": 481,
      "con": 482,
      "ks": 483,
      "ame": 484,
      "Ġwhen": 485,
      "cri": 486,
      "ating": 487,
      "Ġbeen": 488,
      "Ġtra": 489,
      "Ġcl": 490,
      "rough": 491,
      "fter": 492,
      "Ġif": 493,
      "Ġsp": 494,
      "ong": 495,
      "ĠSt": 496,
      "Ġsome": 497,
      "Ġeff": 498,
      ").": 499,
      "Ġthem": 500,
      "ose": 501,
      "Ġte": 502,
      "ĠIt": 503,
      "cis": 504,
      "co": 505,
      "rit": 506,
      "Ġqu": 507,
      "ree": 508,
      "ane": 509,
      "Ġev": 510,
      "aint": 511,
      "ors": 512,
      "Ġup": 513,
      "ays": 514,
      "Ġag": 515,
      "Ġmay": 516,
      "Ġrep": 517,
      "Ġcomm": 518,
      "Ġtime": 519,
      "Ġser": 520,
      "Ġam": 521,
      "Ġob": 522,
      "Ġany": 523,
      "ang": 524,
      "Ġbet": 525,
      "Ġ200": 526,
      "wn": 527,
      "Ġlic": 528,
      "Ġstud": 529,
      "Ġchild": 530,
      "Ġdescri": 531,
      "ile": 532,
      "low": 533,
      "ative": 534,
      "Ġspe": 535,
      "ish": 536,
      "Ġhad": 537,
      "ract": 538,
      "Ġexp": 539,
      "ough": 540,
      "irst": 541,
      "ian": 542,
      "ning": 543,
      "Ġthan": 544,
      "sel": 545,
      "ail": 546,
      "ue": 547,
      "Ġem": 548,
      "ĠHow": 549,
      "19": 550,
      "Ġwould": 551,
      "ings": 552,
      "ople": 553,
      "Ġdiffere": 554,
      "ds": 555,
      "lic": 556,
      "ost": 557,
      "Ġtw": 558,
      "Ġact": 559,
      "ons": 560,
      "als": 561,
      "ftware": 562,
      "Ġinto": 563,
      "int": 564,
      "erm": 565,
      "Ġhow": 566,
      "Ġthrough": 567,
      "irect": 568,
      "ike": 569,
      "ious": 570,
      "ific": 571,
      "Ġmost": 572,
      "Ġatt": 573,
      "ĠThis": 574,
      "les": 575,
      "Ġonly": 576,
      "Ġproduct": 577,
      "ledge": 578,
      "fore": 579,
      "Ġro": 580,
      "ren": 581,
      "ense": 582,
      "Ġno": 583,
      "olog": 584,
      "Ġneed": 585,
      "velop": 586,
      "ak": 587,
      "hed": 588,
      "reat": 589,
      "Ġcount": 590,
      "ular": 591,
      "Ġcons": 592,
      "Ġsupp": 593,
      "Ġ-": 594,
      "ates": 595,
      "Ġelect": 596,
      "own": 597,
      "nder": 598,
      "ub": 599,
      "Ġsa": 600,
      "Ġrel": 601,
      "ade": 602,
      "we": 603,
      "Ġrec": 604,
      "Ġsuch": 605,
      "Ġused": 606,
      "oo": 607,
      "Ġsc": 608,
      "ĠAl": 609,
      "Ġnew": 610,
      "ient": 611,
      "iss": 612,
      "Ġref": 613,
      "Ġpeople": 614,
      "ful": 615,
      "ph": 616,
      "hes": 617,
      "Ġthese": 618,
      "Ġcould": 619,
      "Ġwork": 620,
      "Ġsoftware": 621,
      "Ġbecause": 622,
      "lud": 623,
      "Ġra": 624,
      "ature": 625,
      "Ġway": 626,
      "Ġoff": 627,
      "oss": 628,
      "Ġexam": 629,
      "Ġdevelop": 630,
      "ption": 631,
      "Ġknowledge": 632,
      "Ġeffect": 633,
      "ie": 634,
      "ied": 635,
      "ug": 636,
      "Ġ4": 637,
      "ans": 638,
      "ite": 639,
      "ased": 640,
      "Ġreg": 641,
      "Ġuse": 642,
      "ĠCA": 643,
      "tern": 644,
      "dition": 645,
      "ood": 646,
      "Ġher": 647,
      "hen": 648,
      "Ġover": 649,
      "one": 650,
      "ism": 651,
      "itt": 652,
      "Ġfirst": 653,
      "ack": 654,
      "Ġtwo": 655,
      "ivers": 656,
      "ures": 657,
      "Ġ3": 658,
      "Ġafter": 659,
      "ener": 660,
      "Ġnum": 661,
      "ows": 662,
      "ram": 663,
      "Ġunder": 664,
      "ments": 665,
      "Ġplay": 666,
      "Ġinclud": 667,
      "Ġart": 668,
      "hat": 669,
      "ĠV": 670,
      "ĠY": 671,
      "orn": 672,
      "Ġind": 673,
      "Ġinst": 674,
      "Ġmem": 675,
      "ower": 676,
      "uring": 677,
      "Ġprov": 678,
      "Ġmod": 679,
      "),": 680,
      "ced": 681,
      "ices": 682,
      "oth": 683,
      "Ġform": 684,
      "Ġhel": 685,
      "ĠRe": 686,
      "Ġ~": 687,
      "Ġcre": 688,
      "Ġpar": 689,
      "Ġpol": 690,
      "Ġdirect": 691,
      "Ġlike": 692,
      "Ġmany": 693,
      "ck": 694,
      "hip": 695,
      "Ġsur": 696,
      "Ġcall": 697,
      "rot": 698,
      "Ġgrou": 699,
      "Ġyear": 700,
      "Ġmake": 701,
      "Ġhelp": 702,
      "ata": 703,
      "ond": 704,
      "Ġmet": 705,
      "old": 706,
      "ĠCh": 707,
      "Ġass": 708,
      "Ġwhere": 709,
      "gy": 710,
      "gan": 711,
      "iew": 712,
      "ved": 713,
      "Ġsystem": 714,
      "Ġright": 715,
      "Ġimport": 716,
      "Ġpartic": 717,
      "Ġbetwe": 718,
      "Ġlicens": 719,
      "Ġbetween": 720,
      ".\"": 721,
      "cc": 722,
      "ever": 723,
      "Ġsign": 724,
      "row": 725,
      "ural": 726,
      "ered": 727,
      "Ġdec": 728,
      "Ġresp": 729,
      "ible": 730,
      "Th": 731,
      "hing": 732,
      "Ġke": 733,
      "Ġwater": 734,
      "ited": 735,
      "Ġinf": 736,
      "Ġthose": 737,
      "ility": 738,
      "Ġsub": 739,
      "Ġpatch": 740,
      "Ġdifferent": 741,
      ".,": 742,
      "Ġcol": 743,
      "Ġpract": 744,
      "Ġits": 745,
      "Ġexample": 746,
      "ix": 747,
      "uch": 748,
      "Ġtri": 749,
      "Ġour": 750,
      "Ġhim": 751,
      "urs": 752,
      "Ġacqu": 753,
      "Ġjust": 754,
      "ng": 755,
      "vent": 756,
      "ery": 757,
      "enc": 758,
      "Ġlist": 759,
      "ational": 760,
      "other": 761,
      "Ġwhat": 762,
      "ĠUn": 763,
      "ll": 764,
      "ual": 765,
      "ually": 766,
      "Ġwell": 767,
      "Ġcent": 768,
      "Ġpress": 769,
      "Ġread": 770,
      "ily": 771,
      "iron": 772,
      "Ġspec": 773,
      "'t": 774,
      "iod": 775,
      "ss": 776,
      "ten": 777,
      "Ġvery": 778,
      "ink": 779,
      "red": 780,
      "Ġsame": 781,
      "iti": 782,
      "its": 783,
      "alif": 784,
      "Ġmade": 785,
      "urn": 786,
      "Ġleg": 787,
      "Ġsee": 788,
      "Ġ20": 789,
      "Ġperform": 790,
      "rans": 791,
      "ruct": 792,
      "Ġelectron": 793,
      "In": 794,
      "land": 795,
      "ne": 796,
      "ving": 797,
      "Ġsm": 798,
      "Ġsim": 799,
      "Ġfind": 800,
      "Ġdist": 801,
      "Ġdown": 802,
      "uth": 803,
      "ĠInd": 804,
      "ists": 805,
      "ives": 806,
      "ically": 807,
      "Ġeven": 808,
      "Ġmemb": 809,
      "Ġimportant": 810,
      "ake": 811,
      "cle": 812,
      "viron": 813,
      "ins": 814,
      "Ġthen": 815,
      "ath": 816,
      "ange": 817,
      "Ġfre": 818,
      "Ġdet": 819,
      "Ġbefore": 820,
      "ident": 821,
      "ĠFor": 822,
      "Ġlear": 823,
      "Ġsupport": 824,
      "..": 825,
      "mer": 826,
      "Ġown": 827,
      "Ġco": 828,
      "ution": 829,
      "ement": 830,
      "osis": 831,
      "ĠHe": 832,
      "ants": 833,
      "Ġdescription": 834,
      "ĠHoward": 835,
      "iversity": 836,
      "Ġnumber": 837,
      "vironment": 838,
      "ble": 839,
      "io": 840,
      "ser": 841,
      "ines": 842,
      "Ġsol": 843,
      "Ġinter": 844,
      "Ġeach": 845,
      "Ġget": 846,
      "ĠAr": 847,
      "Ġprocess": 848,
      "ĠFran": 849,
      "Ġshould": 850,
      "hys": 851,
      "Ġagain": 852,
      "ave": 853,
      "te": 854,
      "ts": 855,
      "Ġmy": 856,
      "cept": 857,
      "urric": 858,
      "ources": 859,
      "Ġchildren": 860,
      "ology": 861,
      "Ġpressure": 862,
      "ince": 863,
      "Ġoil": 864,
      "ise": 865,
      "ics": 866,
      "ark": 867,
      "Ġhigh": 868,
      "Ġrem": 869,
      "ife": 870,
      "Ġwords": 871,
      "ĠÂ": 872,
      "Ġtrans": 873,
      "Ġpr": 874,
      "alth": 875,
      "ict": 876,
      "Ġhum": 877,
      "Ġrest": 878,
      "Ġgra": 879,
      "Ġgener": 880,
      "Ġadd": 881,
      "Ġproducts": 882,
      "ook": 883,
      "Ġcalled": 884,
      "This": 885,
      "Ġacquaint": 886,
      "tosis": 887,
      "ven": 888,
      "itive": 889,
      "Ġfe": 890,
      "omet": 891,
      "Ġlong": 892,
      "ĠIf": 893,
      "ĠSer": 894,
      "conom": 895,
      "Ġobject": 896,
      "Ġsaid": 897,
      "Ġ5": 898,
      "anes": 899,
      "itions": 900,
      "Ġiniti": 901,
      "arch": 902,
      "rol": 903,
      "ash": 904,
      "ases": 905,
      "cho": 906,
      "Ġincre": 907,
      "Ġappro": 908,
      "Ġyears": 909,
      "aliforn": 910,
      "nce": 911,
      "oh": 912,
      "rat": 913,
      "sh": 914,
      "ward": 915,
      "Ġtest": 916,
      "Ġoper": 917,
      "Ġocc": 918,
      "Ġpres": 919,
      "arge": 920,
      "Ġduring": 921,
      "Ġele": 922,
      "Ġusing": 923,
      "Ġaccess": 924,
      "Ġmeas": 925,
      "alifornia": 926,
      "ex": 927,
      "ience": 928,
      "ting": 929,
      "ern": 930,
      "Ġche": 931,
      "Ġfound": 932,
      "lex": 933,
      "Ġthings": 934,
      "Ġevery": 935,
      "Ġext": 936,
      "oci": 937,
      "Ġgroup": 938,
      "ob": 939,
      "tain": 940,
      "vice": 941,
      "Ġshe": 942,
      "ars": 943,
      "Ġhand": 944,
      "Ġbeing": 945,
      "ollow": 946,
      "vern": 947,
      "ĠCalifornia": 948,
      "rib": 949,
      "ĠPro": 950,
      "ĠWe": 951,
      "dust": 952,
      "round": 953,
      "Ġcontin": 954,
      "Ġcommun": 955,
      "Ġparrot": 956,
      "Ġparticular": 957,
      "eg": 958,
      "the": 959,
      "Ġ8": 960,
      "Ġty": 961,
      "Ġterm": 962,
      "ining": 963,
      "Ġsay": 964,
      "Ġcar": 965,
      "Ġpower": 966,
      "Ġback": 967,
      "Ġindust": 968,
      "Ġmon": 969,
      "Ġmuch": 970,
      "Ġtoo": 971,
      "Ġdon": 972,
      "Ġdid": 973,
      "Ġdata": 974,
      "Ġrequ": 975,
      "imate": 976,
      "Ġdef": 977,
      "ource": 978,
      "Ġacc": 979,
      "ize": 980,
      "hysical": 981,
      "der": 982,
      "pl": 983,
      "Ġsomet": 984,
      "ished": 985,
      "Ġca": 986,
      "Ġpers": 987,
      "Ġoften": 988,
      "Ġfam": 989,
      "ilities": 990,
      "Ġloc": 991,
      "ĠAd": 992,
      "Ġexper": 993,
      "Ġlead": 994,
      "formation": 995,
      "self": 996,
      "ĠCAL": 997,
      "Ġprovid": 998,
      "Ġ201": 999,
      ",\"": 1000,
      "face": 1001,
      "line": 1002,
      "ues": 1003,
      "ercis": 1004,
      "Ġpub": 1005,
      "Ġfac": 1006,
      "rap": 1007,
      "ute": 1008,
      "ĠAs": 1009,
      "Ġstate": 1010,
      "ude": 1011,
      "Ġstudents": 1012,
      "ditional": 1013,
      "ency": 1014,
      ".âĢĿ": 1015,
      "cus": 1016,
      "gram": 1017,
      "ier": 1018,
      "view": 1019,
      "Ġed": 1020,
      "ined": 1021,
      "Ġcor": 1022,
      "Ġpos": 1023,
      "Ġgreat": 1024,
      "elf": 1025,
      "Ġwithout": 1026,
      "ters": 1027,
      "ected": 1028,
      "ĠGod": 1029,
      "ults": 1030,
      "Ġgovern": 1031,
      "Ġpoint": 1032,
      "Ġactiv": 1033,
      "ohn": 1034,
      "ah": 1035,
      "air": 1036,
      "cent": 1037,
      "cos": 1038,
      "uk": 1039,
      "Ġav": 1040,
      "Ġwant": 1041,
      "Ġcr": 1042,
      "Ġcur": 1043,
      "Ġanother": 1044,
      "Ġfu": 1045,
      "ick": 1046,
      "arly": 1047,
      "Ġland": 1048,
      "âĢĶ": 1049,
      "ĠSan": 1050,
      "amp": 1051,
      "ection": 1052,
      "Ġworld": 1053,
      "Ġplan": 1054,
      "Ġenvironment": 1055,
      "ized": 1056,
      "ission": 1057,
      "Ġlicensing": 1058,
      "Ġmembran": 1059,
      ",âĢĿ": 1060,
      "pos": 1061,
      "ves": 1062,
      "vol": 1063,
      "Ġair": 1064,
      "Ġaff": 1065,
      "ont": 1066,
      "ork": 1067,
      "edic": 1068,
      "Ġbl": 1069,
      "Ġboth": 1070,
      "Ġfl": 1071,
      "Ġinformation": 1072,
      "Ġmust": 1073,
      "ari": 1074,
      "Ġdam": 1075,
      "omm": 1076,
      "Ġless": 1077,
      "Ġorgan": 1078,
      "ĠBe": 1079,
      "Ġexercis": 1080,
      "Ġchange": 1081,
      "Ġleft": 1082,
      "ock": 1083,
      "ĠOct": 1084,
      "Ġeng": 1085,
      "ization": 1086,
      "Ġdoes": 1087,
      "Ġquest": 1088,
      "Ġreport": 1089,
      "blem": 1090,
      "ĠFrancis": 1091,
      "Ġhuman": 1092,
      "Ġacquaintance": 1093,
      "ax": 1094,
      "aking": 1095,
      "ove": 1096,
      "par": 1097,
      "sw": 1098,
      "to": 1099,
      "way": 1100,
      "ym": 1101,
      "Ġcap": 1102,
      "Ġph": 1103,
      "Ġball": 1104,
      "Ġfew": 1105,
      "Ġmin": 1106,
      "Ġthough": 1107,
      "Ġthink": 1108,
      "Ġreas": 1109,
      "Ġrese": 1110,
      "ified": 1111,
      "ĠPl": 1112,
      "ĠWhat": 1113,
      "ĠDe": 1114,
      "ages": 1115,
      "aged": 1116,
      "Ġserver": 1117,
      "Ġstudy": 1118,
      "Ġrecord": 1119,
      "ittle": 1120,
      "Ġkey": 1121,
      "Ġinfl": 1122,
      "Ġsubject": 1123,
      "ĠFrancisco": 1124,
      "10": 1125,
      "gest": 1126,
      "Ġ6": 1127,
      "Ġend": 1128,
      "inal": 1129,
      "ination": 1130,
      "ather": 1131,
      "atural": 1132,
      "Ġsense": 1133,
      "Ġcour": 1134,
      "Ġphysical": 1135,
      "Ġfollow": 1136,
      "Ġdue": 1137,
      "Ġhurric": 1138,
      "enter": 1139,
      "stand": 1140,
      "Ġlim": 1141,
      "Ġgr": 1142,
      "Ġgre": 1143,
      "Ġgas": 1144,
      "ury": 1145,
      "ĠSc": 1146,
      "ĠCle": 1147,
      "Ġstill": 1148,
      "Ġproblem": 1149,
      "Ġmove": 1150,
      "Ġhealth": 1151,
      "Ġusually": 1152,
      "ĠâĢĺ": 1153,
      "Ġcomput": 1154,
      "Ġallow": 1155,
      "lood": 1156,
      "Ġlicense": 1157,
      "ĠYou": 1158,
      "Ġsurface": 1159,
      "Ġsignific": 1160,
      "uthor": 1161,
      "aw": 1162,
      "ee": 1163,
      "for": 1164,
      "ness": 1165,
      "oy": 1166,
      "vices": 1167,
      "Ġ&": 1168,
      "Ġ7": 1169,
      "rent": 1170,
      "ergy": 1171,
      "atra": 1172,
      "ene": 1173,
      "Ġcause": 1174,
      "icle": 1175,
      "Ġmus": 1176,
      "Ġreal": 1177,
      "Ġlittle": 1178,
      "Ġgrow": 1179,
      "ote": 1180,
      "ĠShe": 1181,
      "Ġstat": 1182,
      "Ġstorm": 1183,
      "ify": 1184,
      "ulf": 1185,
      "Ġproject": 1186,
      "eld": 1187,
      "Ġconst": 1188,
      "opatra": 1189,
      "Ġchar": 1190,
      "outh": 1191,
      "ired": 1192,
      "Ġconsid": 1193,
      "Ġrelations": 1194,
      "Ġpractice": 1195,
      "ĠÂ·": 1196,
      "chool": 1197,
      "Ġindustry": 1198,
      "Ġmembrane": 1199,
      "IS": 1200,
      "ccess": 1201,
      "fess": 1202,
      "kis": 1203,
      "rate": 1204,
      "ty": 1205,
      "uild": 1206,
      "Ġtem": 1207,
      "Ġsound": 1208,
      "Ġsince": 1209,
      "Ġself": 1210,
      "Ġwrit": 1211,
      "Ġpass": 1212,
      "Ġposs": 1213,
      "Ġeconom": 1214,
      "ĠSo": 1215,
      "eter": 1216,
      "ĠCor": 1217,
      "hern": 1218,
      "Ġwhile": 1219,
      "ume": 1220,
      "Ġrul": 1221,
      "Ġrun": 1222,
      "Ġcontain": 1223,
      "Ġknown": 1224,
      "Ġobser": 1225,
      "Ġ2008": 1226,
      "Ġsmall": 1227,
      "Ġagainst": 1228,
      "Ġcaus": 1229,
      "kisi": 1230,
      "de": 1231,
      "ech": 1232,
      "ients": 1233,
      "use": 1234,
      "xt": 1235,
      "Ġaround": 1236,
      "here": 1237,
      "ret": 1238,
      "Ġsent": 1239,
      "Ġsend": 1240,
      "Ġcer": 1241,
      "Ġcop": 1242,
      "ories": 1243,
      "icult": 1244,
      "ional": 1245,
      "oman": 1246,
      "Ġlife": 1247,
      "ott": 1248,
      "Ġorder": 1249,
      "Ġwithin": 1250,
      "orth": 1251,
      "ĠEn": 1252,
      "ĠRes": 1253,
      "ĠâĢĵ": 1254,
      "Ġimm": 1255,
      "agement": 1256,
      "ĠNew": 1257,
      "Ġpercent": 1258,
      "aterial": 1259,
      "Ġprev": 1260,
      "ĠHowever": 1261,
      "rapy": 1262,
      "Ġcurrent": 1263,
      ".)": 1264,
      "lished": 1265,
      "nal": 1266,
      "pr": 1267,
      "pect": 1268,
      "side": 1269,
      "Ġtr": 1270,
      "Ġauthor": 1271,
      "inc": 1272,
      "ering": 1273,
      "isl": 1274,
      "eng": 1275,
      "Ġcle": 1276,
      "Ġpop": 1277,
      "any": 1278,
      "Ġbal": 1279,
      "Ġfree": 1280,
      "icro": 1281,
      "Ġmight": 1282,
      "Ġday": 1283,
      "Ġthree": 1284,
      "Ġnatural": 1285,
      "ety": 1286,
      "riz": 1287,
      "ĠThere": 1288,
      "ĠEx": 1289,
      "iven": 1290,
      "iving": 1291,
      "ipel": 1292,
      "unction": 1293,
      "Ġperiod": 1294,
      "ells": 1295,
      "Ġdifficult": 1296,
      "Ġtimes": 1297,
      "Ġdescrib": 1298,
      "Ġcounty": 1299,
      "Ġinclude": 1300,
      "Ġelectrons": 1301,
      "Ġsomething": 1302,
      "ĠCleopatra": 1303,
      "cial": 1304,
      "ches": 1305,
      "fric": 1306,
      "ged": 1307,
      "oard": 1308,
      "up": 1309,
      "ways": 1310,
      "Ġ[": 1311,
      "Ġide": 1312,
      "Ġtake": 1313,
      "Ġold": 1314,
      "Ġwar": 1315,
      "Ġcare": 1316,
      "Ġport": 1317,
      "eder": 1318,
      "Ġbr": 1319,
      "Ġbra": 1320,
      "Ġburs": 1321,
      "alf": 1322,
      "Ġfact": 1323,
      "Ġmult": 1324,
      "Ġdem": 1325,
      "Ġlarge": 1326,
      "urther": 1327,
      "ĠCa": 1328,
      "Ġstand": 1329,
      "ames": 1330,
      "osp": 1331,
      "osed": 1332,
      "ussel": 1333,
      "Ġdep": 1334,
      "ody": 1335,
      "ĠWind": 1336,
      "ĠWhen": 1337,
      "Ġvis": 1338,
      "Ġvol": 1339,
      "ĠJohn": 1340,
      "Ġdesign": 1341,
      "Ġproduction": 1342,
      "Ġrepres": 1343,
      "Ġcommon": 1344,
      "angu": 1345,
      "Ġsaf": 1346,
      "hips": 1347,
      "ĠUniversity": 1348,
      "Ġlearning": 1349,
      "meric": 1350,
      "ĠArt": 1351,
      "cosystem": 1352,
      "Ġexercises": 1353,
      "by": 1354,
      "com": 1355,
      "cul": 1356,
      "cher": 1357,
      "gery": 1358,
      "ield": 1359,
      "sc": 1360,
      "Ġturn": 1361,
      "ati": 1362,
      "Ġsw": 1363,
      "Ġsit": 1364,
      "Ġset": 1365,
      "Ġpur": 1366,
      "itor": 1367,
      "iting": 1368,
      "Ġansw": 1369,
      "Ġfall": 1370,
      "Ġtop": 1371,
      "Ġdi": 1372,
      "ential": 1373,
      "Ġeas": 1374,
      "Ġiss": 1375,
      "âĢľ": 1376,
      "raph": 1377,
      "idence": 1378,
      "ĠAfric": 1379,
      "ĠAmeric": 1380,
      "Ġask": 1381,
      "Ġprot": 1382,
      "Ġprogram": 1383,
      "ĠPtosis": 1384,
      "ately": 1385,
      "Ġhere": 1386,
      "Ġhead": 1387,
      "ode": 1388,
      "ills": 1389,
      "Ġround": 1390,
      "Ġchang": 1391,
      "Ġval": 1392,
      "ptions": 1393,
      "ivid": 1394,
      "Ġsecon": 1395,
      "Ġsepar": 1396,
      "ocial": 1397,
      "Ġshow": 1398,
      "Ġable": 1399,
      "Ġresist": 1400,
      "Ġcomple": 1401,
      "Ġpred": 1402,
      "ording": 1403,
      "Ġamount": 1404,
      "Ġunderstand": 1405,
      "Ġarticle": 1406,
      "Ġlicenses": 1407,
      "Ġlearn": 1408,
      "shore": 1409,
      "Ġcontinu": 1410,
      "Ġcrude": 1411,
      "Ġtemper": 1412,
      "ĠWindows": 1413,
      "AS": 1414,
      "ling": 1415,
      "me": 1416,
      "rance": 1417,
      "uro": 1418,
      "ators": 1419,
      "esar": 1420,
      "ale": 1421,
      "Ġfive": 1422,
      "Ġflow": 1423,
      "lease": 1424,
      "rodu": 1425,
      "Ġequ": 1426,
      "Ġredu": 1427,
      "Ġlangu": 1428,
      "Ġbeh": 1429,
      "ĠAn": 1430,
      "ĠII": 1431,
      "Ġconc": 1432,
      "Ġalways": 1433,
      "ĠThey": 1434,
      "about": 1435,
      "Ġvac": 1436,
      "Ġlevel": 1437,
      "Ġseem": 1438,
      "ocus": 1439,
      "ared": 1440,
      "ournal": 1441,
      "Ġenergy": 1442,
      "Ġcontrol": 1443,
      "epend": 1444,
      "Ġgoing": 1445,
      "acter": 1446,
      "Ġtech": 1447,
      "Ġbetter": 1448,
      "Ġexpl": 1449,
      "Ġemail": 1450,
      "Ġeffective": 1451,
      "Ġincluding": 1452,
      "Ġlegisl": 1453,
      "ĠServer": 1454,
      "Ġinitiative": 1455,
      "Ġmeasure": 1456,
      "Ġperson": 1457,
      "cuss": 1458,
      "Ġpositive": 1459,
      "Ġsignificant": 1460,
      "Ġcertain": 1461,
      "ĠCaesar": 1462,
      "We": 1463,
      "kes": 1464,
      "oid": 1465,
      "port": 1466,
      "Ġ9": 1467,
      "Ġut": 1468,
      "Ġtak": 1469,
      "indu": 1470,
      "Ġopp": 1471,
      "Ġsk": 1472,
      "Ġsocial": 1473,
      "Ġpipel": 1474,
      "iter": 1475,
      "Ġmaterial": 1476,
      "aruk": 1477,
      "ross": 1478,
      "Ġhard": 1479,
      "Ġbel": 1480,
      "ĠIs": 1481,
      "ĠSh": 1482,
      "ains": 1483,
      "oses": 1484,
      "ĠHis": 1485,
      "Ġhaving": 1486,
      "Ġ12": 1487,
      "Ġrating": 1488,
      "Ġview": 1489,
      "Ġneg": 1490,
      "Ġword": 1491,
      "Ġworks": 1492,
      "Ġweight": 1493,
      "orest": 1494,
      "ĠUS": 1495,
      "soft": 1496,
      "rug": 1497,
      "Ġdiscuss": 1498,
      "aves": 1499,
      "Ġmeans": 1500,
      "Ġ199": 1501,
      "Ġclass": 1502,
      "ological": 1503,
      "Ġprovide": 1504,
      "Ġkeep": 1505,
      "Ġgovernment": 1506,
      "Ġgreater": 1507,
      "Ġbalance": 1508,
      "icrosoft": 1509,
      "Ġtemperature": 1510,
      "Ġlanguage": 1511,
      "Ġtechn": 1512,
      "DE": 1513,
      "It": 1514,
      "PI": 1515,
      "jor": 1516,
      "man": 1517,
      "ration": 1518,
      "uc": 1519,
      "Ġ=": 1520,
      "ina": 1521,
      "Ġsl": 1522,
      "Ġsays": 1523,
      "enn": 1524,
      "Ġcost": 1525,
      "itis": 1526,
      "ital": 1527,
      "Ġbott": 1528,
      "Ġbody": 1529,
      "aly": 1530,
      "Ġfil": 1531,
      "Ġmen": 1532,
      "Ġmaint": 1533,
      "Ġmix": 1534,
      "Ġdom": 1535,
      "Ġdest": 1536,
      "Ġearly": 1537,
      "ilar": 1538,
      "Ġgiven": 1539,
      "ots": 1540,
      "ĠSe": 1541,
      "ets": 1542,
      "ĠCo": 1543,
      "Ġstep": 1544,
      "Ġprom": 1545,
      "Ġprofess": 1546,
      "Ġorig": 1547,
      "ĠMedic": 1548,
      "ĠMicrosoft": 1549,
      "Ġconf": 1550,
      "ĠBut": 1551,
      "ĠBrit": 1552,
      "pper": 1553,
      "Ġdecis": 1554,
      "Ġ18": 1555,
      "Ġris": 1556,
      "Ġvar": 1557,
      "ĠEng": 1558,
      "ended": 1559,
      "iple": 1560,
      "thing": 1561,
      "ored": 1562,
      "ĠInst": 1563,
      "Ġmaking": 1564,
      "ressed": 1565,
      "Ġimpro": 1566,
      "rong": 1567,
      "Ġgood": 1568,
      "Ġdise": 1569,
      "ĠKaruk": 1570,
      "Ġamong": 1571,
      "Ġcreate": 1572,
      "Ġpoll": 1573,
      "Ġground": 1574,
      "Ġprim": 1575,
      "Ġoccur": 1576,
      "Ġpresent": 1577,
      "Ġelements": 1578,
      "Ġterms": 1579,
      "Ġfamily": 1580,
      "Ġactivities": 1581,
      "Ġdamage": 1582,
      "rizon": 1583,
      "If": 1584,
      "ape": 1585,
      "cing": 1586,
      "ditions": 1587,
      "ead": 1588,
      "iqu": 1589,
      "ma": 1590,
      "ooth": 1591,
      "uid": 1592,
      "Ã©": 1593,
      "Ġident": 1594,
      "Ġtre": 1595,
      "Ġtable": 1596,
      "Ġast": 1597,
      "Ġage": 1598,
      "Ġsing": 1599,
      "Ġsource": 1600,
      "ised": 1601,
      "Ġcir": 1602,
      "edi": 1603,
      "Ġbat": 1604,
      "Ġbir": 1605,
      "Ġblood": 1606,
      "ouse": 1607,
      "Ġfood": 1608,
      "Ġfurther": 1609,
      "Ġfocus": 1610,
      "icate": 1611,
      "icial": 1612,
      "Ġdel": 1613,
      "lep": 1614,
      "ley": 1615,
      "Ġret": 1616,
      "ilit": 1617,
      "Ġlow": 1618,
      "Ġbeg": 1619,
      "rake": 1620,
      "ull": 1621,
      "Ġproper": 1622,
      "ĠPh": 1623,
      "Ġexist": 1624,
      "ĠHindu": 1625,
      "Ġhapp": 1626,
      "quent": 1627,
      "ldrake": 1628,
      "Ġsuccess": 1629,
      "ably": 1630,
      "ĠEm": 1631,
      "Ġnever": 1632,
      "ĠGulf": 1633,
      "Ġshort": 1634,
      "ĠâĢ¢": 1635,
      "ends": 1636,
      "ĠOne": 1637,
      "000": 1638,
      "ĠJournal": 1639,
      "ograph": 1640,
      "Ġmajor": 1641,
      "ibr": 1642,
      "Ġdisco": 1643,
      "ĠKDE": 1644,
      "Ġpeer": 1645,
      "Ġmean": 1646,
      "Ġtraditional": 1647,
      "Ġeffort": 1648,
      "Ġcounties": 1649,
      "Ġ--": 1650,
      "Ġscient": 1651,
      "Ġsystems": 1652,
      "ĠIndia": 1653,
      "ĠIndian": 1654,
      "Ġtype": 1655,
      "Ġmonth": 1656,
      "ĠPlan": 1657,
      "Ġfollowing": 1658,
      "Ġcopy": 1659,
      "urope": 1660,
      "An": 1661,
      "action": 1662,
      "cular": 1663,
      "ires": 1664,
      "ko": 1665,
      "pen": 1666,
      "pes": 1667,
      "pire": 1668,
      "ral": 1669,
      "ted": 1670,
      "vn": 1671,
      "read": 1672,
      "rection": 1673,
      "ator": 1674,
      "ony": 1675,
      "onse": 1676,
      "Ġcoc": 1677,
      "Ġcult": 1678,
      "Ġcrit": 1679,
      "Ġput": 1680,
      "Ġpri": 1681,
      "Ġbro": 1682,
      "Ġbuild": 1683,
      "ality": 1684,
      "oun": 1685,
      "oup": 1686,
      "Ġdri": 1687,
      "rop": 1688,
      "Ġthin": 1689,
      "Ġel": 1690,
      "Ġey": 1691,
      "Ġreaction": 1692,
      "Ġlook": 1693,
      "Ġonline": 1694,
      "ĠAnd": 1695,
      "ĠAnt": 1696,
      "ĠArizon": 1697,
      "ĠSur": 1698,
      "ĠSud": 1699,
      "ĠCon": 1700,
      "Ġstart": 1701,
      "ĠMuse": 1702,
      "Ġconn": 1703,
      "Ġarea": 1704,
      "ained": 1705,
      "Ġcomb": 1706,
      "Ġ16": 1707,
      "ĠWh": 1708,
      "ĠEgy": 1709,
      "allery": 1710,
      "ived": 1711,
      "ĠDo": 1712,
      "Ġkind": 1713,
      "ards": 1714,
      "agn": 1715,
      "Ġaccept": 1716,
      "Ġresources": 1717,
      "loid": 1718,
      "Ġbecame": 1719,
      "Ġappear": 1720,
      "Ġapplic": 1721,
      "Ġpoly": 1722,
      "ĠStud": 1723,
      "Ġtelep": 1724,
      "Ġcountry": 1725,
      "Ġdevelopment": 1726,
      "Ġindepend": 1727,
      "Ġpolit": 1728,
      "Ġrespons": 1729,
      "Ġcentury": 1730,
      "Ġsimple": 1731,
      "Ġsimilar": 1732,
      "Ġdeterm": 1733,
      "Ġincrease": 1734,
      "Ġlocal": 1735,
      "ĠCALs": 1736,
      "Ġpublic": 1737,
      "Ġproblems": 1738,
      "Ġcharacter": 1739,
      "Ġeconomic": 1740,
      "Ġvolume": 1741,
      "Ġroundabout": 1742,
      "ĠMuseum": 1743,
      "ĠEgypt": 1744,
      "'re": 1745,
      "Ex": 1746,
      "St": 1747,
      "aper": 1748,
      "bal": 1749,
      "based": 1750,
      "go": 1751,
      "gle": 1752,
      "get": 1753,
      "hood": 1754,
      "ior": 1755,
      "lies": 1756,
      "my": 1757,
      "min": 1758,
      "oint": 1759,
      "rum": 1760,
      "ton": 1761,
      "yed": 1762,
      "Ġ'": 1763,
      "Ġ0": 1764,
      "Ġent": 1765,
      "Ġve": 1766,
      "Ġest": 1767,
      "Ġaut": 1768,
      "erg": 1769,
      "atter": 1770,
      "atives": 1771,
      "Ġson": 1772,
      "Ġsati": 1773,
      "onents": 1774,
      "ences": 1775,
      "Ġways": 1776,
      "Ġcity": 1777,
      "Ġpet": 1778,
      "Ġbig": 1779,
      "Ġbest": 1780,
      "Ġbug": 1781,
      "alt": 1782,
      "Ġfunction": 1783,
      "Ġhome": 1784,
      "ental": 1785,
      "Ġrele": 1786,
      "iling": 1787,
      "omes": 1788,
      "Ġled": 1789,
      "Ġlay": 1790,
      "Ġlight": 1791,
      "Ġlast": 1792,
      "imes": 1793,
      "ĠTech": 1794,
      "utes": 1795,
      "ĠAS": 1796,
      "ĠAlex": 1797,
      "Ġunt": 1798,
      "ĠCenter": 1799,
      "amed": 1800,
      "rie": 1801,
      "ush": 1802,
      "Ġ10": 1803,
      "illion": 1804,
      "romko": 1805,
      "ĠEurope": 1806,
      "ĠRoman": 1807,
      "Ġlet": 1808,
      "Ġnear": 1809,
      "ĠGIS": 1810,
      "ĠGallery": 1811,
      "ips": 1812,
      "ĠOn": 1813,
      "Ġadv": 1814,
      "avian": 1815,
      "Ġpath": 1816,
      "Ġpatients": 1817,
      "Ġoutside": 1818,
      "Ġteam": 1819,
      "Ġrole": 1820,
      "Ġroom": 1821,
      "Ġrad": 1822,
      "Ġeffects": 1823,
      "Ġregul": 1824,
      "Ġ30": 1825,
      "Ġpolic": 1826,
      "Ġdirectly": 1827,
      "Ġdecre": 1828,
      "iodiversity": 1829,
      "Ġperformance": 1830,
      "Ġgrav": 1831,
      "Ġfeel": 1832,
      "Ġ2012": 1833,
      "Ġavail": 1834,
      "Ġquestions": 1835,
      "Ġreasons": 1836,
      "Ġpossible": 1837,
      "ĠCorrection": 1838,
      "chers": 1839,
      "Ġbelie": 1840,
      "Ġvarious": 1841,
      "Ã©e": 1842,
      "Al": 1843,
      "board": 1844,
      "cl": 1845,
      "day": 1846,
      "data": 1847,
      "fer": 1848,
      "ger": 1849,
      "ipp": 1850,
      "ki": 1851,
      "ner": 1852,
      "son": 1853,
      "und": 1854,
      "ww": 1855,
      "yloid": 1856,
      "Ġtreat": 1857,
      "atform": 1858,
      "Ġsection": 1859,
      "enous": 1860,
      "Ġcase": 1861,
      "Ġpain": 1862,
      "itute": 1863,
      "Ġfour": 1864,
      "Ġtoward": 1865,
      "Ġdra": 1866,
      "Ġdays": 1867,
      "ctane": 1868,
      "Ġthing": 1869,
      "Ġet": 1870,
      "Ġreview": 1871,
      "Ġla": 1872,
      "Ġline": 1873,
      "Ġliving": 1874,
      "Ġnu": 1875,
      "Ġnow": 1876,
      "imÃ©e": 1877,
      "ĠTo": 1878,
      "ĠTem": 1879,
      "ĠAfter": 1880,
      "ĠAimÃ©e": 1881,
      "igenous": 1882,
      "ĠCar": 1883,
      "ĠMr": 1884,
      "ĠMor": 1885,
      "ĠMary": 1886,
      "ĠMoses": 1887,
      "ries": 1888,
      "erest": 1889,
      "resp": 1890,
      "Ġheav": 1891,
      "ĠThese": 1892,
      "Ġ14": 1893,
      "Ġ15": 1894,
      "Ġ17": 1895,
      "ability": 1896,
      "Ġcho": 1897,
      "Ġleast": 1898,
      "Ġsever": 1899,
      "artment": 1900,
      "ĠLe": 1901,
      "Ġplatform": 1902,
      "Ġwhether": 1903,
      "Ġresult": 1904,
      "Ġresults": 1905,
      "Ġmanagement": 1906,
      "ĠThat": 1907,
      "Ġarg": 1908,
      "Ġ198": 1909,
      "Ġtravel": 1910,
      "Ġclimate": 1911,
      "Ġdifference": 1912,
      "iously": 1913,
      "ooks": 1914,
      "Ġrefere": 1915,
      "Ġmembers": 1916,
      "Ġprovides": 1917,
      "Ġfuel": 1918,
      "Ġaffect": 1919,
      "Ġinflu": 1920,
      "Ġcourse": 1921,
      "Ġhurricanes": 1922,
      "Ġsentence": 1923,
      "ussell": 1924,
      "Ġseparate": 1925,
      "Ġcomplete": 1926,
      "Ġmaintain": 1927,
      "ĠBritish": 1928,
      "ĠArizona": 1929,
      "Ġpolitical": 1930,
      "What": 1931,
      "aim": 1932,
      "be": 1933,
      "dom": 1934,
      "hib": 1935,
      "mosp": 1936,
      "nces": 1937,
      "pro": 1938,
      "pri": 1939,
      "plo": 1940,
      "rist": 1941,
      "val": 1942,
      "yrat": 1943,
      "ĠZ": 1944,
      "Ġes": 1945,
      "Ġvers": 1946,
      "Ġtax": 1947,
      "inally": 1948,
      "atic": 1949,
      "Ġsources": 1950,
      "Ġsym": 1951,
      "Ġschool": 1952,
      "Ġcet": 1953,
      "Ġcells": 1954,
      "Ġpast": 1955,
      "edical": 1956,
      "Ġanaly": 1957,
      "Ġfile": 1958,
      "Ġforest": 1959,
      "ici": 1960,
      "ico": 1961,
      "Ġins": 1962,
      "Ġmain": 1963,
      "aring": 1964,
      "arck": 1965,
      "Ġdr": 1966,
      "Ġever": 1967,
      "Ġlater": 1968,
      "Ġnon": 1969,
      "Ġname": 1970,
      "ĠComm": 1971,
      "Ġstrate": 1972,
      "ĠMex": 1973,
      "Ġyoung": 1974,
      "Ġconditions": 1975,
      "Ġareas": 1976,
      "ĠFrance": 1977,
      "ivil": 1978,
      "Ġsec": 1979,
      "Ġusers": 1980,
      "There": 1981,
      "ffic": 1982,
      "Ġplace": 1983,
      "Ġimage": 1984,
      "though": 1985,
      "ormal": 1986,
      "ogn": 1987,
      "Ġens": 1988,
      "Ġenough": 1989,
      "Ġmailing": 1990,
      "Ġcomplex": 1991,
      "Ġinterest": 1992,
      "elling": 1993,
      "rict": 1994,
      "Ġbecome": 1995,
      "Ġevidence": 1996,
      "Ġamyloid": 1997,
      "selves": 1998,
      "198": 1999,
      "ternal": 2000,
      "ismarck": 2001,
      "Ġartist": 2002,
      "Ġrights": 2003,
      "ĠUnited": 2004,
      "Ġspecies": 2005,
      "Ġspecific": 2006,
      "ructure": 2007,
      "Ġdetail": 2008,
      "...": 2009,
      "Ġaddress": 2010,
      "Ġrequire": 2011,
      "Ġpublished": 2012,
      "Ġfacilities": 2013,
      "Ġengine": 2014,
      "Ġresearch": 2015,
      "Ġrecorded": 2016,
      "ĠSheldrake": 2017,
      "ederal": 2018,
      "Ġrepresent": 2019,
      "ĠAfrica": 2020,
      "ĠAmerican": 2021,
      "Ġresistance": 2022,
      "Ġvacc": 2023,
      "Ġsingle": 2024,
      "ĠAntony": 2025,
      "ĠSurgery": 2026,
      "Ġuntil": 2027,
      "ĠEuropean": 2028,
      "ĠMexico": 2029,
      "30": 2030,
      "CL": 2031,
      "HO": 2032,
      "OHO": 2033,
      "bers": 2034,
      "hod": 2035,
      "iver": 2036,
      "less": 2037,
      "lied": 2038,
      "ned": 2039,
      "ring": 2040,
      "tra": 2041,
      "vation": 2042,
      "work": 2043,
      "Ġter": 2044,
      "Ġtend": 2045,
      "Ġtry": 2046,
      "heim": 2047,
      "inated": 2048,
      "reme": 2049,
      "Ġtherapy": 2050,
      "atory": 2051,
      "atures": 2052,
      "Ġside": 2053,
      "Ġsite": 2054,
      "Ġsvn": 2055,
      "ison": 2056,
      "ision": 2057,
      "Ġcamp": 2058,
      "Ġcode": 2059,
      "Ġpict": 2060,
      "oration": 2061,
      "ither": 2062,
      "Ġbas": 2063,
      "Ġbur": 2064,
      "Ġbased": 2065,
      "Ġbook": 2066,
      "ication": 2067,
      "Ġinj": 2068,
      "Ġmur": 2069,
      "Ġmice": 2070,
      "Ġmiss": 2071,
      "Ġtool": 2072,
      "arb": 2073,
      "aries": 2074,
      "Ġdign": 2075,
      "rown": 2076,
      "Ġhy": 2077,
      "Ġeco": 2078,
      "Ġrece": 2079,
      "Ġnation": 2080,
      "Ġgive": 2081,
      "uture": 2082,
      "ides": 2083,
      "ching": 2084,
      "ĠCl": 2085,
      "Ġstory": 2086,
      "Ġstrong": 2087,
      "ulation": 2088,
      "Ġprob": 2089,
      "ĠMan": 2090,
      "ndum": 2091,
      "ĠPeter": 2092,
      "ĠBismarck": 2093,
      "Ġalong": 2094,
      "Ġatmosp": 2095,
      "ortun": 2096,
      "Ġdeath": 2097,
      "ĠEconom": 2098,
      "ĠEcosystem": 2099,
      "ĠRussell": 2100,
      "Ġleaves": 2101,
      "outhern": 2102,
      "ĠDep": 2103,
      "arent": 2104,
      "Ġworking": 2105,
      "Ġwee": 2106,
      "ĠNational": 2107,
      "ĠJan": 2108,
      "ĠJap": 2109,
      "Ġcontent": 2110,
      "Ġprep": 2111,
      "apter": 2112,
      "ĠKromko": 2113,
      "Ġspace": 2114,
      "Ġthemselves": 2115,
      "Ġquality": 2116,
      "Ġservices": 2117,
      "reng": 2118,
      "Ġofficial": 2119,
      "Ġmethod": 2120,
      "Ġassoci": 2121,
      "Ġparticip": 2122,
      "ccording": 2123,
      "Ġrespect": 2124,
      "Ġresponse": 2125,
      "Ġpractices": 2126,
      "vention": 2127,
      "Ġgeneral": 2128,
      "Ġobjects": 2129,
      "Ġapproach": 2130,
      "Ġchem": 2131,
      "ribut": 2132,
      "Ġtypes": 2133,
      "Ġdefin": 2134,
      "ĠOctavian": 2135,
      "Ġquestion": 2136,
      "Ġballot": 2137,
      "ĠEnvironment": 2138,
      "ĠResear": 2139,
      "Ġcurrently": 2140,
      "Ġmultiple": 2141,
      "Ġsafe": 2142,
      "Ġanswer": 2143,
      "Ġchanges": 2144,
      "Ġsecond": 2145,
      "Ġlegislature": 2146,
      "Ġtakes": 2147,
      "Ġpipelines": 2148,
      "Ġnegative": 2149,
      "Ġtechnology": 2150,
      "Ġdecision": 2151,
      "ĠInstitute": 2152,
      "Ġreturn": 2153,
      "ĠEmpire": 2154,
      "Ġindependence": 2155,
      "Ġgravity": 2156,
      "Ġavailable": 2157,
      "Ġnucle": 2158,
      "ĠTemple": 2159,
      "respond": 2160,
      "Ġseveral": 2161,
      "Ġcetane": 2162,
      "12": 2163,
      "20": 2164,
      "How": 2165,
      "PS": 2166,
      "az": 2167,
      "ched": 2168,
      "gress": 2169,
      "hold": 2170,
      "ler": 2171,
      "lers": 2172,
      "most": 2173,
      "made": 2174,
      "of": 2175,
      "ps": 2176,
      "por": 2177,
      "tt": 2178,
      "ĠX": 2179,
      "Ġur": 2180,
      "Ġill": 2181,
      "Ġaware": 2182,
      "inct": 2183,
      "rel": 2184,
      "erous": 2185,
      "Ġsqu": 2186,
      "Ġcut": 2187,
      "Ġclo": 2188,
      "Ġpaper": 2189,
      "ances": 2190,
      "ites": 2191,
      "Ġborn": 2192,
      "Ġbene": 2193,
      "aling": 2194,
      "Ġfar": 2195,
      "Ġfish": 2196,
      "Ġinvol": 2197,
      "lection": 2198,
      "room": 2199,
      "Ġhig": 2200,
      "Ġhour": 2201,
      "Ġhold": 2202,
      "ason": 2203,
      "ashing": 2204,
      "Ġreact": 2205,
      "omen": 2206,
      "omiting": 2207,
      "Ġnorth": 2208,
      "Ġbegan": 2209,
      "imm": 2210,
      "iment": 2211,
      "Ġgyrat": 2212,
      "ĠTri": 2213,
      "oln": 2214,
      "ĠSome": 2215,
      "Ġaspect": 2216,
      "Ġstreng": 2217,
      "amm": 2218,
      "ĠMar": 2219,
      "Ġwhy": 2220,
      "empt": 2221,
      "ember": 2222,
      "ried": 2223,
      "ĠPres": 2224,
      "ateg": 2225,
      "ively": 2226,
      "orthern": 2227,
      "Ġsug": 2228,
      "Ġ100": 2229,
      "illing": 2230,
      "ĠWest": 2231,
      "Ġvi": 2232,
      "aches": 2233,
      "ivity": 2234,
      "ĠDr": 2235,
      "Ġuses": 2236,
      "ĠLinc": 2237,
      "ights": 2238,
      "unch": 2239,
      "pecial": 2240,
      "ĠOff": 2241,
      "ustr": 2242,
      "Ġmakes": 2243,
      "Ġaddition": 2244,
      "Ġadults": 2245,
      "Ġothers": 2246,
      "ibility": 2247,
      "Ġimpact": 2248,
      "Ġtherefore": 2249,
      "Ġpost": 2250,
      "Ġupd": 2251,
      "Ġstudies": 2252,
      "Ġattach": 2253,
      "Ġrecogn": 2254,
      "ugg": 2255,
      "Ġregist": 2256,
      "ternational": 2257,
      "Ġinstall": 2258,
      "ĠRead": 2259,
      "Ġcreated": 2260,
      "Ġtrials": 2261,
      "encies": 2262,
      "Ġreading": 2263,
      "Ġsolar": 2264,
      "Ġtransport": 2265,
      "anese": 2266,
      "Ġmeasures": 2267,
      "ociety": 2268,
      "Ġphot": 2269,
      "Ġreason": 2270,
      "Ġresear": 2271,
      "Ġhurricane": 2272,
      "Ġcomputers": 2273,
      "Ġconsider": 2274,
      "Ġpassed": 2275,
      "Ġcauses": 2276,
      "Ġimmedi": 2277,
      "Ġbrain": 2278,
      "Ġbursa": 2279,
      "ruggle": 2280,
      "Ġoriginal": 2281,
      "Ġdisease": 2282,
      "Ġprimary": 2283,
      "Ġcoca": 2284,
      "Ġpetition": 2285,
      "Ġreleased": 2286,
      "Ġradi": 2287,
      "Ġclose": 2288,
      "Ġbenef": 2289,
      "ĠLincoln": 2290,
      "As": 2291,
      "HE": 2292,
      "II": 2293,
      "Soup": 2294,
      "You": 2295,
      "cer": 2296,
      "ges": 2297,
      "ium": 2298,
      "lor": 2299,
      "like": 2300,
      "met": 2301,
      "not": 2302,
      "oot": 2303,
      "tal": 2304,
      "uary": 2305,
      "yr": 2306,
      "zheim": 2307,
      "ĠQ": 2308,
      "Ġtit": 2309,
      "Ġtal": 2310,
      "Ġtru": 2311,
      "Ġaway": 2312,
      "iner": 2313,
      "iness": 2314,
      "inary": 2315,
      "ream": 2316,
      "Ġopen": 2317,
      "erly": 2318,
      "athy": 2319,
      "Ġsens": 2320,
      "Ġwomen": 2321,
      "Ġcivil": 2322,
      "Ġptosis": 2323,
      "anad": 2324,
      "itiz": 2325,
      "eds": 2326,
      "edia": 2327,
      "Ġanim": 2328,
      "Ġfri": 2329,
      "Ġfron": 2330,
      "Ġfuture": 2331,
      "icles": 2332,
      "Ġmor": 2333,
      "Ġmillion": 2334,
      "Ġtown": 2335,
      "let": 2336,
      "Ġhar": 2337,
      "Ġhouse": 2338,
      "Ġthus": 2339,
      "Ġeld": 2340,
      "ilt": 2341,
      "Ġnature": 2342,
      "Ġgu": 2343,
      "Ġgen": 2344,
      "âĢĺ": 2345,
      "ids": 2346,
      "ĠAss": 2347,
      "ĠApr": 2348,
      "ĠSystem": 2349,
      "Ġconvers": 2350,
      "istory": 2351,
      "ĠPer": 2352,
      "ops": 2353,
      "ĠBooth": 2354,
      "Ġitself": 2355,
      "ĠHurric": 2356,
      "Ġsure": 2357,
      "Ġdeg": 2358,
      "Ġ13": 2359,
      "Ġrig": 2360,
      "Ġchart": 2361,
      "ĠWhy": 2362,
      "Ġvir": 2363,
      "ĠRep": 2364,
      "Ġnext": 2365,
      "aces": 2366,
      "acher": 2367,
      "ached": 2368,
      "ĠDis": 2369,
      "Ġshut": 2370,
      "Ġshare": 2371,
      "ĠLang": 2372,
      "ardio": 2373,
      "Ġacross": 2374,
      "ously": 2375,
      "Ġsoon": 2376,
      "ĠUser": 2377,
      "ĠJane": 2378,
      "ĠJames": 2379,
      "Ġperm": 2380,
      "Ġintrodu": 2381,
      "Ġadop": 2382,
      "augh": 2383,
      "Ġallows": 2384,
      "ression": 2385,
      "Ġwhole": 2386,
      "lectron": 2387,
      "Ġpoet": 2388,
      "Ġtraining": 2389,
      "Ġclient": 2390,
      "Ġquick": 2391,
      "Ġupon": 2392,
      "Ġemerg": 2393,
      "Ġemplo": 2394,
      "Ġattempt": 2395,
      "ublic": 2396,
      "Ġrelig": 2397,
      "ĠAll": 2398,
      "ĠAlso": 2399,
      "Ġdeveloper": 2400,
      "Ġregion": 2401,
      "Ġindivid": 2402,
      "Ġmode": 2403,
      "Ġlikely": 2404,
      "Ġmetals": 2405,
      "Ġhimself": 2406,
      "Ġperformed": 2407,
      "Ġfrequent": 2408,
      "Ġgetting": 2409,
      "Ġgenerally": 2410,
      "Ġlonger": 2411,
      "Ġinitiatives": 2412,
      "Ġoperations": 2413,
      "Ġoccurs": 2414,
      "Ġcommunities": 2415,
      "Ġrequired": 2416,
      "Ġexperience": 2417,
      "Ġcorrespond": 2418,
      "Ġavoid": 2419,
      "Ġfund": 2420,
      "position": 2421,
      "volution": 2422,
      "Ġthought": 2423,
      "Ġ60": 2424,
      "Ġlimited": 2425,
      "Ġcomputer": 2426,
      "Ġgrowing": 2427,
      "Ġstorms": 2428,
      "Ġconsidered": 2429,
      "Ġrelationships": 2430,
      "Ġsounds": 2431,
      "Ġrules": 2432,
      "Ġdiagn": 2433,
      "Ġconcern": 2434,
      "Ġpollut": 2435,
      "Ġidentify": 2436,
      "Ġhappen": 2437,
      "Ġscientists": 2438,
      "ĠSudan": 2439,
      "Ġpolymer": 2440,
      "Ġveh": 2441,
      "ĠTechSoup": 2442,
      "Ġstrateg": 2443,
      "Ġdignities": 2444,
      "pecially": 2445,
      "zheimer": 2446,
      "Ġemploy": 2447,
      "40": 2448,
      "50": 2449,
      "Ch": 2450,
      "To": 2451,
      "app": 2452,
      "cause": 2453,
      "cological": 2454,
      "eb": 2455,
      "ees": 2456,
      "fect": 2457,
      "lim": 2458,
      "lish": 2459,
      "mb": 2460,
      "mber": 2461,
      "ov": 2462,
      "ox": 2463,
      "rig": 2464,
      "system": 2465,
      "unt": 2466,
      "van": 2467,
      "wing": 2468,
      "water": 2469,
      "wise": 2470,
      "iny": 2471,
      "Ġoptions": 2472,
      "Ġoctane": 2473,
      "Ġsouth": 2474,
      "isation": 2475,
      "Ġwid": 2476,
      "Ġcat": 2477,
      "Ġpot": 2478,
      "Ġbus": 2479,
      "Ġflo": 2480,
      "Ġfoss": 2481,
      "Ġfederal": 2482,
      "Ġmar": 2483,
      "Ġmot": 2484,
      "Ġmess": 2485,
      "Ġmass": 2486,
      "Ġdone": 2487,
      "Ġdivid": 2488,
      "asing": 2489,
      "Ġeither": 2490,
      "Ġreve": 2491,
      "Ġreally": 2492,
      "Ġreco": 2493,
      "oms": 2494,
      "Ġlar": 2495,
      "Ġlot": 2496,
      "Ġlab": 2497,
      "Ġlaw": 2498,
      "Ġliter": 2499,
      "Ġnamed": 2500,
      "Ġnorthern": 2501,
      "Ġbelow": 2502,
      "oted": 2503,
      "ĠAt": 2504,
      "ĠAre": 2505,
      "ĠAust": 2506,
      "Ġforces": 2507,
      "ĠSOHO": 2508,
      "Ġupper": 2509,
      "etary": 2510,
      "ĠCO": 2511,
      "ĠCount": 2512,
      "ĠCont": 2513,
      "Ġyet": 2514,
      "iring": 2515,
      "Ġstars": 2516,
      "ĠMod": 2517,
      "els": 2518,
      "Ġconcept": 2519,
      "ĠPe": 2520,
      "Ġheel": 2521,
      "uments": 2522,
      "Ġsun": 2523,
      "Ġsuff": 2524,
      "ĠFirst": 2525,
      "Ġcharge": 2526,
      "ĠWill": 2527,
      "ĠWashing": 2528,
      "Ġvomiting": 2529,
      "acks": 2530,
      "ĠGe": 2531,
      "arth": 2532,
      "Ġshows": 2533,
      "ĠLic": 2534,
      "Ġweb": 2535,
      "Ġability": 2536,
      "ĠUK": 2537,
      "Ġproduced": 2538,
      "Ġwhose": 2539,
      "lected": 2540,
      "lobal": 2541,
      "ĠKing": 2542,
      "Ġpatches": 2543,
      "Ġclaim": 2544,
      "rought": 2545,
      "Ġteach": 2546,
      "Ġamend": 2547,
      "Ġ2006": 2548,
      "Ġexpressed": 2549,
      "192": 2550,
      "licated": 2551,
      "Ġactive": 2552,
      "Ġroad": 2553,
      "Ġneeded": 2554,
      "Ġrecomm": 2555,
      "ĠAlzheimer": 2556,
      "Ġrefer": 2557,
      "Ġrafter": 2558,
      "ternet": 2559,
      "Ġinstead": 2560,
      "Ġmodern": 2561,
      "ĠChrist": 2562,
      "Ġassass": 2563,
      "Ġdecl": 2564,
      "Ġcolor": 2565,
      "Ġcenter": 2566,
      "Ġready": 2567,
      "Ġfindings": 2568,
      "Ġfreigh": 2569,
      "Ġacquainted": 2570,
      "Ġoperating": 2571,
      "Ġcheck": 2572,
      "Ġextreme": 2573,
      "Ġgroups": 2574,
      "Ġshell": 2575,
      "Ġhands": 2576,
      "Ġparticularly": 2577,
      "Ġleading": 2578,
      "Ġenvironmental": 2579,
      "Ġreported": 2580,
      "Ġminutes": 2581,
      "Ġmuscle": 2582,
      "ĠResources": 2583,
      "Ġclear": 2584,
      "Ġolder": 2585,
      "Ġbursitis": 2586,
      "Ġissues": 2587,
      "Ġbehav": 2588,
      "Ġlevels": 2589,
      "Ġseems": 2590,
      "Ġskills": 2591,
      "Ġfiles": 2592,
      "Ġmonths": 2593,
      "Ġbrother": 2594,
      "Ġdrive": 2595,
      "minist": 2596,
      "Ġlayer": 2597,
      "Ġetc": 2598,
      "ĠCarol": 2599,
      "ĠMaryland": 2600,
      "Ġcompletely": 2601,
      "Ġespecially": 2602,
      "Ġvaccine": 2603,
      "Ġburning": 2604,
      "ĠDepartment": 2605,
      "ĠJanuary": 2606,
      "Ġassociated": 2607,
      "ĠResearch": 2608,
      "ĠTripp": 2609,
      "Ġstrength": 2610,
      "ĠPresident": 2611,
      "Ġupdated": 2612,
      "Ġelderly": 2613,
      "Ġstrategies": 2614,
      "Ġfossil": 2615,
      "ĠWashington": 2616,
      "'ll": 2617,
      "11": 2618,
      "Ds": 2619,
      "For": 2620,
      "When": 2621,
      "af": 2622,
      "ai": 2623,
      "aign": 2624,
      "bol": 2625,
      "cil": 2626,
      "ey": 2627,
      "fere": 2628,
      "gment": 2629,
      "ira": 2630,
      "iet": 2631,
      "ming": 2632,
      "new": 2633,
      "pret": 2634,
      "su": 2635,
      "ship": 2636,
      "tle": 2637,
      "vf": 2638,
      "Ġ/": 2639,
      "Ġer": 2640,
      "Ġign": 2641,
      "Ġvel": 2642,
      "Ġenter": 2643,
      "inity": 2644,
      "rect": 2645,
      "Ġtheory": 2646,
      "Ġsy": 2647,
      "Ġsix": 2648,
      "Ġsize": 2649,
      "onst": 2650,
      "Ġcases": 2651,
      "estern": 2652,
      "itual": 2653,
      "eded": 2654,
      "ales": 2655,
      "Ġfix": 2656,
      "Ġmat": 2657,
      "Ġmind": 2658,
      "Ġmouth": 2659,
      "ara": 2660,
      "Ġdoc": 2661,
      "Ġhalf": 2662,
      "aster": 2663,
      "ention": 2664,
      "Ġrepe": 2665,
      "vered": 2666,
      "omb": 2667,
      "omp": 2668,
      "Ġlive": 2669,
      "Ġlower": 2670,
      "Ġnut": 2671,
      "lying": 2672,
      "imum": 2673,
      "Ġge": 2674,
      "âĢ¦": 2675,
      "rab": 2676,
      "ray": 2677,
      "olation": 2678,
      "oliv": 2679,
      "oline": 2680,
      "Ġund": 2681,
      "ĠCanad": 2682,
      "Ġstates": 2683,
      "Ġorb": 2684,
      "amer": 2685,
      "ample": 2686,
      "heric": 2687,
      "istor": 2688,
      "istic": 2689,
      "istry": 2690,
      "ĠPan": 2691,
      "ĠPar": 2692,
      "ĠPlease": 2693,
      "aine": 2694,
      "ope": 2695,
      "ĠBy": 2696,
      "ĠBiodiversity": 2697,
      "Ġalread": 2698,
      "Ġalmost": 2699,
      "Ġexternal": 2700,
      "Ġhear": 2701,
      "Ġheld": 2702,
      "umb": 2703,
      "Ġsust": 2704,
      "illed": 2705,
      "Ġrate": 2706,
      "Ġvari": 2707,
      "duct": 2708,
      "ĠGo": 2709,
      "ĠGre": 2710,
      "ocrat": 2711,
      "These": 2712,
      "ĠâĢ¦": 2713,
      "Ġimag": 2714,
      "Ġimages": 2715,
      "aging": 2716,
      "ĠNorth": 2717,
      "irection": 2718,
      "Ġcomplicated": 2719,
      "izes": 2720,
      "cession": 2721,
      "Ġprec": 2722,
      "Ġprevent": 2723,
      "Ġproduce": 2724,
      "eps": 2725,
      "ruction": 2726,
      "Ġdoing": 2727,
      "Ġarm": 2728,
      "Ġdisc": 2729,
      "Ġ196": 2730,
      "Ġpoem": 2731,
      "Ġtraffic": 2732,
      "ĠStates": 2733,
      "Ġteacher": 2734,
      "ought": 2735,
      "199": 2736,
      "Ġdifferences": 2737,
      "Ġneeds": 2738,
      "Ġconsum": 2739,
      "Ġconsists": 2740,
      "Ġoffer": 2741,
      "ossible": 2742,
      "ugs": 2743,
      "Ġnumbers": 2744,
      "ĠYour": 2745,
      "Ġinstruct": 2746,
      "Ġinstrum": 2747,
      "Ġforms": 2748,
      "ondon": 2749,
      "gana": 2750,
      "Ġcentral": 2751,
      "Ġsupported": 2752,
      "Ġsolvent": 2753,
      "ĠArts": 2754,
      "Ġremo": 2755,
      "Ġprint": 2756,
      "Ġprinc": 2757,
      "rolog": 2758,
      "Ġtests": 2759,
      "Ġeverything": 2760,
      "ĠWeb": 2761,
      "Ġaccount": 2762,
      "Ġsometimes": 2763,
      "Ġexperi": 2764,
      "Ġgasoline": 2765,
      "Ġmovement": 2766,
      "Ġrelationship": 2767,
      "Ġdescribed": 2768,
      "Ġideas": 2769,
      "Ġdesigned": 2770,
      "Ġsitu": 2771,
      "Ġeasily": 2772,
      "ASA": 2773,
      "Ġclassroom": 2774,
      "Ġbottom": 2775,
      "Ġdestro": 2776,
      "Ġrisk": 2777,
      "Ġimprove": 2778,
      "Ġbird": 2779,
      "Ġbegin": 2780,
      "Ġexisting": 2781,
      "Ġpriv": 2782,
      "Ġapplication": 2783,
      "Ġtelepath": 2784,
      "Ġfeeling": 2785,
      "ĠMorgana": 2786,
      "Ġplatforms": 2787,
      "Ġreferendum": 2788,
      "Ġcampaign": 2789,
      "Ġweek": 2790,
      "Ġhours": 2791,
      "Ġsuggest": 2792,
      "ĠOffshore": 2793,
      "ugglers": 2794,
      "Ġtitle": 2795,
      "ĠApril": 2796,
      "aughter": 2797,
      "Ġemergency": 2798,
      "Ġpollutants": 2799,
      "Ġfloor": 2800,
      "Ġdivided": 2801,
      "ĠCarolina": 2802,
      "Ġveloc": 2803,
      "Ġalready": 2804,
      "14": 2805,
      "200": 2806,
      "52": 2807,
      "AN": 2808,
      "Be": 2809,
      "But": 2810,
      "EB": 2811,
      "EEB": 2812,
      "Now": 2813,
      "ait": 2814,
      "awn": 2815,
      "cy": 2816,
      "che": 2817,
      "free": 2818,
      "fits": 2819,
      "iam": 2820,
      "ius": 2821,
      "lam": 2822,
      "nel": 2823,
      "ober": 2824,
      "pers": 2825,
      "tered": 2826,
      "tty": 2827,
      "vest": 2828,
      "where": 2829,
      "||": 2830,
      "Ġion": 2831,
      "Ġtas": 2832,
      "Ġtell": 2833,
      "rehen": 2834,
      "reement": 2835,
      "Ġsle": 2836,
      "Ġslow": 2837,
      "Ġsouthern": 2838,
      "onial": 2839,
      "ened": 2840,
      "Ġwall": 2841,
      "Ġwide": 2842,
      "Ġwife": 2843,
      "Ġcal": 2844,
      "Ġcame": 2845,
      "Ġcardio": 2846,
      "Ġpay": 2847,
      "Ġpaint": 2848,
      "Ġpie": 2849,
      "Ġanc": 2850,
      "Ġant": 2851,
      "Ġbre": 2852,
      "Ġbar": 2853,
      "Ġfin": 2854,
      "Ġfig": 2855,
      "Ġfield": 2856,
      "Ġfull": 2857,
      "Ġfoot": 2858,
      "icated": 2859,
      "Ġmis": 2860,
      "Ġmut": 2861,
      "arrow": 2862,
      "arily": 2863,
      "Ġdro": 2864,
      "Ġdies": 2865,
      "Ġdram": 2866,
      "Ġdirection": 2867,
      "lecular": 2868,
      "Ġhor": 2869,
      "Ġhit": 2870,
      "Ġhomes": 2871,
      "Ġecosystem": 2872,
      "Ġred": 2873,
      "vere": 2874,
      "Ġlog": 2875,
      "Ġnormal": 2876,
      "Ġgold": 2877,
      "âĢ¢": 2878,
      "ĠTe": 2879,
      "rad": 2880,
      "Ġonce": 2881,
      "ider": 2882,
      "ĠAc": 2883,
      "ĠAg": 2884,
      "ĠAPI": 2885,
      "oll": 2886,
      "chie": 2887,
      "ĠSchool": 2888,
      "ĠSociety": 2889,
      "Ġprote": 2890,
      "Ġprogress": 2891,
      "ĠMin": 2892,
      "ĠMill": 2893,
      "ĠMost": 2894,
      "ĠMarch": 2895,
      "ellect": 2896,
      "ĠPark": 2897,
      "aining": 2898,
      "ĠBugs": 2899,
      "ĠTheir": 2900,
      "ĠTherapy": 2901,
      "ump": 2902,
      "ument": 2903,
      "ĠHim": 2904,
      "essential": 2905,
      "used": 2906,
      "Ġcome": 2907,
      "Ġcomets": 2908,
      "ĠFl": 2909,
      "Ġdev": 2910,
      "Ġdevice": 2911,
      "abb": 2912,
      "ander": 2913,
      "ĠWith": 2914,
      "Ġvot": 2915,
      "Ġnecess": 2916,
      "ĠGerm": 2917,
      "Ġseen": 2918,
      "ĠDes": 2919,
      "Ġnothing": 2920,
      "Ġ23": 2921,
      "Ġcannot": 2922,
      "Ġplant": 2923,
      "Ġplans": 2924,
      "ending": 2925,
      "ipment": 2926,
      "Ġacid": 2927,
      "ĠNASA": 2928,
      "ĠIniti": 2929,
      "Ġabove": 2930,
      "Ġcomponents": 2931,
      "Ġadditional": 2932,
      "Ġcontract": 2933,
      "Ġpretty": 2934,
      "Ġdoct": 2935,
      "aps": 2936,
      "Ġarch": 2937,
      "avid": 2938,
      "Ġpeace": 2939,
      "Ġpatient": 2940,
      "Ġmeet": 2941,
      "Ġ192": 2942,
      "Ġparts": 2943,
      "Ġjo": 2944,
      "berg": 2945,
      "Ġspir": 2946,
      "Ġservers": 2947,
      "Ġanything": 2948,
      "Ġ2004": 2949,
      "Ġspeed": 2950,
      "Ġexpand": 2951,
      "Ġtwent": 2952,
      "Ġhowever": 2953,
      "Ġthroughout": 2954,
      "ification": 2955,
      "Ġconsist": 2956,
      "Ġscen": 2957,
      "fully": 2958,
      "Ġdevelopers": 2959,
      "Ġoverall": 2960,
      "itting": 2961,
      "Ġplayed": 2962,
      "ĠYork": 2963,
      "Ġformed": 2964,
      "Ġcreating": 2965,
      "Ġassess": 2966,
      "Ġlisten": 2967,
      "Ġhumans": 2968,
      "venant": 2969,
      "Ġ56": 2970,
      "Ġincreased": 2971,
      "Ġelement": 2972,
      "ribution": 2973,
      "Ġcarry": 2974,
      "Ġmonitor": 2975,
      "Ġdefe": 2976,
      "Ġaccording": 2977,
      "Ġeduc": 2978,
      "Ġwanted": 2979,
      "Ġlandsc": 2980,
      "Ġplanet": 2981,
      "Ġinflamm": 2982,
      "Ġsubjects": 2983,
      "Ġgrass": 2984,
      "ĠScience": 2985,
      "Ġmusic": 2986,
      "Ġstatist": 2987,
      "Ġwriting": 2988,
      "Ġwritten": 2989,
      "Ġobserv": 2990,
      "Ġtruth": 2991,
      "Ġpopular": 2992,
      "Ġpopulation": 2993,
      "Ġperiodic": 2994,
      "Ġmulti": 2995,
      "Ġrepresents": 2996,
      "Ġsword": 2997,
      "Ġissue": 2998,
      "Ġseconds": 2999,
      "Ġunderstanding": 3000,
      "Ġequipment": 3001,
      "Ġreduce": 3002,
      "Ġutil": 3003,
      "ĠMedicare": 3004,
      "Ġdiscovered": 3005,
      "Ġmeaning": 3006,
      "Ġculture": 3007,
      "Ġthinking": 3008,
      "Ġestab": 3009,
      "Ġpolicy": 3010,
      "Ġdecrease": 3011,
      "Ġversion": 3012,
      "Ġanalyz": 3013,
      "Ġensure": 3014,
      "CLA": 3015,
      "Ġpicture": 3016,
      "Ġprobably": 3017,
      "Ġatmospheric": 3018,
      "ĠEconomics": 3019,
      "Ġillustr": 3020,
      "Ġinvolved": 3021,
      "immolation": 3022,
      "Ġgyratory": 3023,
      "Ġresearchers": 3024,
      "Ġimmediately": 3025,
      "Ġtrue": 3026,
      "ĠHurricane": 3027,
      "Ġquickly": 3028,
      "Ġvehicles": 3029,
      "Ġemployees": 3030,
      "Ġpotential": 3031,
      "Ġmessage": 3032,
      "Ġreveal": 3033,
      "ĠModern": 3034,
      "ĠWilliam": 3035,
      "ĠCanada": 3036,
      "Ġvelocity": 3037,
      "rehens": 3038,
      "ĠInitiative": 3039,
      "22": 3040,
      "43": 3041,
      "47": 3042,
      "60": 3043,
      "Ad": 3044,
      "Bash": 3045,
      "DC": 3046,
      "Electron": 3047,
      "ID": 3048,
      "IN": 3049,
      "John": 3050,
      "Leg": 3051,
      "OT": 3052,
      "On": 3053,
      "Re": 3054,
      "Se": 3055,
      "bl": 3056,
      "bor": 3057,
      "cking": 3058,
      "gr": 3059,
      "hab": 3060,
      "iat": 3061,
      "med": 3062,
      "ok": 3063,
      "oes": 3064,
      "pid": 3065,
      "pite": 3066,
      "rical": 3067,
      "rated": 3068,
      "sy": 3069,
      "such": 3070,
      "what": 3071,
      "ximum": 3072,
      "zz": 3073,
      "×Ķ": 3074,
      "Ġ+": 3075,
      "Ġ,": 3076,
      "Ġ.": 3077,
      "Ġ|": 3078,
      "Ġtou": 3079,
      "Ġaim": 3080,
      "Ġachie": 3081,
      "atically": 3082,
      "Ġsought": 3083,
      "ising": 3084,
      "Ġwind": 3085,
      "Ġwood": 3086,
      "Ġcy": 3087,
      "Ġcamer": 3088,
      "Ġpage": 3089,
      "Ġpack": 3090,
      "Ġparent": 3091,
      "org": 3092,
      "anies": 3093,
      "itude": 3094,
      "Ġbu": 3095,
      "Ġban": 3096,
      "Ġbit": 3097,
      "Ġburn": 3098,
      "Ġboy": 3099,
      "Ġbinary": 3100,
      "Ġbrought": 3101,
      "ali": 3102,
      "alu": 3103,
      "alination": 3104,
      "oura": 3105,
      "Ġfight": 3106,
      "Ġfib": 3107,
      "Ġface": 3108,
      "Ġfather": 3109,
      "Ġmom": 3110,
      "Ġmedical": 3111,
      "Ġtoget": 3112,
      "Ġtoday": 3113,
      "lemy": 3114,
      "Ġhits": 3115,
      "Ġear": 3116,
      "Ġecological": 3117,
      "Ġlat": 3118,
      "Ġloss": 3119,
      "Ġleng": 3120,
      "see": 3121,
      "set": 3122,
      "cean": 3123,
      "imens": 3124,
      "Ġglobal": 3125,
      "ĠTra": 3126,
      "ĠTest": 3127,
      "raft": 3128,
      "utions": 3129,
      "urch": 3130,
      "ĠAug": 3131,
      "Ġforce": 3132,
      "ĠInt": 3133,
      "verse": 3134,
      "verage": 3135,
      "ett": 3136,
      "ĠCent": 3137,
      "ĠComp": 3138,
      "ircus": 3139,
      "Ġstar": 3140,
      "Ġstructure": 3141,
      "ift": 3142,
      "ĠMo": 3143,
      "ĠMon": 3144,
      "ĠMay": 3145,
      "elid": 3146,
      "Ġwhom": 3147,
      "emar": 3148,
      "ĠPto": 3149,
      "Ġmoved": 3150,
      "oples": 3151,
      "ĠBl": 3152,
      "Ġexact": 3153,
      "Ġexhib": 3154,
      "ĠHay": 3155,
      "ership": 3156,
      "essions": 3157,
      "Ġcomes": 3158,
      "Ġdevices": 3159,
      "ables": 3160,
      "Ġchance": 3161,
      "ĠWor": 3162,
      "ĠWar": 3163,
      "ĠWars": 3164,
      "ighbor": 3165,
      "ĠEach": 3166,
      "ĠRome": 3167,
      "Ġleave": 3168,
      "Ġneighbor": 3169,
      "acy": 3170,
      "acity": 3171,
      "ĠGal": 3172,
      "ĠGPS": 3173,
      "pty": 3174,
      "ivision": 3175,
      "ĠDet": 3176,
      "Ġnote": 3177,
      "Ġuser": 3178,
      "Ġshot": 3179,
      "Ġship": 3180,
      "Ġshown": 3181,
      "ĠLondon": 3182,
      "Ġkids": 3183,
      "ineering": 3184,
      "une": 3185,
      "pec": 3186,
      "ĠNo": 3187,
      "ĠOver": 3188,
      "ĠOther": 3189,
      "ĠInc": 3190,
      "ĠUCLA": 3191,
      "Ġmaximum": 3192,
      "Ġresource": 3193,
      "Ġcompanies": 3194,
      "Ġadult": 3195,
      "nowledge": 3196,
      "izing": 3197,
      "Ġprefer": 3198,
      "Ġmanaged": 3199,
      "Ġimpossible": 3200,
      "Ġpeoples": 3201,
      "Ġbecomes": 3202,
      "Ġapplied": 3203,
      "Ġunivers": 3204,
      "order": 3205,
      "hyl": 3206,
      "Ġspent": 3207,
      "ĠStar": 3208,
      "ĠStance": 3209,
      "Ġeffici": 3210,
      "oseki": 3211,
      "Ġquite": 3212,
      "Ġqualif": 3213,
      "Ġagencies": 3214,
      "Ġservice": 3215,
      "Ġobtain": 3216,
      "Ġ2003": 3217,
      "Ġ2007": 3218,
      "Ġstudent": 3219,
      "Ġspeak": 3220,
      "Ġexpect": 3221,
      "aily": 3222,
      "Ġactually": 3223,
      "Ġattract": 3224,
      "Ġattention": 3225,
      "velopment": 3226,
      "Ġsupplies": 3227,
      "Ġelectric": 3228,
      "Ġrelated": 3229,
      "Ġrecent": 3230,
      "Ġscience": 3231,
      "Ġoffshore": 3232,
      "Ġ40": 3233,
      "Ġuseful": 3234,
      "ditionally": 3235,
      "eneral": 3236,
      "Ġincludes": 3237,
      "Ġindigenous": 3238,
      "Ġmodel": 3239,
      "Ġimportance": 3240,
      "Ġcollect": 3241,
      "Ġtrial": 3242,
      "Ġspecial": 3243,
      "ructures": 3244,
      "Ġsmugglers": 3245,
      "Ġdistance": 3246,
      "Ġfreew": 3247,
      "Ġcovenant": 3248,
      "ceptions": 3249,
      "Ġadded": 3250,
      "ociation": 3251,
      "ĠProgram": 3252,
      "Ġcommunity": 3253,
      "Ġcommunication": 3254,
      "Ġpowerful": 3255,
      "Ġexperiment": 3256,
      "Ġproviding": 3257,
      "Ġfacilit": 3258,
      "amples": 3259,
      "Ġorganisation": 3260,
      "ĠBecause": 3261,
      "Ġcapacity": 3262,
      "Ġgrowth": 3263,
      "Ġstatement": 3264,
      "ĠSoftware": 3265,
      "Ġrunning": 3266,
      "Ġcaused": 3267,
      "Ġpreval": 3268,
      "Ġprevious": 3269,
      "Ġdescribe": 3270,
      "Ġidea": 3271,
      "Ġbrains": 3272,
      "Ġturned": 3273,
      "Ġsites": 3274,
      "ĠAfrican": 3275,
      "Ġasked": 3276,
      "Ġpredicate": 3277,
      "Ġcontinued": 3278,
      "Ġdiscussion": 3279,
      "Ġdomains": 3280,
      "ĠCoit": 3281,
      "Ġpromote": 3282,
      "uidance": 3283,
      "Ġdiscover": 3284,
      "Ġefforts": 3285,
      "Ġcritical": 3286,
      "ĠWhile": 3287,
      "ĠStudents": 3288,
      "Ġtelepathy": 3289,
      "Ġresponsible": 3290,
      "ĠEgyptian": 3291,
      "Ġpolicies": 3292,
      "Ġbelief": 3293,
      "Ġinfluence": 3294,
      "profits": 3295,
      "Ġsymbol": 3296,
      "Ġdetailed": 3297,
      "arbara": 3298,
      "ĠManagement": 3299,
      "ortunately": 3300,
      "ĠEcosystems": 3301,
      "Ġofficials": 3302,
      "Ġchemical": 3303,
      "Ġnucleus": 3304,
      "Ġaspects": 3305,
      "Ġfriends": 3306,
      "ĠAssociation": 3307,
      "Ġpermission": 3308,
      "Ġwidows": 3309,
      "Ġbusiness": 3310,
      "Ġrecovery": 3311,
      "Ġlargest": 3312,
      "Ġamendment": 3313,
      "Ġextremely": 3314,
      "Ġbehavior": 3315,
      "ocratic": 3316,
      "Ġionization": 3317,
      "Ġdiesel": 3318,
      "ellectual": 3319,
      "Ġdoctor": 3320,
      "Bashir": 3321,
      "Legged": 3322,
      "block": 3323,
      "Ġtogether": 3324,
      "Ġlength": 3325,
      "ĠPtolemy": 3326,
      "'m": 3327,
      "'ve": 3328,
      "//": 3329,
      "17": 3330,
      "18": 3331,
      "81": 3332,
      "99": 3333,
      "://": 3334,
      "At": 3335,
      "According": 3336,
      "CO": 3337,
      "De": 3338,
      "Note": 3339,
      "PA": 3340,
      "So": 3341,
      "Some": 3342,
      "aid": 3343,
      "bemar": 3344,
      "cpp": 3345,
      "diff": 3346,
      "eed": 3347,
      "haps": 3348,
      "ik": 3349,
      "iology": 3350,
      "jo": 3351,
      "lab": 3352,
      "more": 3353,
      "pre": 3354,
      "ply": 3355,
      "put": 3356,
      "rast": 3357,
      "sis": 3358,
      "uous": 3359,
      "uals": 3360,
      "wash": 3361,
      "yal": 3362,
      "year": 3363,
      "âĨ": 3364,
      "Ġ$": 3365,
      "Ġessential": 3366,
      "ĠâĨ": 3367,
      "Ġtap": 3368,
      "Ġtells": 3369,
      "Ġaud": 3370,
      "hest": 3371,
      "inter": 3372,
      "Ġopt": 3373,
      "ero": 3374,
      "ervation": 3375,
      "ats": 3376,
      "athe": 3377,
      "onation": 3378,
      "Ġwat": 3379,
      "Ġcateg": 3380,
      "Ġpric": 3381,
      "Ġpurs": 3382,
      "Ġplease": 3383,
      "orah": 3384,
      "ank": 3385,
      "Ġbunch": 3386,
      "alou": 3387,
      "oub": 3388,
      "Ġfun": 3389,
      "Ġfell": 3390,
      "Ġfast": 3391,
      "Ġflood": 3392,
      "Ġmural": 3393,
      "Ġmother": 3394,
      "Ġmark": 3395,
      "Ġmira": 3396,
      "arles": 3397,
      "Ġdang": 3398,
      "Ġdaughter": 3399,
      "Ġdoub": 3400,
      "leg": 3401,
      "Ġhon": 3402,
      "Ġhot": 3403,
      "asc": 3404,
      "iles": 3405,
      "Ġlate": 3406,
      "Ġliqu": 3407,
      "Ġisn": 3408,
      "sect": 3409,
      "semb": 3410,
      "celer": 3411,
      "cember": 3412,
      "ceeded": 3413,
      "Ġgl": 3414,
      "Ġgot": 3415,
      "Ġgain": 3416,
      "Ġgives": 3417,
      "Ġgave": 3418,
      "Ġgained": 3419,
      "ĠTower": 3420,
      "rait": 3421,
      "rael": 3422,
      "ĠAct": 3423,
      "ĠAccording": 3424,
      "Ġforg": 3425,
      "ĠSim": 3426,
      "etwork": 3427,
      "ĠCol": 3428,
      "ird": 3429,
      "Ġste": 3430,
      "Ġstop": 3431,
      "Ġstake": 3432,
      "Ġstruggle": 3433,
      "ĠMich": 3434,
      "ĠMiss": 3435,
      "ĠMont": 3436,
      "ĠMany": 3437,
      "ĠMedical": 3438,
      "eli": 3439,
      "Ġcondition": 3440,
      "Ġconvention": 3441,
      "ĠPol": 3442,
      "oping": 3443,
      "ĠBar": 3444,
      "ĠBarbara": 3445,
      "osition": 3446,
      "resh": 3447,
      "Ġheight": 3448,
      "Ġatom": 3449,
      "ĠHug": 3450,
      "erships": 3451,
      "quency": 3452,
      "Ġsuit": 3453,
      "ĠFeb": 3454,
      "ands": 3455,
      "andom": 3456,
      "Ġrandom": 3457,
      "Ġchall": 3458,
      "ĠWater": 3459,
      "Ġvide": 3460,
      "ĠEven": 3461,
      "ĠRiver": 3462,
      "udes": 3463,
      "aced": 3464,
      "ĠGu": 3465,
      "Ġseason": 3466,
      "ĠDawn": 3467,
      "Ġnotice": 3468,
      "Ġshall": 3469,
      "Ġshield": 3470,
      "ĠLee": 3471,
      "Ġworship": 3472,
      "Ġ24": 3473,
      "Ġ26": 3474,
      "Ġking": 3475,
      "Ġcancer": 3476,
      "ffin": 3477,
      "Ġplate": 3478,
      "Ġplaces": 3479,
      "ager": 3480,
      "Ġacceler": 3481,
      "ĠOak": 3482,
      "ĠOnce": 3483,
      "ĠInter": 3484,
      "ĠUN": 3485,
      "ĠUs": 3486,
      "ĠUnder": 3487,
      "ustion": 3488,
      "Ġcompar": 3489,
      "Ġcomprehens": 3490,
      "Ġinteg": 3491,
      "Ġintended": 3492,
      "Ġcontact": 3493,
      "Ġcontribut": 3494,
      "Ġotherwise": 3495,
      "achari": 3496,
      "jective": 3497,
      "Ġ190": 3498,
      "Ġ195": 3499,
      "asses": 3500,
      "Ġjud": 3501,
      "Ġjoint": 3502,
      "Ġtrack": 3503,
      "Ġspl": 3504,
      "Ġspect": 3505,
      "Ġsomeone": 3506,
      "Ġtext": 3507,
      "Ġrepet": 3508,
      "Ġcommission": 3509,
      "Ġdescript": 3510,
      "Ġdescriptions": 3511,
      "ians": 3512,
      "193": 3513,
      "197": 3514,
      "Ġactions": 3515,
      "Ġroyal": 3516,
      "rench": 3517,
      "Ġelected": 3518,
      "Ġscre": 3519,
      "ĠAlthough": 3520,
      "ĠAlbemar": 3521,
      "hesis": 3522,
      "Ġworked": 3523,
      "Ġdeveloped": 3524,
      "Ġregular": 3525,
      "isms": 3526,
      "itted": 3527,
      "Ġincluded": 3528,
      "ĠReg": 3529,
      "Ġsurgery": 3530,
      "Ġmetal": 3531,
      "Ġrespond": 3532,
      "Ġcolle": 3533,
      "Ġcolonial": 3534,
      "Ġperforming": 3535,
      "Ġfreed": 3536,
      "Ġremain": 3537,
      "Ġfeet": 3538,
      "ĠService": 3539,
      "Ġincreasing": 3540,
      "Ġapproval": 3541,
      "ext": 3542,
      "Ġextra": 3543,
      "ĠProfess": 3544,
      "Ġcontinue": 3545,
      "Ġparrots": 3546,
      "Ġdonor": 3547,
      "imately": 3548,
      "Ġfamous": 3549,
      "Ġ2011": 3550,
      "Ġfacility": 3551,
      "ĠAssemb": 3552,
      "Ġposition": 3553,
      "Ġpoints": 3554,
      "Ġaffected": 3555,
      "Ġfluid": 3556,
      "Ġdamaged": 3557,
      "Ġdoesn": 3558,
      "ĠDevice": 3559,
      "ĠDevelopment": 3560,
      "Ġkeyboard": 3561,
      "Ġlimit": 3562,
      "Ġgrand": 3563,
      "Ġgrants": 3564,
      "Ġallowed": 3565,
      "Ġsignificance": 3566,
      "Ġrealism": 3567,
      "Ġconstit": 3568,
      "Ġconstant": 3569,
      "Ġcontainer": 3570,
      "Ġcontainers": 3571,
      "Ġpreviously": 3572,
      "Ġclean": 3573,
      "Ġcareer": 3574,
      "Ġbrush": 3575,
      "Ġdemonst": 3576,
      "Ġstanding": 3577,
      "ospital": 3578,
      "Ġdepict": 3579,
      "Ġsafety": 3580,
      "Ġpurch": 3581,
      "ĠAmerica": 3582,
      "Ġprotect": 3583,
      "Ġvalence": 3584,
      "Ġflower": 3585,
      "Ġeffectively": 3586,
      "Ġmeasured": 3587,
      "Ġtaken": 3588,
      "Ġpipeline": 3589,
      "Ġmaterials": 3590,
      "ĠIslam": 3591,
      "Ġworksh": 3592,
      "Ġbottled": 3593,
      "Ġprofessor": 3594,
      "Ġprofessional": 3595,
      "ĠMedicine": 3596,
      "Ġconflic": 3597,
      "Ġdiseases": 3598,
      "ique": 3599,
      "Ġastrolog": 3600,
      "ographical": 3601,
      "ibrary": 3602,
      "Ġcritic": 3603,
      "Ġbuilding": 3604,
      "Ġelse": 3605,
      "Ġeyelid": 3606,
      "ĠConf": 3607,
      "Ġconnect": 3608,
      "Ġapplications": 3609,
      "Ġfunctioning": 3610,
      "Ġregulations": 3611,
      "Ġdecreases": 3612,
      "Ġtreatment": 3613,
      "Ġdraw": 3614,
      "Ġheavy": 3615,
      "Ġsecure": 3616,
      "riction": 3617,
      "training": 3618,
      "Ġtrying": 3619,
      "Ġhyd": 3620,
      "ĠJapan": 3621,
      "ĠJapanese": 3622,
      "Ġprepare": 3623,
      "Ġprepared": 3624,
      "ĠEnvironmental": 3625,
      "holders": 3626,
      "ttp": 3627,
      "Ġsquare": 3628,
      "Ġhigher": 3629,
      "Ġregister": 3630,
      "Ġtalk": 3631,
      "ineries": 3632,
      "Ġfront": 3633,
      "Ġconversation": 3634,
      "Ġrigs": 3635,
      "Ġcharts": 3636,
      "Ġvirt": 3637,
      "ĠLangley": 3638,
      "Ġreligion": 3639,
      "Ġindividuals": 3640,
      "Ġdiagnosed": 3641,
      "systems": 3642,
      "ĠAusten": 3643,
      "ĠCOX": 3644,
      "ĠCounty": 3645,
      "Ġconcepts": 3646,
      "ĠLicens": 3647,
      "olivia": 3648,
      "Ġprecinct": 3649,
      "Ġprincip": 3650,
      "Ġdestroyed": 3651,
      "Ġprivate": 3652,
      "Ġtelepathic": 3653,
      "Ġinflammation": 3654,
      "Ġestablished": 3655,
      "Ġanalyzed": 3656,
      "iatric": 3657,
      "Ġneighborhood": 3658,
      "Ġefficiency": 3659,
      "Ġprevalence": 3660,
      "Ġstakeholders": 3661,
      "ĠHughes": 3662,
      "ĠOakland": 3663,
      "acharias": 3664,
      "ĠAlbemarle": 3665,
      "ĠAssembly": 3666,
      "15": 3667,
      "23": 3668,
      "?\"": 3669,
      "API": 3670,
      "By": 3671,
      "EN": 3672,
      "First": 3673,
      "He": 3674,
      "IV": 3675,
      "MS": 3676,
      "Most": 3677,
      "OL": 3678,
      "ON": 3679,
      "OR": 3680,
      "One": 3681,
      "Pro": 3682,
      "Ptosis": 3683,
      "TP": 3684,
      "That": 3685,
      "Un": 3686,
      "VN": 3687,
      "Want": 3688,
      "Writ": 3689,
      "aut": 3690,
      "bur": 3691,
      "cre": 3692,
      "cut": 3693,
      "dn": 3694,
      "down": 3695,
      "dered": 3696,
      "fall": 3697,
      "gra": 3698,
      "ha": 3699,
      "ht": 3700,
      "iant": 3701,
      "ky": 3702,
      "kish": 3703,
      "li": 3704,
      "light": 3705,
      "lier": 3706,
      "mon": 3707,
      "no": 3708,
      "nam": 3709,
      "pin": 3710,
      "pan": 3711,
      "pot": 3712,
      "pir": 3713,
      "part": 3714,
      "pose": 3715,
      "ples": 3716,
      "ris": 3717,
      "rich": 3718,
      "ses": 3719,
      "sia": 3720,
      "site": 3721,
      "ties": 3722,
      "uge": 3723,
      "uum": 3724,
      "wide": 3725,
      "yond": 3726,
      "zing": 3727,
      "Ġz": 3728,
      "Ġver": 3729,
      "Ġir": 3730,
      "Ġri": 3731,
      "Ġarom": 3732,
      "Ġaction": 3733,
      "hem": 3734,
      "head": 3735,
      "hent": 3736,
      "inst": 3737,
      "inant": 3738,
      "rew": 3739,
      "erate": 3740,
      "Ġsat": 3741,
      "Ġsac": 3742,
      "Ġsalt": 3743,
      "ones": 3744,
      "onym": 3745,
      "ises": 3746,
      "ishes": 3747,
      "ena": 3748,
      "ening": 3749,
      "enced": 3750,
      "Ġwon": 3751,
      "Ġwent": 3752,
      "Ġcust": 3753,
      "Ġcell": 3754,
      "Ġcru": 3755,
      "Ġcities": 3756,
      "Ġcross": 3757,
      "Ġcards": 3758,
      "esides": 3759,
      "Ġpan": 3760,
      "Ġpron": 3761,
      "ority": 3762,
      "orous": 3763,
      "orial": 3764,
      "ana": 3765,
      "anced": 3766,
      "itz": 3767,
      "itial": 3768,
      "itors": 3769,
      "itudes": 3770,
      "edu": 3771,
      "Ġann": 3772,
      "Ġbi": 3773,
      "Ġbo": 3774,
      "Ġbad": 3775,
      "Ġboard": 3776,
      "Ġbiodiversity": 3777,
      "Ġbooks": 3778,
      "Ġfail": 3779,
      "Ġfinal": 3780,
      "icip": 3781,
      "icates": 3782,
      "Ġinside": 3783,
      "Ġinternational": 3784,
      "Ġmount": 3785,
      "Ġmone": 3786,
      "Ġmedic": 3787,
      "Ġmagn": 3788,
      "Ġmatter": 3789,
      "Ġmiles": 3790,
      "Ġtotal": 3791,
      "Ġdark": 3792,
      "Ġdaily": 3793,
      "lement": 3794,
      "left": 3795,
      "road": 3796,
      "roaking": 3797,
      "Ġhistory": 3798,
      "Ġrev": 3799,
      "Ġreaches": 3800,
      "stant": 3801,
      "stag": 3802,
      "ilos": 3803,
      "omach": 3804,
      "ompl": 3805,
      "Ġlo": 3806,
      "Ġlid": 3807,
      "Ġlost": 3808,
      "Ġlives": 3809,
      "Ġlanes": 3810,
      "Ġlived": 3811,
      "Ġnames": 3812,
      "Ġnarrow": 3813,
      "sei": 3814,
      "sequent": 3815,
      "owers": 3816,
      "ception": 3817,
      "ime": 3818,
      "Ġgir": 3819,
      "Ġgases": 3820,
      "ĠTuc": 3821,
      "ĠTimes": 3822,
      "ĠTEEB": 3823,
      "rain": 3824,
      "uration": 3825,
      "Ġones": 3826,
      "ided": 3827,
      "idge": 3828,
      "otor": 3829,
      "ĠAng": 3830,
      "oling": 3831,
      "chan": 3832,
      "change": 3833,
      "ĠIke": 3834,
      "ĠIll": 3835,
      "ĠSk": 3836,
      "ĠSince": 3837,
      "ĠSouth": 3838,
      "ĠSVN": 3839,
      "ĠCity": 3840,
      "ĠCalf": 3841,
      "ĠCircus": 3842,
      "Ġstage": 3843,
      "Ġstable": 3844,
      "Ġstret": 3845,
      "Ġstories": 3846,
      "ulates": 3847,
      "ullet": 3848,
      "ulius": 3849,
      "ĠMe": 3850,
      "ĠMus": 3851,
      "ĠMake": 3852,
      "ading": 3853,
      "ements": 3854,
      "Ġconduct": 3855,
      "istics": 3856,
      "ria": 3857,
      "ĠPS": 3858,
      "ĠPre": 3859,
      "ĠPress": 3860,
      "ĠProt": 3861,
      "term": 3862,
      "Ġmolecular": 3863,
      "ĠBay": 3864,
      "oser": 3865,
      "osite": 3866,
      "Ġexc": 3867,
      "Ġheard": 3868,
      "Ġheating": 3869,
      "ĠHigh": 3870,
      "ĠHave": 3871,
      "erson": 3872,
      "using": 3873,
      "usion": 3874,
      "ussia": 3875,
      "pped": 3876,
      "pping": 3877,
      "Ġcomet": 3878,
      "Ġsuc": 3879,
      "ĠFall": 3880,
      "ĠFair": 3881,
      "ĠFrench": 3882,
      "abul": 3883,
      "abri": 3884,
      "abilities": 3885,
      "Ġrat": 3886,
      "Ġrange": 3887,
      "ĠWork": 3888,
      "Ġvend": 3889,
      "Ġvap": 3890,
      "Ġvict": 3891,
      "esta": 3892,
      "ĠEd": 3893,
      "ĠEarth": 3894,
      "ĠRad": 3895,
      "ĠRem": 3896,
      "ĠRussia": 3897,
      "âĢĻâĢĻ": 3898,
      "ĠGr": 3899,
      "ĠGold": 3900,
      "ĠGeneral": 3901,
      "Ġsea": 3902,
      "Ġsequ": 3903,
      "Ġselected": 3904,
      "Ġsecession": 3905,
      "Ġsevere": 3906,
      "ĠDel": 3907,
      "ĠDavid": 3908,
      "Ġsharing": 3909,
      "ĠList": 3910,
      "ĠLaw": 3911,
      "ffect": 3912,
      "Ġplants": 3913,
      "ague": 3914,
      "agues": 3915,
      "ĠOper": 3916,
      "ĠInternational": 3917,
      "ĠInternet": 3918,
      "ormally": 3919,
      "ĠJulius": 3920,
      "ograp": 3921,
      "Ġmaps": 3922,
      "Ġintellectual": 3923,
      "Ġdesalination": 3924,
      "Ġmanage": 3925,
      "ears": 3926,
      "ensity": 3927,
      "apes": 3928,
      "Ġarri": 3929,
      "Ġdisru": 3930,
      "avi": 3931,
      "aving": 3932,
      "active": 3933,
      "ĠKnowledge": 3934,
      "Ġpattern": 3935,
      "ausea": 3936,
      "Ġ193": 3937,
      "Ġ197": 3938,
      "Ġapply": 3939,
      "Ġapplies": 3940,
      "ounds": 3941,
      "Ġjob": 3942,
      "Ġunit": 3943,
      "hyd": 3944,
      "cond": 3945,
      "cript": 3946,
      "ĠState": 3947,
      "Ġevent": 3948,
      "Ġrepel": 3949,
      "Ġserious": 3950,
      "Ġbeta": 3951,
      "Ġ2005": 3952,
      "Ġexpected": 3953,
      "195": 3954,
      "licit": 3955,
      "ermine": 3956,
      "ifications": 3957,
      "Ġattitudes": 3958,
      "Ġelectrical": 3959,
      "Ġnews": 3960,
      "issions": 3961,
      "Ġrefin": 3962,
      "Ġrefers": 3963,
      "Ġrain": 3964,
      "Ġexamples": 3965,
      "ief": 3966,
      "Ġ410": 3967,
      "Ġregions": 3968,
      "Ġnumerous": 3969,
      "ĠVesta": 3970,
      "Ġindirect": 3971,
      "Ġmemory": 3972,
      "Ġmodified": 3973,
      "cede": 3974,
      "Ġformer": 3975,
      "ĠRevolution": 3976,
      "Ġpara": 3977,
      "Ġhelping": 3978,
      "Ġhelpful": 3979,
      "Ġmeter": 3980,
      "ĠCharles": 3981,
      "Ġassist": 3982,
      "Ġsignatures": 3983,
      "Ġinfrast": 3984,
      "Ġpractical": 3985,
      "ursitis": 3986,
      "Ġjustices": 3987,
      "Ġlisted": 3988,
      "Ġlegit": 3989,
      "Ġseek": 3990,
      "Ġsimply": 3991,
      "Ġdistribut": 3992,
      "Ġdistinct": 3993,
      "ĠIndigenous": 3994,
      "Ġfrequency": 3995,
      "ĠHealth": 3996,
      "Ġsolution": 3997,
      "Ġinterpret": 3998,
      "Ġprocessing": 3999,
      "Ġhighly": 4000,
      "Ġrestart": 4001,
      "ĠServices": 4002,
      "Ġincreases": 4003,
      "Ġappropri": 4004,
      "Ġoperation": 4005,
      "Ġpresident": 4006,
      "objective": 4007,
      "ribute": 4008,
      "Ġcommunicate": 4009,
      "Ġcargo": 4010,
      "Ġcarried": 4011,
      "Ġtook": 4012,
      "Ġcapt": 4013,
      "Ġfamil": 4014,
      "Ġprovided": 4015,
      "Ġ2013": 4016,
      "Ġeditor": 4017,
      "Ġgreatly": 4018,
      "Ġactivity": 4019,
      "airs": 4020,
      "Ġorganiz": 4021,
      "Ġorganisms": 4022,
      "swer": 4023,
      "Ġcourt": 4024,
      "ĠScient": 4025,
      "Ġhealthy": 4026,
      "ĠâĢĺâĢĺ": 4027,
      "Ġallowing": 4028,
      "Ġprojects": 4029,
      "Ġconstruct": 4030,
      "Ġwrite": 4031,
      "Ġcontaining": 4032,
      "Ġsmaller": 4033,
      "Ġcausing": 4034,
      "Ġimmune": 4035,
      "engue": 4036,
      "Ġcareful": 4037,
      "Ġfactors": 4038,
      "Ġstandard": 4039,
      "Ġpurpose": 4040,
      "Ġfalls": 4041,
      "Ġtopic": 4042,
      "Ġvalid": 4043,
      "Ġshowed": 4044,
      "Ġlearned": 4045,
      "Ġcontinuously": 4046,
      "ASCO": 4047,
      "Ġvacuum": 4048,
      "Ġpersonal": 4049,
      "Ġopponents": 4050,
      "Ġopportun": 4051,
      "ĠIsrael": 4052,
      "Ġcosts": 4053,
      "Ġmixt": 4054,
      "Ġdomain": 4055,
      "Ġsteps": 4056,
      "pperberg": 4057,
      "ĠEngland": 4058,
      "ĠEnglish": 4059,
      "ĠEngineering": 4060,
      "Ġtrees": 4061,
      "Ġtreated": 4062,
      "Ġbats": 4063,
      "Ġbirth": 4064,
      "Ġproperties": 4065,
      "Ġsuccessful": 4066,
      "ographic": 4067,
      "Ġcopyleft": 4068,
      "Another": 4069,
      "Answer": 4070,
      "Ġcultural": 4071,
      "ĠSudanese": 4072,
      "Ġcombined": 4073,
      "Ġcombustion": 4074,
      "Ġacceptor": 4075,
      "Ġappears": 4076,
      "Ġdetermined": 4077,
      "Ġ05": 4078,
      "Ġentrance": 4079,
      "Ġestim": 4080,
      "Ġlayers": 4081,
      "ĠASL": 4082,
      "ĠASDs": 4083,
      "rief": 4084,
      "www": 4085,
      "Ġarguments": 4086,
      "Ġaffects": 4087,
      "prietary": 4088,
      "Ġtaxes": 4089,
      "Ġforests": 4090,
      "iciaries": 4091,
      "Ġdrilling": 4092,
      "ĠCommun": 4093,
      "Ġrequirements": 4094,
      "Ġinjury": 4095,
      "Ġhypot": 4096,
      "Ġdefinition": 4097,
      "Ġnuclear": 4098,
      "2012": 4099,
      "related": 4100,
      "Ġimpacts": 4101,
      "Ġinstalled": 4102,
      "Ġbeneficiaries": 4103,
      "ĠQu": 4104,
      "itizen": 4105,
      "itizens": 4106,
      "Ġanimal": 4107,
      "Ġmorning": 4108,
      "Ġdegree": 4109,
      "Ġadopt": 4110,
      "Ġpoetry": 4111,
      "Ġfrequently": 4112,
      "ĠPepperberg": 4113,
      "Ġroads": 4114,
      "Ġfreighters": 4115,
      "ministration": 4116,
      "Ġmouthwash": 4117,
      "Ġdocument": 4118,
      "Ġsustain": 4119,
      "ĠGoog": 4120,
      "Ġremoved": 4121,
      "Ġtask": 4122,
      "Ġcalcul": 4123,
      "Ġpiece": 4124,
      "Ġfigure": 4125,
      "ĠFlash": 4126,
      "Ġvoter": 4127,
      "Ġnecessary": 4128,
      "Ġcontractors": 4129,
      "Ġlandscape": 4130,
      "Ġcycle": 4131,
      "Ġmoment": 4132,
      "Ġexactly": 4133,
      "ĠDetermine": 4134,
      "Ġuniversals": 4135,
      "Ġfreeway": 4136,
      "ĠâĨĳ": 4137,
      "Ġmiracle": 4138,
      "Ġdangerous": 4139,
      "Ġchalleng": 4140,
      "Ġcomparison": 4141,
      "Ġfreedom": 4142,
      "ĠProfessor": 4143,
      "Ġworkshop": 4144,
      "htm": 4145,
      "henticated": 4146,
      "stagland": 4147,
      "ilosop": 4148,
      "Ġgirl": 4149,
      "ography": 4150,
      "Ġappropriate": 4151,
      "Ġhypothesis": 4152,
      "\",": 4153,
      "''": 4154,
      "41": 4155,
      "67": 4156,
      "73": 4157,
      "After": 4158,
      "Call": 4159,
      "DD": 4160,
      "Good": 4161,
      "Ind": 4162,
      "LA": 4163,
      "More": 4164,
      "Many": 4165,
      "Not": 4166,
      "SS": 4167,
      "She": 4168,
      "See": 4169,
      "UP": 4170,
      "With": 4171,
      "ares": 4172,
      "apt": 4173,
      "bes": 4174,
      "bit": 4175,
      "back": 4176,
      "bilt": 4177,
      "can": 4178,
      "come": 4179,
      "cology": 4180,
      "cience": 4181,
      "coura": 4182,
      "dd": 4183,
      "eff": 4184,
      "fort": 4185,
      "ford": 4186,
      "field": 4187,
      "fortunately": 4188,
      "gn": 4189,
      "gin": 4190,
      "ging": 4191,
      "gener": 4192,
      "gins": 4193,
      "hile": 4194,
      "hman": 4195,
      "hma": 4196,
      "iar": 4197,
      "iation": 4198,
      "iate": 4199,
      "iable": 4200,
      "just": 4201,
      "joy": 4202,
      "kt": 4203,
      "kins": 4204,
      "ms": 4205,
      "mar": 4206,
      "mag": 4207,
      "mak": 4208,
      "making": 4209,
      "name": 4210,
      "ois": 4211,
      "ool": 4212,
      "off": 4213,
      "pat": 4214,
      "rm": 4215,
      "rs": 4216,
      "right": 4217,
      "rative": 4218,
      "tic": 4219,
      "ued": 4220,
      "vant": 4221,
      "vious": 4222,
      "wer": 4223,
      "xic": 4224,
      "ying": 4225,
      "Ġions": 4226,
      "Ġtaking": 4227,
      "inks": 4228,
      "inople": 4229,
      "inates": 4230,
      "erve": 4231,
      "eriatric": 4232,
      "Ġsil": 4233,
      "Ġsum": 4234,
      "Ġswe": 4235,
      "Ġsulf": 4236,
      "Ġsides": 4237,
      "ench": 4238,
      "Ġwin": 4239,
      "Ġwish": 4240,
      "Ġwrot": 4241,
      "Ġwond": 4242,
      "Ġwoman": 4243,
      "Ġwrong": 4244,
      "Ġwait": 4245,
      "Ġce": 4246,
      "Ġcry": 4247,
      "Ġcreat": 4248,
      "Ġcroaking": 4249,
      "essel": 4250,
      "Ġpure": 4251,
      "Ġpages": 4252,
      "oring": 4253,
      "itan": 4254,
      "itch": 4255,
      "eding": 4256,
      "Ġbed": 4257,
      "Ġbran": 4258,
      "Ġbound": 4259,
      "Ġbites": 4260,
      "alog": 4261,
      "alian": 4262,
      "inger": 4263,
      "Ġfit": 4264,
      "Ġful": 4265,
      "Ġfem": 4266,
      "Ġfore": 4267,
      "Ġfav": 4268,
      "Ġfram": 4269,
      "Ġfever": 4270,
      "Ġfair": 4271,
      "Ġfinally": 4272,
      "Ġfaster": 4273,
      "Ġinject": 4274,
      "Ġinitial": 4275,
      "Ġmid": 4276,
      "Ġmist": 4277,
      "Ġmag": 4278,
      "Ġmission": 4279,
      "Ġmilit": 4280,
      "Ġtower": 4281,
      "ario": 4282,
      "Ġdry": 4283,
      "Ġdied": 4284,
      "Ġdivision": 4285,
      "ros": 4286,
      "roll": 4287,
      "Ġhop": 4288,
      "Ġhus": 4289,
      "Ġhistor": 4290,
      "Ġhttp": 4291,
      "Ġthrow": 4292,
      "asma": 4293,
      "Ġep": 4294,
      "Ġeast": 4295,
      "Ġreach": 4296,
      "Ġreward": 4297,
      "Ġrelease": 4298,
      "Ġreached": 4299,
      "ston": 4300,
      "stud": 4301,
      "stract": 4302,
      "ils": 4303,
      "oming": 4304,
      "Ġloo": 4305,
      "Ġlink": 4306,
      "Ġlines": 4307,
      "Ġlove": 4308,
      "Ġnative": 4309,
      "Ġnational": 4310,
      "Ġnormally": 4311,
      "iments": 4312,
      "imize": 4313,
      "ĠTorah": 4314,
      "rac": 4315,
      "raight": 4316,
      "utism": 4317,
      "Ġonshore": 4318,
      "iding": 4319,
      "iders": 4320,
      "idier": 4321,
      "ĠAb": 4322,
      "ĠAv": 4323,
      "ĠApp": 4324,
      "ĠAccess": 4325,
      "ĠArab": 4326,
      "ĠAutism": 4327,
      "olly": 4328,
      "olds": 4329,
      "olution": 4330,
      "ĠSw": 4331,
      "ĠSol": 4332,
      "ĠSch": 4333,
      "ĠSqu": 4334,
      "ĠSouthern": 4335,
      "etic": 4336,
      "ĠCal": 4337,
      "ĠCons": 4338,
      "ĠCards": 4339,
      "Ġasph": 4340,
      "irby": 4341,
      "Ġstre": 4342,
      "Ġstim": 4343,
      "Ġstri": 4344,
      "Ġstomach": 4345,
      "ifically": 4346,
      "Ġprop": 4347,
      "Ġproposition": 4348,
      "Ġprostagland": 4349,
      "Ġorth": 4350,
      "amine": 4351,
      "amaged": 4352,
      "ĠMer": 4353,
      "ĠMet": 4354,
      "ĠMult": 4355,
      "ĠMark": 4356,
      "ĠMaterial": 4357,
      "ĠMussel": 4358,
      "ĠMali": 4359,
      "ades": 4360,
      "emy": 4361,
      "Ġconve": 4362,
      "rial": 4363,
      "nds": 4364,
      "ĠPaint": 4365,
      "ĠPhysical": 4366,
      "ĠPier": 4367,
      "ĠPublic": 4368,
      "Ġmob": 4369,
      "Ġmoving": 4370,
      "erey": 4371,
      "erely": 4372,
      "ĠBer": 4373,
      "ĠBall": 4374,
      "ĠBath": 4375,
      "ĠBowers": 4376,
      "ĠBullet": 4377,
      "Ġalone": 4378,
      "osen": 4379,
      "osing": 4380,
      "oscience": 4381,
      "Ġexceptions": 4382,
      "Ġheat": 4383,
      "umn": 4384,
      "umber": 4385,
      "umph": 4386,
      "ĠHer": 4387,
      "ĠHar": 4388,
      "ĠHind": 4389,
      "que": 4390,
      "Ġcoming": 4391,
      "Ġcomment": 4392,
      "ĠFre": 4393,
      "ĠFac": 4394,
      "ĠFree": 4395,
      "ĠForest": 4396,
      "Ġdeep": 4397,
      "Ġdepos": 4398,
      "andria": 4399,
      "Ġran": 4400,
      "Ġrang": 4401,
      "Ġrational": 4402,
      "Ġritual": 4403,
      "Ġchapter": 4404,
      "Ġchosen": 4405,
      "ĠWestern": 4406,
      "Ġvill": 4407,
      "Ġvast": 4408,
      "Ġvessel": 4409,
      "ests": 4410,
      "ĠEl": 4411,
      "ĠEco": 4412,
      "ĠEffect": 4413,
      "ĠRam": 4414,
      "allic": 4415,
      "âĢĻ|": 4416,
      "Ġlev": 4417,
      "udd": 4418,
      "ĠGust": 4419,
      "ĠGree": 4420,
      "ptoms": 4421,
      "ivine": 4422,
      "Ġsex": 4423,
      "Ġseat": 4424,
      "Ġselection": 4425,
      "ĠDra": 4426,
      "ĠDirect": 4427,
      "Ġshatter": 4428,
      "Ġshoes": 4429,
      "ĠLet": 4430,
      "ĠLab": 4431,
      "ĠLew": 4432,
      "ĠLear": 4433,
      "ĠLord": 4434,
      "ĠLeg": 4435,
      "ĠLASCO": 4436,
      "Ġkoseki": 4437,
      "Ġwealth": 4438,
      "Ġplot": 4439,
      "Ġplays": 4440,
      "Ġplasma": 4441,
      "ung": 4442,
      "unched": 4443,
      "ĠNY": 4444,
      "ĠNon": 4445,
      "ĠOut": 4446,
      "ĠOur": 4447,
      "Ġabilities": 4448,
      "ĠUse": 4449,
      "ĠJust": 4450,
      "ĠJew": 4451,
      "Ġcompet": 4452,
      "Ġcompared": 4453,
      "Ġintense": 4454,
      "ultural": 4455,
      "Ġcontem": 4456,
      "Ġdeskt": 4457,
      "Ġprepar": 4458,
      "Ġproduces": 4459,
      "ildren": 4460,
      "aching": 4461,
      "ĠThrough": 4462,
      "Ġincor": 4463,
      "Ġgoal": 4464,
      "ensive": 4465,
      "jects": 4466,
      "Ġdispl": 4467,
      "load": 4468,
      "ĠKe": 4469,
      "Ġmeant": 4470,
      "Ġmechan": 4471,
      "Ġparty": 4472,
      "Ġouter": 4473,
      "Ġunits": 4474,
      "Ġunlike": 4475,
      "Ġpoison": 4476,
      "consc": 4477,
      "Ġtrade": 4478,
      "Ġspiders": 4479,
      "Ġsomewhat": 4480,
      "Ġevalu": 4481,
      "Ġagree": 4482,
      "Ġagreement": 4483,
      "Ġcommit": 4484,
      "Ġcommand": 4485,
      "Ġserve": 4486,
      "Ġseries": 4487,
      "Ġanyone": 4488,
      "Ġ2000": 4489,
      "Ġ2009": 4490,
      "ileo": 4491,
      "Ġspeech": 4492,
      "Ġspezz": 4493,
      "Ġemb": 4494,
      "Ġemph": 4495,
      "Ġempty": 4496,
      "osted": 4497,
      "Ġattached": 4498,
      "ologies": 4499,
      "akes": 4500,
      "Ġsupply": 4501,
      "Ġraise": 4502,
      "Ġoffice": 4503,
      "Ġ48": 4504,
      "Ġregional": 4505,
      "Ġplaying": 4506,
      "ĠVir": 4507,
      "Ġinstance": 4508,
      "Ġinstances": 4509,
      "Ġmember": 4510,
      "Ġmodify": 4511,
      "Ġmoderate": 4512,
      "Ġmodifications": 4513,
      "ĠReview": 4514,
      "ĠRefere": 4515,
      "Ġcred": 4516,
      "Ġdirectory": 4517,
      "Ġcalls": 4518,
      "ĠChina": 4519,
      "Ġdecades": 4520,
      "Think": 4521,
      "Ġinfere": 4522,
      "Ġsubsequent": 4523,
      "Ġcollab": 4524,
      "Ġtribes": 4525,
      "Ġacquire": 4526,
      "Ġlegal": 4527,
      "ney": 4528,
      "Ġdistribution": 4529,
      "Ġsupporting": 4530,
      "Ġowner": 4531,
      "Ġsolid": 4532,
      "Ġinteract": 4533,
      "Ġinterview": 4534,
      "Ġremove": 4535,
      "Ġtransfer": 4536,
      "Ġgradu": 4537,
      "Ġ50": 4538,
      "Ġapproved": 4539,
      "Ġeveryone": 4540,
      "Ġextract": 4541,
      "obe": 4542,
      "ollowing": 4543,
      "Ġcontinues": 4544,
      "Ġparticulars": 4545,
      "Ġ800": 4546,
      "Ġindustries": 4547,
      "Ġdidn": 4548,
      "Ġrequires": 4549,
      "Ġaccompl": 4550,
      "Ġpersu": 4551,
      "ĠAdam": 4552,
      "ĠAdobe": 4553,
      "Ġprovider": 4554,
      "Ġ2010": 4555,
      "Ġcorrect": 4556,
      "Ġgreatest": 4557,
      "cosity": 4558,
      "ickness": 4559,
      "Ġplanned": 4560,
      "positions": 4561,
      "Ġaffinity": 4562,
      "Ġblack": 4563,
      "Ġblock": 4564,
      "Ġflash": 4565,
      "arium": 4566,
      "Ġlessons": 4567,
      "ĠBefore": 4568,
      "Ġexercise": 4569,
      "ĠOctober": 4570,
      "Ġengaging": 4571,
      "Ġphr": 4572,
      "Ġphilosop": 4573,
      "Ġminute": 4574,
      "Ġgrant": 4575,
      "Ġgreen": 4576,
      "oyal": 4577,
      "Ġ70": 4578,
      "ISM": 4579,
      "uilding": 4580,
      "Ġpossess": 4581,
      "Ġruled": 4582,
      "Ġcontains": 4583,
      "Ġobserving": 4584,
      "prise": 4585,
      "Ġauthority": 4586,
      "Ġauthorized": 4587,
      "Ġdescribes": 4588,
      "ederate": 4589,
      "Ġbring": 4590,
      "Ġdemand": 4591,
      "Ġdemocratic": 4592,
      "Ġvisit": 4593,
      "Ġvision": 4594,
      "Ġvisual": 4595,
      "Ġcommonly": 4596,
      "Ġswelling": 4597,
      "Ġanswers": 4598,
      "Ġeasy": 4599,
      "Ġprotection": 4600,
      "Ġchanged": 4601,
      "Ġshowing": 4602,
      "Ġcompleted": 4603,
      "roduction": 4604,
      "Ġequal": 4605,
      "Ġreduced": 4606,
      "ĠIII": 4607,
      "Ġexplore": 4608,
      "Ġexplains": 4609,
      "Ġopposite": 4610,
      "Ġhardware": 4611,
      "Ġnegot": 4612,
      "ĠUSB": 4613,
      "Ġdiscussed": 4614,
      "Ġmixing": 4615,
      "ĠSept": 4616,
      "Ġdecisions": 4617,
      "Ġpollution": 4618,
      "Ġcircle": 4619,
      "Ġdelay": 4620,
      "ĠPhill": 4621,
      "Ġhappens": 4622,
      "Ġcocaine": 4623,
      "Ġputting": 4624,
      "ounced": 4625,
      "ouncil": 4626,
      "ropol": 4627,
      "Ġthinks": 4628,
      "Ġeye": 4629,
      "Ġstarted": 4630,
      "Ġconnected": 4631,
      "Ġconnection": 4632,
      "Ġaccepted": 4633,
      "Ġdetermines": 4634,
      "Ġcharacteristics": 4635,
      "Ġroundabouts": 4636,
      "Expl": 4637,
      "going": 4638,
      "Ġauthenticated": 4639,
      "Ġbiggest": 4640,
      "ĠAlexandria": 4641,
      "Ġadvant": 4642,
      "Ġregulated": 4643,
      "Ġtowards": 4644,
      "Ġlaunched": 4645,
      "Ġheavily": 4646,
      "Ġchoose": 4647,
      "Ġreference": 4648,
      "ĠZacharias": 4649,
      "ĠCommission": 4650,
      "Ġdetails": 4651,
      "Ġterrit": 4652,
      "Ġbasic": 4653,
      "Ġmurder": 4654,
      "Ġreceive": 4655,
      "ĠClimate": 4656,
      "Ġprobable": 4657,
      "Ġatmosphere": 4658,
      "Ġparticipants": 4659,
      "Ġdefinitions": 4660,
      "Ġsafely": 4661,
      "Ġreturned": 4662,
      "Howard": 4663,
      "porary": 4664,
      "Ġhighest": 4665,
      "Ġphotograph": 4666,
      "Ġradii": 4667,
      "HEISM": 4668,
      "Ġsenses": 4669,
      "Ġharm": 4670,
      "Ġhousehold": 4671,
      "âĢĺ,": 4672,
      "ĠPeriod": 4673,
      "ĠRepublic": 4674,
      "ĠLangston": 4675,
      "Ġadopted": 4676,
      "Ġcorresponding": 4677,
      "Ġconcerns": 4678,
      "Ġconcerned": 4679,
      "Chapter": 4680,
      "unting": 4681,
      "Ġmotiv": 4682,
      "Ġlabor": 4683,
      "Ġliterary": 4684,
      "ĠGeographical": 4685,
      "Ġteaching": 4686,
      "Ġassassination": 4687,
      "Ġdeclared": 4688,
      "Ġfreighter": 4689,
      "ieth": 4690,
      "Ġignition": 4691,
      "Ġgeoscience": 4692,
      "Ġimagine": 4693,
      "Ġinstrument": 4694,
      "Ġexperiences": 4695,
      "Ġsituation": 4696,
      "Ġsleep": 4697,
      "Ġwidely": 4698,
      "Ġdramatically": 4699,
      "Ġhoriz": 4700,
      "Ġprotein": 4701,
      "anderbilt": 4702,
      "ĠGerman": 4703,
      "Ġspiritual": 4704,
      "Ġtwentieth": 4705,
      "Ġelementary": 4706,
      "Ġdefeat": 4707,
      "Ġeducation": 4708,
      "Ġstatistical": 4709,
      "Ġobservations": 4710,
      "Ġtruths": 4711,
      "Ġmeaningful": 4712,
      "grasses": 4713,
      "sych": 4714,
      "×Ķ×": 4715,
      "Ġtouch": 4716,
      "Ġachieve": 4717,
      "Ġwoods": 4718,
      "Ġboys": 4719,
      "Ġfibers": 4720,
      "Ġearlier": 4721,
      "Ġlatest": 4722,
      "ĠHaydn": 4723,
      "ĠWorks": 4724,
      "Ġspeaker": 4725,
      "Ġbeliefs": 4726,
      "Ġaudio": 4727,
      "Ġbunchgrasses": 4728,
      "Ġmarket": 4729,
      "Ġdoubt": 4730,
      "Ġliquid": 4731,
      "Ġsteam": 4732,
      "ĠBarrie": 4733,
      "Ġrandomly": 4734,
      "Ġvideo": 4735,
      "Ġshielding": 4736,
      "Ġacceleration": 4737,
      "Ġcomprehensive": 4738,
      "Ġjudgment": 4739,
      "Ġsplit": 4740,
      "Ġcommissioners": 4741,
      "Ġdescriptive": 4742,
      "Ġcolleagues": 4743,
      "ĠLicensing": 4744,
      "Ġprinciples": 4745,
      "Write": 4746,
      "pinions": 4747,
      "Ġverb": 4748,
      "Ġriver": 4749,
      "onymous": 4750,
      "Ġmoney": 4751,
      "ĠTucson": 4752,
      "Ġsucceeded": 4753,
      "ĠGolden": 4754,
      "Ġrefinery": 4755,
      "Ġparaffin": 4756,
      "Ġinfrastructure": 4757,
      "Ġlegitimate": 4758,
      "Ġorganizations": 4759,
      "ĠGoogle": 4760,
      "makers": 4761,
      "Ġwrote": 4762,
      "Ġfully": 4763,
      "Ġmilitary": 4764,
      "Ġlooking": 4765,
      "ĠSquare": 4766,
      "Ġasphalt": 4767,
      "ĠMaterials": 4768,
      "ĠBulletin": 4769,
      "ĠHindus": 4770,
      "ĠGustav": 4771,
      "ĠLewis": 4772,
      "Ġdesktop": 4773,
      "Ġspezzati": 4774,
      "Ġemphas": 4775,
      "\":": 4776,
      ")-": 4777,
      "13": 4778,
      "16": 4779,
      "29": 4780,
      "32": 4781,
      "65": 4782,
      "75": 4783,
      "740": 4784,
      "89": 4785,
      "90": 4786,
      ":-": 4787,
      "App": 4788,
      "Acre": 4789,
      "BC": 4790,
      "Bolivia": 4791,
      "CN": 4792,
      "Com": 4793,
      "Cultural": 4794,
      "During": 4795,
      "Eng": 4796,
      "From": 4797,
      "Free": 4798,
      "Here": 4799,
      "Ion": 4800,
      "March": 4801,
      "New": 4802,
      "Over": 4803,
      "PT": 4804,
      "Pe": 4805,
      "Peter": 4806,
      "RE": 4807,
      "Read": 4808,
      "RAN": 4809,
      "ST": 4810,
      "Us": 4811,
      "].": 4812,
      "aith": 4813,
      "ael": 4814,
      "aware": 4815,
      "aile": 4816,
      "bo": 4817,
      "bon": 4818,
      "bing": 4819,
      "bell": 4820,
      "body": 4821,
      "cation": 4822,
      "col": 4823,
      "cles": 4824,
      "craft": 4825,
      "eper": 4826,
      "ecut": 4827,
      "fu": 4828,
      "fact": 4829,
      "gs": 4830,
      "gen": 4831,
      "gel": 4832,
      "ground": 4833,
      "hu": 4834,
      "how": 4835,
      "hang": 4836,
      "ivery": 4837,
      "iors": 4838,
      "know": 4839,
      "kah": 4840,
      "mis": 4841,
      "mble": 4842,
      "nov": 4843,
      "oices": 4844,
      "ocean": 4845,
      "pass": 4846,
      "pically": 4847,
      "phere": 4848,
      "rin": 4849,
      "sol": 4850,
      "squ": 4851,
      "source": 4852,
      "svn": 4853,
      "uing": 4854,
      "uck": 4855,
      "vas": 4856,
      "wo": 4857,
      "word": 4858,
      "xide": 4859,
      "ximately": 4860,
      "ze": 4861,
      "zen": 4862,
      "Ġi": 4863,
      "Ġil": 4864,
      "Ġ×Ķ×": 4865,
      "Ġtar": 4866,
      "Ġtet": 4867,
      "Ġtau": 4868,
      "Ġtree": 4869,
      "Ġtang": 4870,
      "Ġtough": 4871,
      "Ġtrop": 4872,
      "Ġaw": 4873,
      "Ġaqu": 4874,
      "hept": 4875,
      "hether": 4876,
      "inf": 4877,
      "inic": 4878,
      "inate": 4879,
      "inking": 4880,
      "inck": 4881,
      "rees": 4882,
      "rete": 4883,
      "Ġopinions": 4884,
      "Ġtherm": 4885,
      "ert": 4886,
      "ercial": 4887,
      "ativity": 4888,
      "Ġsal": 4889,
      "Ġsher": 4890,
      "Ġsus": 4891,
      "Ġsale": 4892,
      "Ġsessions": 4893,
      "Ġscript": 4894,
      "onia": 4895,
      "isa": 4896,
      "isces": 4897,
      "enis": 4898,
      "Ġwild": 4899,
      "Ġwants": 4900,
      "Ġwww": 4901,
      "Ġcore": 4902,
      "Ġpow": 4903,
      "Ġphys": 4904,
      "Ġpots": 4905,
      "Ġpounds": 4906,
      "Ġpsych": 4907,
      "orge": 4908,
      "orate": 4909,
      "anuk": 4910,
      "annel": 4911,
      "ita": 4912,
      "ito": 4913,
      "Ġanch": 4914,
      "Ġanest": 4915,
      "Ġanger": 4916,
      "Ġbow": 4917,
      "Ġbul": 4918,
      "Ġband": 4919,
      "Ġbase": 4920,
      "Ġbreat": 4921,
      "Ġbond": 4922,
      "Ġbox": 4923,
      "Ġbrief": 4924,
      "Ġbench": 4925,
      "alle": 4926,
      "alyst": 4927,
      "ingu": 4928,
      "oul": 4929,
      "ouling": 4930,
      "Ġfr": 4931,
      "Ġfat": 4932,
      "Ġfly": 4933,
      "Ġfire": 4934,
      "Ġfru": 4935,
      "Ġfresh": 4936,
      "Ġfriction": 4937,
      "Ġfouling": 4938,
      "ica": 4939,
      "iced": 4940,
      "icity": 4941,
      "Ġinner": 4942,
      "Ġinvest": 4943,
      "Ġinsect": 4944,
      "Ġmicro": 4945,
      "Ġmale": 4946,
      "Ġmedi": 4947,
      "Ġmerely": 4948,
      "Ġtold": 4949,
      "Ġtoxic": 4950,
      "arm": 4951,
      "arin": 4952,
      "arter": 4953,
      "Ġdy": 4954,
      "Ġden": 4955,
      "Ġdip": 4956,
      "Ġdedic": 4957,
      "Ġdrug": 4958,
      "Ġdengue": 4959,
      "leas": 4960,
      "rovers": 4961,
      "ctions": 4962,
      "Ġhuge": 4963,
      "Ġthous": 4964,
      "Ġthreat": 4965,
      "Ġthird": 4966,
      "asse": 4967,
      "ented": 4968,
      "ently": 4969,
      "entinck": 4970,
      "Ġeight": 4971,
      "Ġreform": 4972,
      "Ġrecon": 4973,
      "Ġrevolution": 4974,
      "stood": 4975,
      "iled": 4976,
      "ilad": 4977,
      "ilroad": 4978,
      "omy": 4979,
      "omatic": 4980,
      "ominant": 4981,
      "Ġlob": 4982,
      "Ġlatter": 4983,
      "Ġlooks": 4984,
      "Ġlunch": 4985,
      "Ġlibrary": 4986,
      "Ġloyal": 4987,
      "Ġnet": 4988,
      "Ġnight": 4989,
      "Ġnine": 4990,
      "Ġbear": 4991,
      "Ġbeyond": 4992,
      "sequ": 4993,
      "ceived": 4994,
      "Ġgro": 4995,
      "Ġgone": 4996,
      "Ġgather": 4997,
      "Ġgiving": 4998,
      "Ġguidance": 4999,
      "ĠTop": 5000,
      "ĠTerm": 5001,
      "ĠTrans": 5002,
      "ĠTex": 5003,
      "ĠTrib": 5004,
      "ĠTHE": 5005,
      "ragment": 5006,
      "uries": 5007,
      "urity": 5008,
      "urally": 5009,
      "ida": 5010,
      "idd": 5011,
      "idation": 5012,
      "otle": 5013,
      "ĠAN": 5014,
      "ĠAff": 5015,
      "ĠAction": 5016,
      "ĠAUP": 5017,
      "Ġforward": 5018,
      "ola": 5019,
      "olume": 5020,
      "ĠIvan": 5021,
      "ĠSp": 5022,
      "ĠSub": 5023,
      "ĠSee": 5024,
      "ĠSTP": 5025,
      "Ġul": 5026,
      "igible": 5027,
      "iguration": 5028,
      "iggins": 5029,
      "vert": 5030,
      "verning": 5031,
      "eth": 5032,
      "eters": 5033,
      "ette": 5034,
      "ĠCre": 5035,
      "ĠCur": 5036,
      "ĠCour": 5037,
      "ĠCong": 5038,
      "ĠCost": 5039,
      "ĠCond": 5040,
      "ĠCateg": 5041,
      "ĠCDC": 5042,
      "Ġyrs": 5043,
      "irs": 5044,
      "Ġstance": 5045,
      "Ġstun": 5046,
      "Ġstraight": 5047,
      "iful": 5048,
      "iform": 5049,
      "uls": 5050,
      "ulated": 5051,
      "ulations": 5052,
      "ulating": 5053,
      "Ġprohib": 5054,
      "Ġproprietary": 5055,
      "Ġord": 5056,
      "ama": 5057,
      "amental": 5058,
      "ĠMem": 5059,
      "ĠMart": 5060,
      "ĠMoss": 5061,
      "ĠMars": 5062,
      "ĠMeter": 5063,
      "ĠMON": 5064,
      "ĠMotor": 5065,
      "elt": 5066,
      "eline": 5067,
      "elph": 5068,
      "emic": 5069,
      "Ġconven": 5070,
      "Ġconsequ": 5071,
      "istotle": 5072,
      "ndered": 5073,
      "ĠPa": 5074,
      "ĠPort": 5075,
      "Ġmosqu": 5076,
      "geant": 5077,
      "erer": 5078,
      "ĠBi": 5079,
      "ĠBr": 5080,
      "ĠBat": 5081,
      "ĠBook": 5082,
      "ĠBrown": 5083,
      "ĠBabb": 5084,
      "ĠBursitis": 5085,
      "ĠBBC": 5086,
      "ĠBentinck": 5087,
      "Ġalle": 5088,
      "Ġaltern": 5089,
      "Ġaltered": 5090,
      "iest": 5091,
      "Ġitem": 5092,
      "Ġexce": 5093,
      "Ġexcess": 5094,
      "Ġheart": 5095,
      "Ġhemis": 5096,
      "uman": 5097,
      "ĠHy": 5098,
      "ĠHistory": 5099,
      "ĠHospital": 5100,
      "ĠHiggins": 5101,
      "esson": 5102,
      "usal": 5103,
      "ushed": 5104,
      "Ġcomments": 5105,
      "orted": 5106,
      "ĠFine": 5107,
      "ĠFord": 5108,
      "ĠFish": 5109,
      "ĠFurther": 5110,
      "ĠFull": 5111,
      "ĠFund": 5112,
      "ĠFederal": 5113,
      "ĠFollowing": 5114,
      "Ġdealing": 5115,
      "Ġdeeds": 5116,
      "Ġdeeper": 5117,
      "odox": 5118,
      "illions": 5119,
      "andin": 5120,
      "key": 5121,
      "keley": 5122,
      "Ġrhy": 5123,
      "Ġrather": 5124,
      "Ġchose": 5125,
      "Ġchains": 5126,
      "Ġchlor": 5127,
      "Ġchurch": 5128,
      "Ġchief": 5129,
      "Ġchannel": 5130,
      "ĠEst": 5131,
      "ĠEdu": 5132,
      "ĠEast": 5133,
      "ĠEss": 5134,
      "ĠECL": 5135,
      "ĠRAN": 5136,
      "duction": 5137,
      "Ġlect": 5138,
      "Ġleaf": 5139,
      "Ġneck": 5140,
      "acqu": 5141,
      "ĠGate": 5142,
      "ĠGreat": 5143,
      "ĠGuidance": 5144,
      "ĠGabri": 5145,
      "pted": 5146,
      "Ġseed": 5147,
      "ĠDar": 5148,
      "ĠDem": 5149,
      "ĠDuring": 5150,
      "ĠDise": 5151,
      "ĠDivine": 5152,
      "ocated": 5153,
      "ocabul": 5154,
      "ĠLad": 5155,
      "Ġ21": 5156,
      "Ġ27": 5157,
      "Ġken": 5158,
      "Then": 5159,
      "Ġweak": 5160,
      "ĠâĢĶ": 5161,
      "Ġplaced": 5162,
      "enda": 5163,
      "endy": 5164,
      "iph": 5165,
      "ipher": 5166,
      "ipedia": 5167,
      "that": 5168,
      "ags": 5169,
      "ĠNe": 5170,
      "ĠNations": 5171,
      "ĠNove": 5172,
      "ĠNote": 5173,
      "ĠNetwork": 5174,
      "ĠOF": 5175,
      "ĠOb": 5176,
      "ĠOates": 5177,
      "Ġabs": 5178,
      "Ġsoft": 5179,
      "ially": 5180,
      "ĠUt": 5181,
      "ĠJup": 5182,
      "Ġperman": 5183,
      "Ġperfect": 5184,
      "Ġperhaps": 5185,
      "Ġperceived": 5186,
      "Ġenjoy": 5187,
      "Ġenemy": 5188,
      "Ġmach": 5189,
      "Ġmapping": 5190,
      "Ġcompany": 5191,
      "Ġintell": 5192,
      "Ġadvent": 5193,
      "Ġadminist": 5194,
      "Ġadapt": 5195,
      "Ġadjust": 5196,
      "ultane": 5197,
      "Ġcontrab": 5198,
      "range": 5199,
      "igned": 5200,
      "Ġdespite": 5201,
      "Ġprefect": 5202,
      "Ġproducing": 5203,
      "iber": 5204,
      "ibly": 5205,
      "Ġimplement": 5206,
      "ĠThink": 5207,
      "Ġgoals": 5208,
      "ension": 5209,
      "aped": 5210,
      "aphyl": 5211,
      "Ġdisp": 5212,
      "ĠKirby": 5213,
      "Ġbecoming": 5214,
      "Ġappoint": 5215,
      "assy": 5216,
      "Ġoutput": 5217,
      "Ġunp": 5218,
      "Ġunity": 5219,
      "Ġunique": 5220,
      "Ġuniform": 5221,
      "Ġpoor": 5222,
      "cont": 5223,
      "cribers": 5224,
      "Ġtracking": 5225,
      "Ġtraditionally": 5226,
      "Ġspills": 5227,
      "Ġspider": 5228,
      "ĠStu": 5229,
      "ĠStructures": 5230,
      "cision": 5231,
      "Ġquant": 5232,
      "Ġevolution": 5233,
      "Ġagency": 5234,
      "Ġagenda": 5235,
      "Ġrepl": 5236,
      "Ġcommercial": 5237,
      "Ġamb": 5238,
      "Ġobvious": 5239,
      "Ġchildhood": 5240,
      "ishment": 5241,
      "ishops": 5242,
      "Ġexposed": 5243,
      "Ġexpression": 5244,
      "Ġexplicit": 5245,
      "Ġemper": 5246,
      "Ġtwice": 5247,
      "ificial": 5248,
      "Ġmostly": 5249,
      "Ġattend": 5250,
      "Ġroof": 5251,
      "Ġnoble": 5252,
      "Ġnoise": 5253,
      "Ġcountries": 5254,
      "Ġconsc": 5255,
      "Ġsuppose": 5256,
      "Ġsaw": 5257,
      "Ġrelative": 5258,
      "Ġscale": 5259,
      "issipp": 5260,
      "Ġreflect": 5261,
      "Ġrefining": 5262,
      "Ġrefineries": 5263,
      "phology": 5264,
      "Ġworker": 5265,
      "Ġraised": 5266,
      "Ġrailroad": 5267,
      "Ġoffers": 5268,
      "Ġoffices": 5269,
      "Ġdeveloping": 5270,
      "Ġ41": 5271,
      "ansion": 5272,
      "ansonia": 5273,
      "hene": 5274,
      "Ġ31": 5275,
      "Ġunderstood": 5276,
      "ĠVal": 5277,
      "ĠVot": 5278,
      "ĠVanderbilt": 5279,
      "Ġindeed": 5280,
      "othing": 5281,
      "Ġformal": 5282,
      "Ġcreation": 5283,
      "Ġpark": 5284,
      "Ġsurv": 5285,
      "Ġhelps": 5286,
      "Ġhelped": 5287,
      "ĠChapter": 5288,
      "ĠChris": 5289,
      "ĠChildren": 5290,
      "Ġassume": 5291,
      "Ġwhereas": 5292,
      "Ġparticles": 5293,
      "Ġdecade": 5294,
      "Ġdecided": 5295,
      "Ġsubs": 5296,
      "Ġtrip": 5297,
      "Ġtribal": 5298,
      "Ġtribe": 5299,
      "Ġcentre": 5300,
      "Ġreads": 5301,
      "Ġspecimens": 5302,
      "Ġspecifically": 5303,
      "Ġfinding": 5304,
      "Ġdistill": 5305,
      "Ġdistant": 5306,
      "Ġdetonation": 5307,
      "Ġcover": 5308,
      "Ġcoord": 5309,
      "Ġcoverage": 5310,
      "Ġcooling": 5311,
      "ioactive": 5312,
      "Ġgets": 5313,
      "ĠAristotle": 5314,
      "ĠFrankish": 5315,
      "Ġmyself": 5316,
      "Ġremote": 5317,
      "Ġremained": 5318,
      "Ġremember": 5319,
      "ĠÂ©": 5320,
      "ĠÂ±": 5321,
      "Ġtransm": 5322,
      "ictor": 5323,
      "iction": 5324,
      "Ġrestore": 5325,
      "Ġrestoration": 5326,
      "Ġgraph": 5327,
      "Ġgrazing": 5328,
      "Ġgeneration": 5329,
      "Ġgenerate": 5330,
      "Ġadding": 5331,
      "itively": 5332,
      "Ġfeature": 5333,
      "Ġfeatures": 5334,
      "archy": 5335,
      "ohan": 5336,
      "shi": 5337,
      "Ġtested": 5338,
      "Ġoperators": 5339,
      "Ġpresents": 5340,
      "Ġpresence": 5341,
      "Ġelection": 5342,
      "Ġmeasuring": 5343,
      "example": 5344,
      "Ġchest": 5345,
      "Ġeveryday": 5346,
      "ĠProv": 5347,
      "egativity": 5348,
      "Ġ80": 5349,
      "Ġsaying": 5350,
      "Ġcarbon": 5351,
      "Ġdonation": 5352,
      "Ġpersons": 5353,
      "Ġperspect": 5354,
      "Ġlocation": 5355,
      "Ġlocations": 5356,
      "ĠAdministration": 5357,
      "Ġleadership": 5358,
      "ĠAsia": 5359,
      "Ġcori": 5360,
      "Ġgovernor": 5361,
      "Ġgovernments": 5362,
      "ukh": 5363,
      "Ġlandfall": 5364,
      "Ġmembranes": 5365,
      "ĠBeau": 5366,
      "Ġengaged": 5367,
      "axis": 5368,
      "Ġcapital": 5369,
      "ĠDecember": 5370,
      "Ġrecordings": 5371,
      "Ġinflamed": 5372,
      "Ġcourses": 5373,
      "standing": 5374,
      "Ġlimb": 5375,
      "ĠScop": 5376,
      "Ġmovements": 5377,
      "ĠYoung": 5378,
      "force": 5379,
      "Ġ71": 5380,
      "Ġmusical": 5381,
      "Ġstatements": 5382,
      "ifying": 5383,
      "Ġconstruction": 5384,
      "Ġeconomy": 5385,
      "Ġrulerships": 5386,
      "Ġobserved": 5387,
      "Ġcert": 5388,
      "ottled": 5389,
      "ĠEnergy": 5390,
      "Ġimmig": 5391,
      "Ġpercentage": 5392,
      "Ġtrust": 5393,
      "Ġclearly": 5394,
      "ĠExpl": 5395,
      "Ġports": 5396,
      "Ġportion": 5397,
      "Ġportions": 5398,
      "Ġportrait": 5399,
      "Ġdepends": 5400,
      "ĠJohnson": 5401,
      "culating": 5402,
      "itoring": 5403,
      "Ġeasier": 5404,
      "Ġprotons": 5405,
      "Ġprograms": 5406,
      "Ġchanging": 5407,
      "Ġvalue": 5408,
      "Ġamounts": 5409,
      "Ġflowing": 5410,
      "Ġreducing": 5411,
      "Ġbehind": 5412,
      "Ġbehalf": 5413,
      "ĠAnn": 5414,
      "Ġcontrolled": 5415,
      "Ġlegislators": 5416,
      "Ġmeasurement": 5417,
      "Ġpersonnel": 5418,
      "Ġsignificantly": 5419,
      "ĠCaesarion": 5420,
      "Ġutilities": 5421,
      "Ġskin": 5422,
      "ĠIsland": 5423,
      "ĠUSS": 5424,
      "Ġ1998": 5425,
      "Ġkeeping": 5426,
      "Ġslave": 5427,
      "Ġmixed": 5428,
      "Ġdestination": 5429,
      "Ġdestruction": 5430,
      "ĠSecession": 5431,
      "ĠCohen": 5432,
      "Ġoriginally": 5433,
      "ĠMedicaid": 5434,
      "ĠBritain": 5435,
      "Ġrises": 5436,
      "Ġgrounds": 5437,
      "Ġidentified": 5438,
      "Ġastron": 5439,
      "Ġasthma": 5440,
      "Ġcircular": 5441,
      "Ġdelivery": 5442,
      "Ġbegun": 5443,
      "Ġbegins": 5444,
      "Ġproperly": 5445,
      "ĠPhilad": 5446,
      "Ġexistence": 5447,
      "Ġscientist": 5448,
      "Ġbroke": 5449,
      "Ġeyes": 5450,
      "Ġlooked": 5451,
      "ĠWho": 5452,
      "ĠStudy": 5453,
      "ĠStudies": 5454,
      "Ġresponses": 5455,
      "Ġresponsibility": 5456,
      "Example": 5457,
      "Examples": 5458,
      "Ġ''": 5459,
      "Ġentire": 5460,
      "ĠASD": 5461,
      "Ġletters": 5462,
      "Ġnearby": 5463,
      "Ġpathology": 5464,
      "Ġrooms": 5465,
      "Ġregulatory": 5466,
      "Ġbelieve": 5467,
      "Ġbelieved": 5468,
      "Ġreviewboard": 5469,
      "Ġchoirs": 5470,
      "ĠLev": 5471,
      "ĠLehman": 5472,
      "Ġargue": 5473,
      "Ġtraveled": 5474,
      "Ġfuels": 5475,
      "Ġinfluences": 5476,
      "Ġmaintaining": 5477,
      "being": 5478,
      "Ġsymptoms": 5479,
      "Ġanalysis": 5480,
      "Ġdrinking": 5481,
      "Ġsecret": 5482,
      "Ġterrain": 5483,
      "Ġtendons": 5484,
      "Ġpictures": 5485,
      "Ġmurdered": 5486,
      "Ġmisses": 5487,
      "Ġmissing": 5488,
      "Ġtools": 5489,
      "Ġreceived": 5490,
      "ĠEconomic": 5491,
      "Ġweeks": 5492,
      "Ġspacecraft": 5493,
      "Ġmethods": 5494,
      "Ġparticipate": 5495,
      "However": 5496,
      "ĠXII": 5497,
      "Ġawareness": 5498,
      "Ġcutting": 5499,
      "Ġholding": 5500,
      "Ġreactions": 5501,
      "Ġgyratories": 5502,
      "ĠMarx": 5503,
      "Ġrecognize": 5504,
      "ĠReading": 5505,
      "ĠReadWrite": 5506,
      "Ġphoto": 5507,
      "Ġphotos": 5508,
      "Ġreasoning": 5509,
      "Ġresearcher": 5510,
      "Ġradiation": 5511,
      "metals": 5512,
      "Ġfrontal": 5513,
      "Ġtowns": 5514,
      "Ġguide": 5515,
      "Ġdegrad": 5516,
      "Ġvirus": 5517,
      "Ġpoetic": 5518,
      "Ġattempts": 5519,
      "Ġindividual": 5520,
      "Ġfunds": 5521,
      "Ġfundamental": 5522,
      "Ġhappening": 5523,
      "Ġmotion": 5524,
      "ĠControl": 5525,
      "Ġsuffer": 5526,
      "ĠLicense": 5527,
      "1928": 5528,
      "Ġrecommend": 5529,
      "Ġrecommended": 5530,
      "Ġshells": 5531,
      "Ġerr": 5532,
      "Ġsyn": 5533,
      "Ġsynt": 5534,
      "Ġfixes": 5535,
      "Ġfixed": 5536,
      "Ġmatters": 5537,
      "Ġdocuments": 5538,
      "Ġrepeated": 5539,
      "Ġundamaged": 5540,
      "Ġvariety": 5541,
      "ducts": 5542,
      "Ġteachers": 5543,
      "Ġconsumer": 5544,
      "Ġsituations": 5545,
      "chewing": 5546,
      "Ġpaying": 5547,
      "Ġanti": 5548,
      "Ġmuting": 5549,
      "Ġdrooping": 5550,
      "Ġdropped": 5551,
      "Ġdramatic": 5552,
      "Ġgolden": 5553,
      "ĠAgreement": 5554,
      "Ġproteins": 5555,
      "ĠMinistry": 5556,
      "ĠMiller": 5557,
      "Ġdevoted": 5558,
      "ĠGermany": 5559,
      "Ġmeeting": 5560,
      "Ġjoined": 5561,
      "Ġtwenty": 5562,
      "Ġscenes": 5563,
      "Ġdefeated": 5564,
      "Ġutilizing": 5565,
      "INT": 5566,
      "OTHEISM": 5567,
      "Only": 5568,
      "habilit": 5569,
      "Ġaims": 5570,
      "Ġcamera": 5571,
      "Ġcameras": 5572,
      "Ġparents": 5573,
      "Ġbuy": 5574,
      "Ġbanana": 5575,
      "Ġfighting": 5576,
      "ĠAugust": 5577,
      "ĠCenters": 5578,
      "Ġexhibited": 5579,
      "ĠGalileo": 5580,
      "pecies": 5581,
      "Ġqualify": 5582,
      "Ġobtained": 5583,
      "ikipedia": 5584,
      "Ġwaters": 5585,
      "Ġprice": 5586,
      "alouds": 5587,
      "Ġfellow": 5588,
      "Ġhonor": 5589,
      "ĠMichael": 5590,
      "ĠMississipp": 5591,
      "ĠMonterey": 5592,
      "ĠGuide": 5593,
      "Ġ1904": 5594,
      "Ġspectrum": 5595,
      "Ġscreen": 5596,
      "Ġregularly": 5597,
      "ĠRegional": 5598,
      "Ġfluids": 5599,
      "ĠDevelopmental": 5600,
      "Ġkeyboards": 5601,
      "Ġlimitations": 5602,
      "Ġconstitution": 5603,
      "Ġpurchase": 5604,
      "Ġconflict": 5605,
      "ĠConfederate": 5606,
      "Ġhydro": 5607,
      "Ġfrontline": 5608,
      "Ġprecincts": 5609,
      "Ġneighborhoods": 5610,
      "OLY": 5611,
      "burgh": 5612,
      "haust": 5613,
      "Ġirrit": 5614,
      "Ġsatis": 5615,
      "Ġcustom": 5616,
      "Ġcrucial": 5617,
      "itzv": 5618,
      "ĠProtect": 5619,
      "ĠHighway": 5620,
      "Ġvendor": 5621,
      "Ġvapor": 5622,
      "Ġvictory": 5623,
      "Ġsequence": 5624,
      "ĠOperations": 5625,
      "Ġarrived": 5626,
      "Ġdisruptions": 5627,
      "Ġrestarting": 5628,
      "Ġfamilies": 5629,
      "ĠScientific": 5630,
      "Ġestimated": 5631,
      "Ġcalculated": 5632,
      "html": 5633,
      "DDM": 5634,
      "Sheldrake": 5635,
      "efferson": 5636,
      "generation": 5637,
      "Ġcryst": 5638,
      "Ġboundaries": 5639,
      "Ġfavor": 5640,
      "Ġhusb": 5641,
      "Ġhistorical": 5642,
      "idieri": 5643,
      "ĠConservation": 5644,
      "Ġprostaglandin": 5645,
      "Ġorthodox": 5646,
      "ĠMetropol": 5647,
      "ĠBerkeley": 5648,
      "ĠBallot": 5649,
      "Ġlevator": 5650,
      "Ġincorpor": 5651,
      "ĠKeep": 5652,
      "conscious": 5653,
      "Ġembassy": 5654,
      "ĠReferendum": 5655,
      "Ġaccomplished": 5656,
      "Ġphrase": 5657,
      "Ġphilosophy": 5658,
      "ĠPhillips": 5659,
      "Ġadvantage": 5660,
      "Ġhorizont": 5661,
      "PTA": 5662,
      "Using": 5663,
      "ailey": 5664,
      "Ġilleg": 5665,
      "Ġtarget": 5666,
      "Ġtropical": 5667,
      "Ġsheriff": 5668,
      "Ġpowered": 5669,
      "anukkah": 5670,
      "Ġinsects": 5671,
      "Ġmedium": 5672,
      "Ġlobes": 5673,
      "ĠTexas": 5674,
      "ĠTribe": 5675,
      "ĠCourt": 5676,
      "ĠCongress": 5677,
      "ĠConditions": 5678,
      "ĠMONOTHEISM": 5679,
      "elphia": 5680,
      "Ġmosquito": 5681,
      "ĠBabbitt": 5682,
      "Ġhemisphere": 5683,
      "ĠDisease": 5684,
      "ocabulary": 5685,
      "ĠNovember": 5686,
      "ĠJupiter": 5687,
      "Ġpermanent": 5688,
      "Ġcontraband": 5689,
      "Ġprefecture": 5690,
      "aphylaxis": 5691,
      "Ġappointed": 5692,
      "ĠPhiladelphia": 5693,
      "ĠReadWriteThink": 5694,
      "ĠMississippi": 5695,
      ")(": 5696,
      ");": 5697,
      ",âĢĶ": 5698,
      ".*": 5699,
      ".).": 5700,
      "31": 5701,
      "38": 5702,
      "45": 5703,
      "58": 5704,
      "66": 5705,
      "69": 5706,
      "76": 5707,
      "86": 5708,
      "96": 5709,
      ">.": 5710,
      "AL": 5711,
      "AT": 5712,
      "Ab": 5713,
      "Act": 5714,
      "All": 5715,
      "APTA": 5716,
      "BM": 5717,
      "Building": 5718,
      "Cl": 5719,
      "Con": 5720,
      "Cor": 5721,
      "Cle": 5722,
      "Const": 5723,
      "DA": 5724,
      "Do": 5725,
      "Dr": 5726,
      "Des": 5727,
      "Dream": 5728,
      "David": 5729,
      "EV": 5730,
      "Em": 5731,
      "Even": 5732,
      "Hailey": 5733,
      "IO": 5734,
      "IT": 5735,
      "Int": 5736,
      "Jane": 5737,
      "James": 5738,
      "Kromko": 5739,
      "LR": 5740,
      "MO": 5741,
      "My": 5742,
      "Met": 5743,
      "May": 5744,
      "Mus": 5745,
      "Mode": 5746,
      "Nausea": 5747,
      "OI": 5748,
      "Of": 5749,
      "Other": 5750,
      "Orig": 5751,
      "PL": 5752,
      "Per": 5753,
      "Power": 5754,
      "Posted": 5755,
      "Res": 5756,
      "Sh": 5757,
      "Saint": 5758,
      "Source": 5759,
      "SOHO": 5760,
      "TC": 5761,
      "TM": 5762,
      "TO": 5763,
      "Tra": 5764,
      "Tiny": 5765,
      "TEEB": 5766,
      "ULA": 5767,
      "UCN": 5768,
      "Wor": 5769,
      "Why": 5770,
      "While": 5771,
      "Your": 5772,
      "ais": 5773,
      "aic": 5774,
      "aks": 5775,
      "after": 5776,
      "auth": 5777,
      "br": 5778,
      "ban": 5779,
      "bed": 5780,
      "ball": 5781,
      "bac": 5782,
      "books": 5783,
      "bels": 5784,
      "cor": 5785,
      "cum": 5786,
      "cod": 5787,
      "comm": 5788,
      "coun": 5789,
      "caf": 5790,
      "do": 5791,
      "direct": 5792,
      "een": 5793,
      "eyed": 5794,
      "election": 5795,
      "fly": 5796,
      "fra": 5797,
      "file": 5798,
      "father": 5799,
      "fires": 5800,
      "faces": 5801,
      "fineries": 5802,
      "gave": 5803,
      "hi": 5804,
      "ho": 5805,
      "his": 5806,
      "hil": 5807,
      "hist": 5808,
      "hand": 5809,
      "high": 5810,
      "half": 5811,
      "ii": 5812,
      "iers": 5813,
      "iance": 5814,
      "iki": 5815,
      "ka": 5816,
      "ken": 5817,
      "list": 5818,
      "lled": 5819,
      "long": 5820,
      "lines": 5821,
      "life": 5822,
      "lvan": 5823,
      "mm": 5824,
      "mit": 5825,
      "mist": 5826,
      "mond": 5827,
      "mark": 5828,
      "mitting": 5829,
      "non": 5830,
      "ners": 5831,
      "nology": 5832,
      "normal": 5833,
      "oly": 5834,
      "ores": 5835,
      "overs": 5836,
      "octane": 5837,
      "ped": 5838,
      "post": 5839,
      "path": 5840,
      "pection": 5841,
      "rity": 5842,
      "rants": 5843,
      "rince": 5844,
      "spe": 5845,
      "sper": 5846,
      "tical": 5847,
      "town": 5848,
      "then": 5849,
      "telling": 5850,
      "timately": 5851,
      "ux": 5852,
      "uet": 5853,
      "uke": 5854,
      "ugh": 5855,
      "under": 5856,
      "vis": 5857,
      "vents": 5858,
      "with": 5859,
      "ysis": 5860,
      "zy": 5861,
      "zant": 5862,
      "zaw": 5863,
      "¢×": 5864,
      "Ġ<": 5865,
      "Ġid": 5866,
      "Ġtrou": 5867,
      "Ġtour": 5868,
      "Ġtast": 5869,
      "Ġtons": 5870,
      "Ġtelling": 5871,
      "Ġaid": 5872,
      "Ġapart": 5873,
      "Ġafra": 5874,
      "hel": 5875,
      "hew": 5876,
      "inating": 5877,
      "internet": 5878,
      "inzen": 5879,
      "reg": 5880,
      "Ġod": 5881,
      "Ġoven": 5882,
      "Ġocean": 5883,
      "erved": 5884,
      "erts": 5885,
      "atre": 5886,
      "atist": 5887,
      "atab": 5888,
      "atched": 5889,
      "atsu": 5890,
      "Ġsin": 5891,
      "Ġsut": 5892,
      "Ġsul": 5893,
      "Ġsist": 5894,
      "Ġsect": 5895,
      "Ġsort": 5896,
      "Ġsav": 5897,
      "Ġsociety": 5898,
      "Ġsales": 5899,
      "Ġsickness": 5900,
      "onn": 5901,
      "onal": 5902,
      "isition": 5903,
      "isian": 5904,
      "eness": 5905,
      "enior": 5906,
      "Ġwal": 5907,
      "Ġward": 5908,
      "Ġwire": 5909,
      "Ġwave": 5910,
      "Ġwaves": 5911,
      "Ġwiring": 5912,
      "Ġwestern": 5913,
      "Ġcra": 5914,
      "Ġcub": 5915,
      "Ġcited": 5916,
      "Ġcrat": 5917,
      "Ġcoup": 5918,
      "Ġcrop": 5919,
      "Ġcrown": 5920,
      "Ġcitizens": 5921,
      "Ġcouncil": 5922,
      "esus": 5923,
      "Ġped": 5924,
      "Ġpun": 5925,
      "Ġpap": 5926,
      "Ġpair": 5927,
      "Ġpick": 5928,
      "Ġpull": 5929,
      "Ġpump": 5930,
      "Ġpushed": 5931,
      "orig": 5932,
      "orway": 5933,
      "anb": 5934,
      "aning": 5935,
      "anation": 5936,
      "anical": 5937,
      "ancing": 5938,
      "anium": 5939,
      "ancy": 5940,
      "anche": 5941,
      "itter": 5942,
      "itect": 5943,
      "itative": 5944,
      "itives": 5945,
      "Ġanne": 5946,
      "Ġangle": 5947,
      "Ġanonymous": 5948,
      "Ġangel": 5949,
      "Ġanaphylaxis": 5950,
      "Ġbod": 5951,
      "Ġbab": 5952,
      "Ġbru": 5953,
      "Ġbacter": 5954,
      "Ġbillion": 5955,
      "Ġborder": 5956,
      "Ġbesides": 5957,
      "Ġbishops": 5958,
      "ald": 5959,
      "alities": 5960,
      "alace": 5961,
      "alcon": 5962,
      "oud": 5963,
      "oust": 5964,
      "ouds": 5965,
      "ouram": 5966,
      "ounce": 5967,
      "ouisian": 5968,
      "Ġfir": 5969,
      "Ġfab": 5970,
      "Ġfant": 5971,
      "Ġfine": 5972,
      "Ġflex": 5973,
      "Ġfibr": 5974,
      "Ġfires": 5975,
      "Ġfiring": 5976,
      "Ġfinger": 5977,
      "Ġfragment": 5978,
      "icide": 5979,
      "icient": 5980,
      "Ġinch": 5981,
      "Ġinform": 5982,
      "Ġinhib": 5983,
      "Ġinternal": 5984,
      "Ġinnov": 5985,
      "Ġmer": 5986,
      "Ġmart": 5987,
      "Ġmast": 5988,
      "Ġmyst": 5989,
      "Ġmouse": 5990,
      "Ġmental": 5991,
      "Ġmason": 5992,
      "Ġmedia": 5993,
      "Ġmaster": 5994,
      "Ġmillions": 5995,
      "aration": 5996,
      "arah": 5997,
      "Ġdiversity": 5998,
      "Ġdio": 5999,
      "Ġdrop": 6000,
      "Ġdream": 6001,
      "Ġdrought": 6002,
      "Ġdoll": 6003,
      "Ġdrew": 6004,
      "ione": 6005,
      "leb": 6006,
      "leading": 6007,
      "rove": 6008,
      "roots": 6009,
      "ctory": 6010,
      "Ġhall": 6011,
      "Ġhost": 6012,
      "Ġhint": 6013,
      "Ġhired": 6014,
      "Ġhope": 6015,
      "Ġhospital": 6016,
      "Ġthron": 6017,
      "aska": 6018,
      "Ġeat": 6019,
      "Ġease": 6020,
      "Ġecho": 6021,
      "Ġearth": 6022,
      "Ġepid": 6023,
      "Ġreass": 6024,
      "Ġretain": 6025,
      "Ġrenew": 6026,
      "Ġreverse": 6027,
      "Ġrehabilit": 6028,
      "sts": 6029,
      "step": 6030,
      "stream": 6031,
      "steps": 6032,
      "ilarly": 6033,
      "ilkes": 6034,
      "omic": 6035,
      "omas": 6036,
      "omberg": 6037,
      "Ġlinks": 6038,
      "Ġlosing": 6039,
      "Ġnations": 6040,
      "Ġnav": 6041,
      "Ġnights": 6042,
      "Ġnerve": 6043,
      "Ġiso": 6044,
      "Ġisol": 6045,
      "Ġisland": 6046,
      "Ġbee": 6047,
      "Ġbeaut": 6048,
      "semble": 6049,
      "imb": 6050,
      "imental": 6051,
      "Ġgal": 6052,
      "Ġgod": 6053,
      "Ġgest": 6054,
      "Ġgene": 6055,
      "Ġgames": 6056,
      "Ġgrown": 6057,
      "Ġgait": 6058,
      "Ġgathe": 6059,
      "Ġgouram": 6060,
      "ĠTr": 6061,
      "ĠTy": 6062,
      "ĠTob": 6063,
      "ĠTues": 6064,
      "ĠTwo": 6065,
      "ĠTisa": 6066,
      "ĠTags": 6067,
      "raged": 6068,
      "utron": 6069,
      "urt": 6070,
      "urass": 6071,
      "urning": 6072,
      "urred": 6073,
      "Ġonto": 6074,
      "Ġongoing": 6075,
      "idents": 6076,
      "idges": 6077,
      "ota": 6078,
      "othe": 6079,
      "otten": 6080,
      "ĠAmy": 6081,
      "Ġforced": 6082,
      "ols": 6083,
      "olamine": 6084,
      "ĠIS": 6085,
      "ĠIV": 6086,
      "ĠId": 6087,
      "ĠIde": 6088,
      "ĠImag": 6089,
      "ĠIUCN": 6090,
      "ĠSm": 6091,
      "ĠSu": 6092,
      "ĠSat": 6093,
      "ĠSem": 6094,
      "ĠSun": 6095,
      "ĠSaint": 6096,
      "ĠSuch": 6097,
      "ĠScho": 6098,
      "ĠSelf": 6099,
      "ĠSpect": 6100,
      "ĠSessions": 6101,
      "ĠSarah": 6102,
      "igan": 6103,
      "igator": 6104,
      "igorous": 6105,
      "ether": 6106,
      "etors": 6107,
      "ĠCe": 6108,
      "ĠCut": 6109,
      "ĠCop": 6110,
      "ĠCall": 6111,
      "ĠCare": 6112,
      "ĠCap": 6113,
      "ĠChem": 6114,
      "ĠCavi": 6115,
      "ĠCitizen": 6116,
      "irty": 6117,
      "Ġstr": 6118,
      "Ġstor": 6119,
      "Ġstew": 6120,
      "Ġstron": 6121,
      "Ġstock": 6122,
      "Ġstaged": 6123,
      "Ġstability": 6124,
      "Ġstring": 6125,
      "Ġstructures": 6126,
      "ifts": 6127,
      "uled": 6128,
      "ulner": 6129,
      "ulerships": 6130,
      "Ġproce": 6131,
      "Ġproced": 6132,
      "ament": 6133,
      "amide": 6134,
      "amber": 6135,
      "ameter": 6136,
      "ĠMD": 6137,
      "ĠMel": 6138,
      "ĠMore": 6139,
      "ĠMass": 6140,
      "ĠMove": 6141,
      "ĠMumb": 6142,
      "ĠMMS": 6143,
      "ĠMasse": 6144,
      "elp": 6145,
      "elcome": 6146,
      "ada": 6147,
      "adult": 6148,
      "ademic": 6149,
      "emplo": 6150,
      "Ġcongest": 6151,
      "Ġcongen": 6152,
      "istant": 6153,
      "riage": 6154,
      "rique": 6155,
      "Ġaren": 6156,
      "nders": 6157,
      "ĠPA": 6158,
      "ĠPD": 6159,
      "ĠPat": 6160,
      "ĠPas": 6161,
      "ĠPain": 6162,
      "ĠProm": 6163,
      "ĠPart": 6164,
      "ĠPower": 6165,
      "ĠPipel": 6166,
      "ĠPenn": 6167,
      "ĠPisces": 6168,
      "ĠPleas": 6169,
      "tering": 6170,
      "Ġmov": 6171,
      "Ġmoves": 6172,
      "Ġ(\"": 6173,
      "oper": 6174,
      "opkins": 6175,
      "ĠBC": 6176,
      "ĠBra": 6177,
      "ĠBot": 6178,
      "ĠBir": 6179,
      "ĠBel": 6180,
      "ĠBlo": 6181,
      "ĠBased": 6182,
      "ĠBolivia": 6183,
      "ĠBudd": 6184,
      "Ġalive": 6185,
      "Ġalike": 6186,
      "Ġalthough": 6187,
      "osm": 6188,
      "oshu": 6189,
      "Ġitching": 6190,
      "Ġexhaust": 6191,
      "Ġhero": 6192,
      "uming": 6193,
      "umption": 6194,
      "umps": 6195,
      "Ġatoms": 6196,
      "ĠHad": 6197,
      "ĠHere": 6198,
      "ĠHIV": 6199,
      "ĠHuman": 6200,
      "ĠHOLY": 6201,
      "ĠHopkins": 6202,
      "essays": 6203,
      "Ġhabit": 6204,
      "usions": 6205,
      "Ġsuper": 6206,
      "Ġsupers": 6207,
      "ĠFr": 6208,
      "ĠFrom": 6209,
      "ĠFound": 6210,
      "ĠFood": 6211,
      "ĠFocus": 6212,
      "ĠFinally": 6213,
      "ĠFlor": 6214,
      "ĠFortunately": 6215,
      "ĠFalcon": 6216,
      "Ġdeb": 6217,
      "Ġdeal": 6218,
      "Ġdead": 6219,
      "oday": 6220,
      "illary": 6221,
      "abol": 6222,
      "abai": 6223,
      "Ġru": 6224,
      "Ġrich": 6225,
      "Ġrough": 6226,
      "Ġrub": 6227,
      "Ġridge": 6228,
      "Ġchron": 6229,
      "Ġchamber": 6230,
      "anta": 6231,
      "antinople": 6232,
      "ĠWild": 6233,
      "ĠWood": 6234,
      "ĠWhether": 6235,
      "ĠWendy": 6236,
      "Ġvitt": 6237,
      "Ġvote": 6238,
      "Ġvoices": 6239,
      "Ġvocabulary": 6240,
      "Ġvigorous": 6241,
      "Ġvulner": 6242,
      "estiv": 6243,
      "ĠEp": 6244,
      "ĠEcological": 6245,
      "ĠEcology": 6246,
      "ĠRo": 6247,
      "ĠRu": 6248,
      "ĠRel": 6249,
      "ĠRich": 6250,
      "ĠRock": 6251,
      "ĠRoy": 6252,
      "ĠRape": 6253,
      "ĠRober": 6254,
      "ĠRabb": 6255,
      "ĠRena": 6256,
      "ĠRedu": 6257,
      "ĠRafter": 6258,
      "alled": 6259,
      "âĢĻ,": 6260,
      "Ġwash": 6261,
      "Ġwasn": 6262,
      "Ġwashing": 6263,
      "Ġnearly": 6264,
      "Ġneuro": 6265,
      "acu": 6266,
      "ĠGl": 6267,
      "ĠGet": 6268,
      "ĠGlobal": 6269,
      "ĠGeriatric": 6270,
      "Ġsees": 6271,
      "Ġsevent": 6272,
      "Ġsearch": 6273,
      "Ġsecular": 6274,
      "Ġseeds": 6275,
      "Ġsecede": 6276,
      "outs": 6277,
      "ĠDid": 6278,
      "ĠDry": 6279,
      "ĠDPI": 6280,
      "ĠDivision": 6281,
      "ĠDonation": 6282,
      "ocation": 6283,
      "ocks": 6284,
      "areware": 6285,
      "arts": 6286,
      "Ġusage": 6287,
      "Ġshi": 6288,
      "Ġshock": 6289,
      "Ġships": 6290,
      "Ġshift": 6291,
      "ĠLE": 6292,
      "ĠLin": 6293,
      "ĠLand": 6294,
      "ĠLong": 6295,
      "ĠLiter": 6296,
      "ĠLomb": 6297,
      "ĠLibrary": 6298,
      "ĠLesson": 6299,
      "ĠLouisian": 6300,
      "Ġ25": 6301,
      "Ġkn": 6302,
      "Ġkil": 6303,
      "Ġkill": 6304,
      "Ġknew": 6305,
      "Ġkilled": 6306,
      "rous": 6307,
      "ancell": 6308,
      "ightly": 6309,
      "ineers": 6310,
      "Ġpla": 6311,
      "ender": 6312,
      "endix": 6313,
      "unk": 6314,
      "unctions": 6315,
      "through": 6316,
      "agraph": 6317,
      "Ġacres": 6318,
      "Ġacademic": 6319,
      "ĠNative": 6320,
      "ĠNever": 6321,
      "ĠNatural": 6322,
      "ĠNext": 6323,
      "ĠOf": 6324,
      "ĠOr": 6325,
      "ĠOwn": 6326,
      "ĠOpen": 6327,
      "pert": 6328,
      "ouses": 6329,
      "ĠUp": 6330,
      "ĠUss": 6331,
      "ĠUpper": 6332,
      "ĠJer": 6333,
      "ĠJose": 6334,
      "ĠJacks": 6335,
      "ĠJefferson": 6336,
      "ĠJesus": 6337,
      "Ġperme": 6338,
      "Ġperipher": 6339,
      "ogging": 6340,
      "Ġenh": 6341,
      "Ġenab": 6342,
      "Ġenables": 6343,
      "Ġencoura": 6344,
      "Ġresur": 6345,
      "Ġreserved": 6346,
      "Ġcompare": 6347,
      "Ġcomposition": 6348,
      "Ġadds": 6349,
      "Ġadvice": 6350,
      "Ġcontest": 6351,
      "Ġcontrovers": 6352,
      "atera": 6353,
      "igns": 6354,
      "ignition": 6355,
      "Ġprecis": 6356,
      "Ġpreced": 6357,
      "Ġpregn": 6358,
      "Ġmanner": 6359,
      "Ġknows": 6360,
      "Ġknowing": 6361,
      "âĢĿ,": 6362,
      "âĢĿ.": 6363,
      "ephil": 6364,
      "ibilities": 6365,
      "Ġimpression": 6366,
      "earing": 6367,
      "earchers": 6368,
      "ruary": 6369,
      "ruption": 6370,
      "ĠThus": 6371,
      "ĠThreat": 6372,
      "ĠThomas": 6373,
      "Ġincident": 6374,
      "Ġgoverning": 6375,
      "Ġdojo": 6376,
      "Ġarth": 6377,
      "Ġarise": 6378,
      "Ġarmy": 6379,
      "astro": 6380,
      "Ġyourself": 6381,
      "Ġdisapp": 6382,
      "Ġdisorder": 6383,
      "avia": 6384,
      "ĠKat": 6385,
      "ĠKenn": 6386,
      "Ġpeas": 6387,
      "Ġ1940": 6388,
      "Ġ1914": 6389,
      "Ġappe": 6390,
      "Ġapparent": 6391,
      "Ġjunction": 6392,
      "Ġjournal": 6393,
      "Ġjunctions": 6394,
      "Ġunion": 6395,
      "Ġuncle": 6396,
      "Ġunified": 6397,
      "Ġunfortunately": 6398,
      "Ġunemplo": 6399,
      "orders": 6400,
      "plex": 6401,
      "Ġpole": 6402,
      "cription": 6403,
      "Ġtraditions": 6404,
      "Ġclick": 6405,
      "Ġclosed": 6406,
      "Ġclips": 6407,
      "Ġcloser": 6408,
      "Ġclothing": 6409,
      "Ġsport": 6410,
      "Ġspont": 6411,
      "Ġspread": 6412,
      "ĠSte": 6413,
      "ĠStation": 6414,
      "ĠStruggle": 6415,
      "Ġsomehow": 6416,
      "Ġefficient": 6417,
      "Ġteen": 6418,
      "ĠIts": 6419,
      "Ġqueen": 6420,
      "Ġqualities": 6421,
      "aneous": 6422,
      "Ġevap": 6423,
      "Ġevacu": 6424,
      "aintance": 6425,
      "Ġupward": 6426,
      "Ġrepair": 6427,
      "Ġcommitting": 6428,
      "Ġ2002": 6429,
      "Ġspeaking": 6430,
      "ishing": 6431,
      "Ġexpress": 6432,
      "Ġexplo": 6433,
      "Ġexpansion": 6434,
      "Ġempire": 6435,
      "Ġemissions": 6436,
      "190": 6437,
      "194": 6438,
      "1943": 6439,
      "oster": 6440,
      "Ġattrib": 6441,
      "Ġattended": 6442,
      "Ġattacks": 6443,
      "Ġattending": 6444,
      "Ġproductions": 6445,
      "Ġroots": 6446,
      "rence": 6447,
      "Ġnovel": 6448,
      "akh": 6449,
      "ako": 6450,
      "aken": 6451,
      "Ġcounted": 6452,
      "Ġrelation": 6453,
      "Ġrelatives": 6454,
      "Ġreliable": 6455,
      "web": 6456,
      "Ġsched": 6457,
      "Ġnewly": 6458,
      "issance": 6459,
      "phur": 6460,
      "phones": 6461,
      "hesia": 6462,
      "hesized": 6463,
      "Ġworkers": 6464,
      "Ġworkouts": 6465,
      "lude": 6466,
      "Ġrare": 6467,
      "Ġrapid": 6468,
      "Ġexamined": 6469,
      "ieve": 6470,
      "iece": 6471,
      "Ġ45": 6472,
      "Ġ47": 6473,
      "Ġoverview": 6474,
      "ismuth": 6475,
      "ittee": 6476,
      "Ġ33": 6477,
      "Ġ34": 6478,
      "rams": 6479,
      "Ġunderlying": 6480,
      "Ġartists": 6481,
      "ĠVen": 6482,
      "ĠVari": 6483,
      "ĠVII": 6484,
      "ĠValu": 6485,
      "ĠVolume": 6486,
      "ĠVictor": 6487,
      "Ġindic": 6488,
      "Ġindicate": 6489,
      "Ġmodes": 6490,
      "Ġmodels": 6491,
      "ĠRebels": 6492,
      "Ġcrew": 6493,
      "Ġparash": 6494,
      "Ġparalle": 6495,
      "Ġpolice": 6496,
      "Ġdirector": 6497,
      "Ġdirecting": 6498,
      "Ġsurg": 6499,
      "Ġsurre": 6500,
      "Ġsurround": 6501,
      "Ġsurfaces": 6502,
      "rotected": 6503,
      "Ġmeters": 6504,
      "Ġmetabol": 6505,
      "ĠChurch": 6506,
      "ĠChancell": 6507,
      "Ġassigned": 6508,
      "gyrat": 6509,
      "everal": 6510,
      "Ġsigns": 6511,
      "rows": 6512,
      "Ġinfer": 6513,
      "Ġinfected": 6514,
      "Ġsubstant": 6515,
      "Ġdifferently": 6516,
      "Ġcolors": 6517,
      "Ġcollection": 6518,
      "Ġtried": 6519,
      "Ġtriumph": 6520,
      "Ġacquired": 6521,
      "Ġjustice": 6522,
      "encing": 6523,
      "llent": 6524,
      "Ġpresses": 6525,
      "Ġreader": 6526,
      "Ġreadings": 6527,
      "Ġlegs": 6528,
      "Ġseeking": 6529,
      "ructor": 6530,
      "Ġelectronics": 6531,
      "neg": 6532,
      "Ġsmo": 6533,
      "Ġsmooth": 6534,
      "Ġsimultane": 6535,
      "Ġdistingu": 6536,
      "uthors": 6537,
      "....": 6538,
      "Ġcovers": 6539,
      "Ġsolutions": 6540,
      "Ġsolvents": 6541,
      "Ġinterface": 6542,
      "Ġintersect": 6543,
      "Ġprocesses": 6544,
      "ĠFrancaf": 6545,
      "text": 6546,
      "isei": 6547,
      "arkable": 6548,
      "Ġremarkable": 6549,
      "ĠÂ°": 6550,
      "Ġtransl": 6551,
      "Ġrestored": 6552,
      "Ġrestrict": 6553,
      "Ġgrad": 6554,
      "Ġadditives": 6555,
      "Ġfee": 6556,
      "ometer": 6557,
      "Ġlongest": 6558,
      "Ġobjectives": 6559,
      "Ġ51": 6560,
      "Ġ55": 6561,
      "Ġinitiate": 6562,
      "Ġinitiated": 6563,
      "Ġapproximately": 6564,
      "Ġoperational": 6565,
      "Ġoccas": 6566,
      "Ġoccup": 6567,
      "Ġelev": 6568,
      "Ġelevation": 6569,
      "Ġfoundation": 6570,
      "Ġextre": 6571,
      "Ġextent": 6572,
      "Ġextended": 6573,
      "Ġextensive": 6574,
      "Ġshel": 6575,
      "vernment": 6576,
      "ĠPropri": 6577,
      "Ġtermin": 6578,
      "Ġcarries": 6579,
      "Ġindustrial": 6580,
      "Ġaccum": 6581,
      "play": 6582,
      "ĠAde": 6583,
      "ĠAdvan": 6584,
      "ĠAdansonia": 6585,
      "Ġleader": 6586,
      "ercises": 6587,
      "ĠAsk": 6588,
      "Ġstatehood": 6589,
      "Ġstatewide": 6590,
      "Ġedges": 6591,
      "Ġcoron": 6592,
      "Ġplanning": 6593,
      "Ġblade": 6594,
      "Ġblends": 6595,
      "Ġlesson": 6596,
      "Ġorganization": 6597,
      "ĠOctane": 6598,
      "Ġreports": 6599,
      "axy": 6600,
      "ymode": 6601,
      "Ġcaps": 6602,
      "Ġcapable": 6603,
      "Ġphase": 6604,
      "Ġminority": 6605,
      "Ġminimize": 6606,
      "ĠPlay": 6607,
      "ĠPlant": 6608,
      "ĠPlace": 6609,
      "ĠDecision": 6610,
      "Ġstudying": 6611,
      "Ġrecords": 6612,
      "Ġsubjective": 6613,
      "103": 6614,
      "Ġ65": 6615,
      "atherine": 6616,
      "Ġlimits": 6617,
      "ĠScandin": 6618,
      "ĠCleft": 6619,
      "Ġcomputing": 6620,
      "Ġ741": 6621,
      "Ġmuscles": 6622,
      "Ġrealm": 6623,
      "Ġreality": 6624,
      "Ġstatus": 6625,
      "Ġcharact": 6626,
      "Ġcharged": 6627,
      "ccessful": 6628,
      "Ġpassing": 6629,
      "ĠSoon": 6630,
      "ĠCorb": 6631,
      "Ġrulers": 6632,
      "Ġobserve": 6633,
      "Ġobservation": 6634,
      "Ġsentences": 6635,
      "Ġsending": 6636,
      "Ġcopies": 6637,
      "ĠNews": 6638,
      "nalysis": 6639,
      "pring": 6640,
      "Ġtrash": 6641,
      "Ġtrunk": 6642,
      "enger": 6643,
      "Ġpopulations": 6644,
      "Ġbalcon": 6645,
      "ĠTherefore": 6646,
      "ĠExercises": 6647,
      "Ġperiods": 6648,
      "Ġdifficulties": 6649,
      "Ġideological": 6650,
      "Ġwarm": 6651,
      "Ġfactor": 6652,
      "Ġfactory": 6653,
      "Ġdepend": 6654,
      "Ġviscosity": 6655,
      "ĠJohns": 6656,
      "Ġdesignation": 6657,
      "cula": 6658,
      "Ġturns": 6659,
      "Ġpurified": 6660,
      "Ġdiet": 6661,
      "Ġissued": 6662,
      "Ġpredation": 6663,
      "Ġcontinuity": 6664,
      "Ġcontinuous": 6665,
      "Ġequipp": 6666,
      "ĠAnne": 6667,
      "Ġconcl": 6668,
      "Ġconcrete": 6669,
      "Ġseemed": 6670,
      "Ġexplain": 6671,
      "Ġmeasurements": 6672,
      "portation": 6673,
      "Ġuttered": 6674,
      "Ġskill": 6675,
      "Ġbelong": 6676,
      "Ġ127": 6677,
      "Ġviewed": 6678,
      "ĠUSA": 6679,
      "Ġ1990": 6680,
      "Ġ1991": 6681,
      "Ġ1995": 6682,
      "Ġslightly": 6683,
      "enna": 6684,
      "ennium": 6685,
      "Ġfilmed": 6686,
      "ĠCoast": 6687,
      "Ġconfiguration": 6688,
      "Ġrisks": 6689,
      "Ġimproved": 6690,
      "Ġprimarily": 6691,
      "Ġpresenting": 6692,
      "iquette": 6693,
      "Ġtrends": 6694,
      "Ġcircus": 6695,
      "Ġbirds": 6696,
      "Ġfoods": 6697,
      "Ġfocuses": 6698,
      "Ġfocused": 6699,
      "Ġdeliver": 6700,
      "Ġsuccessfully": 6701,
      "ĠEmma": 6702,
      "ibraries": 6703,
      "Ġmeanings": 6704,
      "Ġscientific": 6705,
      "Any": 6706,
      "Ġprior": 6707,
      "Ġelb": 6708,
      "ĠAndes": 6709,
      "ĠConstant": 6710,
      "Ġ166": 6711,
      "Ġ168": 6712,
      "ĠDoes": 6713,
      "Ġkinds": 6714,
      "Ġappearance": 6715,
      "Ġpolyamide": 6716,
      "Ġindependent": 6717,
      "Ġdetermine": 6718,
      "Exod": 6719,
      "Struggle": 6720,
      "gov": 6721,
      "Ġentered": 6722,
      "Ġautumn": 6723,
      "Ġbigger": 6724,
      "Ġfunctional": 6725,
      "Ġrelevant": 6726,
      "Ġlasted": 6727,
      "ĠTechnology": 6728,
      "Ġletter": 6729,
      "Ġletting": 6730,
      "ĠOnly": 6731,
      "Ġadvance": 6732,
      "Ġadvised": 6733,
      "Ġradioactive": 6734,
      "Ġavailability": 6735,
      "Although": 6736,
      "Alouds": 6737,
      "ipping": 6738,
      "undred": 6739,
      "Ġfourth": 6740,
      "Ġdrawing": 6741,
      "Ġreviewed": 6742,
      "Ġlapt": 6743,
      "Ġ150": 6744,
      "Ġchoice": 6745,
      "ĠLeague": 6746,
      "Ġ1986": 6747,
      "Ġ1989": 6748,
      "Ġaffecting": 6749,
      "Ġesc": 6750,
      "Ġversions": 6751,
      "Ġinsights": 6752,
      "Ġstrategy": 6753,
      "Ġsecurity": 6754,
      "fficient": 6755,
      "Ġinterests": 6756,
      "Ġinteresting": 6757,
      "1983": 6758,
      "1989": 6759,
      "Ġartistic": 6760,
      "Ġrepresenting": 6761,
      "Ġrepresentations": 6762,
      "trade": 6763,
      "Ġtendencies": 6764,
      "Ġcampus": 6765,
      "Ġbasis": 6766,
      "Ġinjuries": 6767,
      "Ġmurals": 6768,
      "Ġreceivers": 6769,
      "Ġstorytelling": 6770,
      "ĠManager": 6771,
      "arents": 6772,
      "Ġmethodologies": 6773,
      "Ġparticipating": 6774,
      "Ġrespectively": 6775,
      "Ġchemically": 6776,
      "Ġchemistry": 6777,
      "ĠResearchers": 6778,
      "azine": 6779,
      "Ġurine": 6780,
      "Ġsquee": 6781,
      "ĠMarries": 6782,
      "Ġsugar": 6783,
      "ĠDrilling": 6784,
      "ustrated": 6785,
      "Ġrecognised": 6786,
      "Ġregistered": 6787,
      "Ġregistration": 6788,
      "Ġtransportation": 6789,
      "Ġimmediate": 6790,
      "Ġclosely": 6791,
      "Ġbeneficial": 6792,
      "methyl": 6793,
      "yright": 6794,
      "yrdom": 6795,
      "ĠQU": 6796,
      "Ġanimals": 6797,
      "Ġfriend": 6798,
      "Ġmorphology": 6799,
      "Ġharvest": 6800,
      "Ġgenet": 6801,
      "Ġconversations": 6802,
      "ĠHurricanes": 6803,
      "ĠReport": 6804,
      "ĠDisabilities": 6805,
      "Ġintroduce": 6806,
      "Ġintroduction": 6807,
      "Ġintroductory": 6808,
      "Ġattempted": 6809,
      "Ġreligious": 6810,
      "Ġcorresponded": 6811,
      "Ġdiagnosis": 6812,
      "Ġidentifying": 6813,
      "Ġpolymerization": 6814,
      "Ġvehicle": 6815,
      "lishing": 6816,
      "Ġmarried": 6817,
      "Ġrecover": 6818,
      "Ġlarger": 6819,
      "Ġlabs": 6820,
      "Ġliterature": 6821,
      "ĠArea": 6822,
      "ĠAustral": 6823,
      "ĠContin": 6824,
      "ĠPeople": 6825,
      "Ġsuffering": 6826,
      "ĠKingdom": 6827,
      "1927": 6828,
      "Ġrecommends": 6829,
      "Ġreferred": 6830,
      "Ġrafters": 6831,
      "ĠChristian": 6832,
      "Ġcolorful": 6833,
      "Ġbrothers": 6834,
      "ciliation": 6835,
      "ference": 6836,
      "Ġenterprise": 6837,
      "rected": 6838,
      "Ġrepeal": 6839,
      "olivian": 6840,
      "Ġundulating": 6841,
      "Ġorbits": 6842,
      "ĠParis": 6843,
      "ĠParrot": 6844,
      "ĠByzant": 6845,
      "ĠGovernment": 6846,
      "ĠGrey": 6847,
      "Ġarms": 6848,
      "Ġdiscard": 6849,
      "Ġ1961": 6850,
      "Ġpoems": 6851,
      "Ġconsumption": 6852,
      "Ġinstructed": 6853,
      "Ġinstructions": 6854,
      "Ġinstrumental": 6855,
      "Ġremoving": 6856,
      "Ġprinciple": 6857,
      "Ġexperienced": 6858,
      "Ġdestroy": 6859,
      "Ġbeginning": 6860,
      "Ġtelepathically": 6861,
      "2002": 6862,
      "Because": 6863,
      "Ġtasks": 6864,
      "Ġslept": 6865,
      "Ġslowly": 6866,
      "Ġpainting": 6867,
      "Ġpieces": 6868,
      "Ġancest": 6869,
      "Ġancient": 6870,
      "Ġbreak": 6871,
      "Ġfinished": 6872,
      "Ġfigures": 6873,
      "Ġecosystems": 6874,
      "Ġredirect": 6875,
      "ĠTeaching": 6876,
      "ĠAccept": 6877,
      "ĠAgency": 6878,
      "Ġprogressive": 6879,
      "ĠMinor": 6880,
      "ĠMillennium": 6881,
      "Ġvoters": 6882,
      "Ġarchives": 6883,
      "Ġarchitect": 6884,
      "Ġexpanded": 6885,
      "Ġscenario": 6886,
      "Ġassessment": 6887,
      "Ġcarrying": 6888,
      "Ġeducational": 6889,
      "Ġlandscapes": 6890,
      "Ġgrassroots": 6891,
      "Ġutilized": 6892,
      "Ġillustrations": 6893,
      "Ġillustrating": 6894,
      "ĠWilliams": 6895,
      "4323": 6896,
      "Second": 6897,
      "sylvan": 6898,
      "Ġachieved": 6899,
      "Ġwinds": 6900,
      "Ġbuilt": 6901,
      "ourage": 6902,
      "Ġearned": 6903,
      "ĠTraditional": 6904,
      "ĠInteg": 6905,
      "ĠMoves": 6906,
      "ĠMonitoring": 6907,
      "ĠMaybe": 6908,
      "ĠBlanche": 6909,
      "Ġexhibition": 6910,
      "ĠWorld": 6911,
      "ptych": 6912,
      "ĠNovel": 6913,
      "Ġpreferred": 6914,
      "Ġqualified": 6915,
      "Ġrecently": 6916,
      "Ġcollecting": 6917,
      "ĠProgramme": 6918,
      "Ġfacilitator": 6919,
      "Ġdiscoveries": 6920,
      "994323": 6921,
      "December": 6922,
      "atherapy": 6923,
      "Ġcategory": 6924,
      "Ġcategories": 6925,
      "Ġpursu": 6926,
      "Ġpursue": 6927,
      "aloud": 6928,
      "Ġflooding": 6929,
      "Ġglac": 6930,
      "Ġforgotten": 6931,
      "Ġstopped": 6932,
      "ĠMichigan": 6933,
      "ĠPolic": 6934,
      "Ġatomic": 6935,
      "Ġsuitable": 6936,
      "ĠFebruary": 6937,
      "Ġworshiped": 6938,
      "Ġkingdom": 6939,
      "ĠInterim": 6940,
      "Ġintegrated": 6941,
      "Ġrepetitions": 6942,
      "Ġresponded": 6943,
      "Ġresponding": 6944,
      "Ġgrandidieri": 6945,
      "Ġconstitu": 6946,
      "Ġcleaned": 6947,
      "Ġdemonstrated": 6948,
      "ĠIslamic": 6949,
      "Ġastrological": 6950,
      "Ġelsewhere": 6951,
      "Ġvirtual": 6952,
      "Ġvirtually": 6953,
      "downs": 6954,
      "grade": 6955,
      "kyo": 6956,
      "particip": 6957,
      "Ġzero": 6958,
      "Ġaromatherapy": 6959,
      "Ġsacr": 6960,
      "Ġsacred": 6961,
      "Ġpanels": 6962,
      "Ġprone": 6963,
      "Ġfailed": 6964,
      "Ġmedicine": 6965,
      "Ġmagnitude": 6966,
      "ĠAngust": 6967,
      "ĠSkills": 6968,
      "Ġstretching": 6969,
      "ĠMusic": 6970,
      "ĠMuslim": 6971,
      "Ġconducted": 6972,
      "ĠPrevention": 6973,
      "ĠPressure": 6974,
      "Ġexciting": 6975,
      "Ġratio": 6976,
      "ĠWorked": 6977,
      "ĠRemember": 6978,
      "ĠDelaware": 6979,
      "ĠDelhi": 6980,
      "ĠListen": 6981,
      "ĠLawmakers": 6982,
      "hydric": 6983,
      "Ġeventually": 6984,
      "1951": 6985,
      "Ġassistance": 6986,
      "Ġdistributors": 6987,
      "Ġopportunity": 6988,
      "Ġopportunities": 6989,
      "Ġmixture": 6990,
      "Ġmixtures": 6991,
      "ĠCommunist": 6992,
      "ĠQuarter": 6993,
      "Ġadoption": 6994,
      "Ġsustainable": 6995,
      "Ġchallenges": 6996,
      "Ġchallenging": 6997,
      "Ġgirls": 6998,
      "patch": 6999,
      "Ġsulfur": 7000,
      "Ġwonder": 7001,
      "Ġceleb": 7002,
      "Ġfitness": 7003,
      "Ġfemales": 7004,
      "Ġframing": 7005,
      "studymode": 7006,
      "racaine": 7007,
      "ĠAvoid": 7008,
      "ĠApplied": 7009,
      "ĠSolar": 7010,
      "ĠCalcul": 7011,
      "Ġstreets": 7012,
      "ĠMultiple": 7013,
      "Ġconvey": 7014,
      "ĠPainting": 7015,
      "Ġmobility": 7016,
      "Ġdeposits": 7017,
      "Ġvillage": 7018,
      "Ġvessels": 7019,
      "ĠRamabai": 7020,
      "ĠGreece": 7021,
      "ĠDracula": 7022,
      "ĠDirector": 7023,
      "ĠLabor": 7024,
      "ĠLegisl": 7025,
      "ĠJewish": 7026,
      "Ġcontemporary": 7027,
      "Ġpreparing": 7028,
      "Ġmechanism": 7029,
      "ĠVirgin": 7030,
      "Ġcredit": 7031,
      "Ġcollaboration": 7032,
      "Ġgradual": 7033,
      "Ġnegoti": 7034,
      "ĠSeptember": 7035,
      "Explore": 7036,
      "Ġterritories": 7037,
      "Ġharmful": 7038,
      "ĠPeriodic": 7039,
      "Ġmotivation": 7040,
      "Ġasphalthene": 7041,
      "Appendix": 7042,
      "Ionization": 7043,
      "ecutive": 7044,
      "known": 7045,
      "Ġtetracaine": 7046,
      "Ġaquarium": 7047,
      "heptane": 7048,
      "Ġsalmon": 7049,
      "Ġscriptures": 7050,
      "Ġwildfires": 7051,
      "Ġanchor": 7052,
      "Ġbulk": 7053,
      "Ġbreathe": 7054,
      "oulomb": 7055,
      "Ġfrustrated": 7056,
      "Ġdynam": 7057,
      "Ġdipl": 7058,
      "Ġthousands": 7059,
      "Ġreconciliation": 7060,
      "Ġgroove": 7061,
      "Ġultimately": 7062,
      "ĠCategory": 7063,
      "ulsions": 7064,
      "ĠMemorial": 7065,
      "Ġconvenient": 7066,
      "Ġconsequences": 7067,
      "Ġexcellent": 7068,
      "Ġexcessive": 7069,
      "ĠFurthermore": 7070,
      "ĠFuller": 7071,
      "ĠEducation": 7072,
      "ĠGabrieli": 7073,
      "ĠDemocratic": 7074,
      "ĠUtah": 7075,
      "Ġadministrative": 7076,
      "Ġdispute": 7077,
      "Ġevolutionary": 7078,
      "Ġreplace": 7079,
      "Ġemperor": 7080,
      "Ġconscious": 7081,
      "Ġtransmission": 7082,
      "Ġperspective": 7083,
      "ĠBeaux": 7084,
      "ĠScopolamine": 7085,
      "Ġcertified": 7086,
      "ĠUSSR": 7087,
      "ĠStudyMode": 7088,
      "ĠXIII": 7089,
      "ĠMarxist": 7090,
      "Ġdegradation": 7091,
      "Ġsynthesized": 7092,
      "Ġsatisf": 7093,
      "itzvot": 7094,
      "Ġhusband": 7095,
      "ĠMetropolitan": 7096,
      "Ġincorporated": 7097,
      "Ġhorizontal": 7098,
      "Ġillegal": 7099,
      "Activity": 7100,
      "Cleopatra": 7101,
      "Constantinople": 7102,
      "Metallic": 7103,
      "Originally": 7104,
      "Researchers": 7105,
      "authored": 7106,
      "flyovers": 7107,
      "uetooth": 7108,
      "zawad": 7109,
      "Ġafraid": 7110,
      "atabase": 7111,
      "Ġsutures": 7112,
      "Ġsulphur": 7113,
      "Ġsister": 7114,
      "Ġsections": 7115,
      "Ġwalking": 7116,
      "Ġwireless": 7117,
      "Ġcubic": 7118,
      "Ġbaby": 7119,
      "Ġbacteria": 7120,
      "Ġfirm": 7121,
      "Ġfabric": 7122,
      "Ġfibrils": 7123,
      "Ġinnovative": 7124,
      "Ġmasonry": 7125,
      "Ġdioxide": 7126,
      "Ġrehabilitation": 7127,
      "Ġbeautiful": 7128,
      "Ġgathered": 7129,
      "ĠTobey": 7130,
      "ĠImagine": 7131,
      "ĠSchofield": 7132,
      "ĠCallow": 7133,
      "ĠChemistry": 7134,
      "Ġstewards": 7135,
      "Ġstrongest": 7136,
      "ĠMumbai": 7137,
      "ĠMassey": 7138,
      "Ġcongestion": 7139,
      "Ġcongenital": 7140,
      "ĠPennsylvan": 7141,
      "ĠBloomberg": 7142,
      "ĠBuddist": 7143,
      "ĠFlorida": 7144,
      "Ġchronic": 7145,
      "Ġvittata": 7146,
      "Ġvulnerable": 7147,
      "estival": 7148,
      "ĠRichmond": 7149,
      "ĠRenaissance": 7150,
      "ĠReduction": 7151,
      "ĠLiterature": 7152,
      "ĠLouisiana": 7153,
      "ĠUssr": 7154,
      "ĠJoseph": 7155,
      "ĠJackson": 7156,
      "Ġprecise": 7157,
      "Ġunemployed": 7158,
      "Ġattributes": 7159,
      "ĠVariation": 7160,
      "ĠVictoria": 7161,
      "Ġparasha": 7162,
      "Ġsurrounding": 7163,
      "ĠChancellor": 7164,
      "gyratory": 7165,
      "Ġsimultaneously": 7166,
      "ĠFrancafrique": 7167,
      "ĠProprietors": 7168,
      "ĠAdvanced": 7169,
      "Ġequipped": 7170,
      "ĠByzantine": 7171,
      "participant": 7172,
      "ĠPennsylvania": 7173,
      "!\"": 7174,
      "!)": 7175,
      "!âĢĿ": 7176,
      "\"?": 7177,
      "\"âĢĶ": 7178,
      "\"...": 7179,
      "',": 7180,
      ".:": 7181,
      ".âĢĶ": 7182,
      "21": 7183,
      "24": 7184,
      "230": 7185,
      "266": 7186,
      "33": 7187,
      "35": 7188,
      "345": 7189,
      "48": 7190,
      "6103": 7191,
      "70": 7192,
      "77": 7193,
      "79": 7194,
      "800": 7195,
      "98": 7196,
      "AC": 7197,
      "Ar": 7198,
      "And": 7199,
      "Ass": 7200,
      "Alex": 7201,
      "Arizon": 7202,
      "ADDM": 7203,
      "BO": 7204,
      "BW": 7205,
      "Bi": 7206,
      "Bl": 7207,
      "Bre": 7208,
      "Bursitis": 7209,
      "Bottled": 7210,
      "CC": 7211,
      "CE": 7212,
      "Co": 7213,
      "Cs": 7214,
      "Cop": 7215,
      "Crit": 7216,
      "California": 7217,
      "Cardio": 7218,
      "CDC": 7219,
      "CMS": 7220,
      "Cola": 7221,
      "Coulomb": 7222,
      "Dis": 7223,
      "Dep": 7224,
      "DPI": 7225,
      "Dengue": 7226,
      "Denis": 7227,
      "EL": 7228,
      "ET": 7229,
      "Ed": 7230,
      "Every": 7231,
      "Ext": 7232,
      "Europe": 7233,
      "Fu": 7234,
      "Ge": 7235,
      "General": 7236,
      "HA": 7237,
      "Hy": 7238,
      "Have": 7239,
      "History": 7240,
      "HID": 7241,
      "Hanukkah": 7242,
      "Im": 7243,
      "Is": 7244,
      "IEV": 7245,
      "JF": 7246,
      "JPL": 7247,
      "King": 7248,
      "LL": 7249,
      "La": 7250,
      "Le": 7251,
      "Lat": 7252,
      "Let": 7253,
      "Lear": 7254,
      "Last": 7255,
      "London": 7256,
      "MY": 7257,
      "Moses": 7258,
      "Motor": 7259,
      "No": 7260,
      "Nature": 7261,
      "Narrow": 7262,
      "Number": 7263,
      "Oct": 7264,
      "Our": 7265,
      "Once": 7266,
      "Open": 7267,
      "OSS": 7268,
      "Pre": 7269,
      "Pub": 7270,
      "Phys": 7271,
      "QL": 7272,
      "RO": 7273,
      "RT": 7274,
      "RY": 7275,
      "Rad": 7276,
      "Rep": 7277,
      "Russell": 7278,
      "SW": 7279,
      "Sm": 7280,
      "San": 7281,
      "Spe": 7282,
      "System": 7283,
      "Sss": 7284,
      "Since": 7285,
      "Sulf": 7286,
      "Several": 7287,
      "Spring": 7288,
      "TH": 7289,
      "TS": 7290,
      "TX": 7291,
      "Te": 7292,
      "Tri": 7293,
      "Try": 7294,
      "Table": 7295,
      "Take": 7296,
      "Taking": 7297,
      "THE": 7298,
      "Up": 7299,
      "VP": 7300,
      "WE": 7301,
      "Well": 7302,
      "WHID": 7303,
      "WJF": 7304,
      "Zacharias": 7305,
      "ao": 7306,
      "aum": 7307,
      "ault": 7308,
      "avery": 7309,
      "aob": 7310,
      "author": 7311,
      "aired": 7312,
      "bre": 7313,
      "bet": 7314,
      "bour": 7315,
      "bable": 7316,
      "both": 7317,
      "bably": 7318,
      "ca": 7319,
      "cd": 7320,
      "cat": 7321,
      "cort": 7322,
      "city": 7323,
      "cence": 7324,
      "cations": 7325,
      "count": 7326,
      "cast": 7327,
      "cord": 7328,
      "cks": 7329,
      "chen": 7330,
      "cible": 7331,
      "cury": 7332,
      "cling": 7333,
      "circus": 7334,
      "citizens": 7335,
      "called": 7336,
      "dri": 7337,
      "doc": 7338,
      "dard": 7339,
      "deg": 7340,
      "ev": 7341,
      "ein": 7342,
      "eent": 7343,
      "eav": 7344,
      "eco": 7345,
      "electron": 7346,
      "fur": 7347,
      "fers": 7348,
      "from": 7349,
      "flow": 7350,
      "fram": 7351,
      "fined": 7352,
      "filled": 7353,
      "gic": 7354,
      "give": 7355,
      "gun": 7356,
      "gory": 7357,
      "grow": 7358,
      "gling": 7359,
      "guration": 7360,
      "ham": 7361,
      "hill": 7362,
      "hine": 7363,
      "home": 7364,
      "hio": 7365,
      "http": 7366,
      "havi": 7367,
      "hunting": 7368,
      "hundred": 7369,
      "ien": 7370,
      "iot": 7371,
      "iitis": 7372,
      "ienna": 7373,
      "junction": 7374,
      "kers": 7375,
      "kind": 7376,
      "knowledge": 7377,
      "kword": 7378,
      "ls": 7379,
      "lay": 7380,
      "lant": 7381,
      "last": 7382,
      "lings": 7383,
      "lined": 7384,
      "law": 7385,
      "lived": 7386,
      "lights": 7387,
      "md": 7388,
      "men": 7389,
      "mes": 7390,
      "mid": 7391,
      "mers": 7392,
      "mus": 7393,
      "mature": 7394,
      "nn": 7395,
      "ny": 7396,
      "nut": 7397,
      "nation": 7398,
      "nect": 7399,
      "nast": 7400,
      "nected": 7401,
      "number": 7402,
      "oin": 7403,
      "oen": 7404,
      "ole": 7405,
      "over": 7406,
      "oetic": 7407,
      "pm": 7408,
      "prom": 7409,
      "pical": 7410,
      "press": 7411,
      "pron": 7412,
      "pise": 7413,
      "pected": 7414,
      "pread": 7415,
      "paper": 7416,
      "point": 7417,
      "preme": 7418,
      "pathy": 7419,
      "piece": 7420,
      "poetic": 7421,
      "rary": 7422,
      "rating": 7423,
      "rina": 7424,
      "rison": 7425,
      "riment": 7426,
      "rights": 7427,
      "rarium": 7428,
      "sk": 7429,
      "sv": 7430,
      "she": 7431,
      "sle": 7432,
      "some": 7433,
      "sang": 7434,
      "shed": 7435,
      "saf": 7436,
      "sky": 7437,
      "sburgh": 7438,
      "tar": 7439,
      "tled": 7440,
      "tail": 7441,
      "tles": 7442,
      "too": 7443,
      "tual": 7444,
      "tts": 7445,
      "ticle": 7446,
      "time": 7447,
      "uh": 7448,
      "uan": 7449,
      "uct": 7450,
      "uly": 7451,
      "ura": 7452,
      "uel": 7453,
      "uest": 7454,
      "uitive": 7455,
      "urolog": 7456,
      "ufact": 7457,
      "vir": 7458,
      "vity": 7459,
      "vier": 7460,
      "viously": 7461,
      "vision": 7462,
      "viate": 7463,
      "wr": 7464,
      "wor": 7465,
      "wed": 7466,
      "war": 7467,
      "when": 7468,
      "washing": 7469,
      "western": 7470,
      "while": 7471,
      "who": 7472,
      "whel": 7473,
      "xidation": 7474,
      "ys": 7475,
      "yt": 7476,
      "yes": 7477,
      "yle": 7478,
      "yles": 7479,
      "za": 7480,
      "zon": 7481,
      "zard": 7482,
      "zym": 7483,
      "zene": 7484,
      "Â°": 7485,
      "Ã¶": 7486,
      "×ķ": 7487,
      "×Ļ": 7488,
      "Ġ*": 7489,
      "Ġ:": 7490,
      "Ġ>": 7491,
      "Ġ@": 7492,
      "Ġ×": 7493,
      "Ġic": 7494,
      "Ġia": 7495,
      "Ġice": 7496,
      "Ġiron": 7497,
      "ĸ×Ķ": 7498,
      "Ġts": 7499,
      "Ġten": 7500,
      "Ġtor": 7501,
      "Ġtut": 7502,
      "Ġtid": 7503,
      "Ġtill": 7504,
      "Ġtab": 7505,
      "Ġtall": 7506,
      "Ġtight": 7507,
      "Ġtun": 7508,
      "Ġtub": 7509,
      "Ġtone": 7510,
      "Ġtenn": 7511,
      "Ġtape": 7512,
      "Ġtips": 7513,
      "Ġtiny": 7514,
      "Ġtears": 7515,
      "Ġaer": 7516,
      "Ġaro": 7517,
      "Ġaverage": 7518,
      "Ġahead": 7519,
      "Ġapost": 7520,
      "Ġauthors": 7521,
      "heum": 7522,
      "hets": 7523,
      "heme": 7524,
      "inn": 7525,
      "ino": 7526,
      "inent": 7527,
      "iners": 7528,
      "inical": 7529,
      "inth": 7530,
      "inars": 7531,
      "inner": 7532,
      "inett": 7533,
      "inois": 7534,
      "inburgh": 7535,
      "reed": 7536,
      "rest": 7537,
      "reut": 7538,
      "reet": 7539,
      "reds": 7540,
      "rends": 7541,
      "Ġol": 7542,
      "Ġot": 7543,
      "Ġole": 7544,
      "Ġoint": 7545,
      "Ġoption": 7546,
      "Ġoxidation": 7547,
      "Ġtheat": 7548,
      "Ġtheater": 7549,
      "erk": 7550,
      "eric": 7551,
      "erated": 7552,
      "erious": 7553,
      "erie": 7554,
      "erately": 7555,
      "atri": 7556,
      "atial": 7557,
      "atility": 7558,
      "atories": 7559,
      "atoid": 7560,
      "aturally": 7561,
      "Ġsn": 7562,
      "Ġsan": 7563,
      "Ġsess": 7564,
      "Ġsand": 7565,
      "Ġsong": 7566,
      "Ġsold": 7567,
      "Ġsoci": 7568,
      "Ġsway": 7569,
      "Ġseld": 7570,
      "Ġsample": 7571,
      "Ġsedu": 7572,
      "Ġsenior": 7573,
      "oni": 7574,
      "onic": 7575,
      "onif": 7576,
      "onate": 7577,
      "onds": 7578,
      "onistic": 7579,
      "isy": 7580,
      "isher": 7581,
      "isite": 7582,
      "isone": 7583,
      "isode": 7584,
      "isdom": 7585,
      "iscosity": 7586,
      "enzene": 7587,
      "Ġwand": 7588,
      "Ġwest": 7589,
      "Ġwars": 7590,
      "Ġwax": 7591,
      "Ġworth": 7592,
      "Ġwires": 7593,
      "Ġwoes": 7594,
      "Ġwishes": 7595,
      "Ġwelcome": 7596,
      "Ġwisdom": 7597,
      "Ġcm": 7598,
      "Ġcou": 7599,
      "Ġcow": 7600,
      "Ġcul": 7601,
      "Ġcations": 7602,
      "Ġcorn": 7603,
      "Ġcave": 7604,
      "Ġcogn": 7605,
      "Ġcider": 7606,
      "Ġcraft": 7607,
      "Ġcitizen": 7608,
      "Ġcourage": 7609,
      "esity": 7610,
      "Ġpu": 7611,
      "Ġpin": 7612,
      "Ġpen": 7613,
      "Ġpul": 7614,
      "Ġpist": 7615,
      "Ġpour": 7616,
      "Ġpriz": 7617,
      "Ġpup": 7618,
      "Ġpacks": 7619,
      "Ġpray": 7620,
      "oral": 7621,
      "orter": 7622,
      "orance": 7623,
      "orious": 7624,
      "orters": 7625,
      "anks": 7626,
      "anne": 7627,
      "ancial": 7628,
      "anny": 7629,
      "itation": 7630,
      "itig": 7631,
      "itable": 7632,
      "itating": 7633,
      "itons": 7634,
      "itational": 7635,
      "itution": 7636,
      "itably": 7637,
      "edback": 7638,
      "Ġanions": 7639,
      "Ġanoint": 7640,
      "Ġanalog": 7641,
      "Ġanalyst": 7642,
      "Ġbic": 7643,
      "Ġbill": 7644,
      "Ġbare": 7645,
      "Ġbun": 7646,
      "Ġbag": 7647,
      "Ġbric": 7648,
      "Ġbans": 7649,
      "Ġbite": 7650,
      "Ġbrow": 7651,
      "Ġbath": 7652,
      "Ġbark": 7653,
      "Ġbarge": 7654,
      "Ġbob": 7655,
      "Ġbills": 7656,
      "Ġbread": 7657,
      "Ġbumps": 7658,
      "Ġbismuth": 7659,
      "alk": 7660,
      "alar": 7661,
      "alance": 7662,
      "alag": 7663,
      "ingle": 7664,
      "ingly": 7665,
      "ouri": 7666,
      "oured": 7667,
      "Ġfle": 7668,
      "Ġfif": 7669,
      "Ġfres": 7670,
      "Ġfill": 7671,
      "Ġfear": 7672,
      "Ġfled": 7673,
      "Ġfaint": 7674,
      "Ġfles": 7675,
      "Ġfold": 7676,
      "Ġfring": 7677,
      "Ġflying": 7678,
      "Ġfought": 7679,
      "Ġfasc": 7680,
      "Ġfaith": 7681,
      "Ġfelt": 7682,
      "icing": 7683,
      "icking": 7684,
      "icists": 7685,
      "icacy": 7686,
      "Ġinqu": 7687,
      "Ġinau": 7688,
      "Ġinvent": 7689,
      "Ġinternet": 7690,
      "Ġinhab": 7691,
      "Ġinput": 7692,
      "Ġinvas": 7693,
      "Ġinev": 7694,
      "Ġinlined": 7695,
      "Ġmed": 7696,
      "Ġmow": 7697,
      "Ġmort": 7698,
      "Ġmour": 7699,
      "Ġmath": 7700,
      "Ġmudd": 7701,
      "Ġmitzvot": 7702,
      "Ġmitig": 7703,
      "Ġtoy": 7704,
      "Ġtoshi": 7705,
      "Ġtobac": 7706,
      "aro": 7707,
      "aran": 7708,
      "arious": 7709,
      "arger": 7710,
      "arnation": 7711,
      "Ġdog": 7712,
      "Ġdense": 7713,
      "Ġdie": 7714,
      "Ġdivers": 7715,
      "Ġdual": 7716,
      "Ġdict": 7717,
      "Ġdimens": 7718,
      "Ġdancing": 7719,
      "Ġdatabase": 7720,
      "Ġduct": 7721,
      "ionals": 7722,
      "level": 7723,
      "lements": 7724,
      "lets": 7725,
      "lecul": 7726,
      "rooted": 7727,
      "rook": 7728,
      "ctors": 7729,
      "Ġham": 7730,
      "Ġhun": 7731,
      "Ġhang": 7732,
      "Ġhier": 7733,
      "Ġhonse": 7734,
      "Ġhips": 7735,
      "Ġharb": 7736,
      "Ġhunt": 7737,
      "Ġhiring": 7738,
      "Ġhomy": 7739,
      "Ġhatched": 7740,
      "Ġhouses": 7741,
      "Ġthrown": 7742,
      "Ġthickness": 7743,
      "asy": 7744,
      "aser": 7745,
      "asure": 7746,
      "ashed": 7747,
      "asuring": 7748,
      "asters": 7749,
      "ente": 7750,
      "entional": 7751,
      "Ġech": 7752,
      "Ġeating": 7753,
      "Ġelic": 7754,
      "Ġeager": 7755,
      "Ġerected": 7756,
      "ĠeOpen": 7757,
      "Ġreject": 7758,
      "Ġrendered": 7759,
      "Ġreelection": 7760,
      "stre": 7761,
      "sted": 7762,
      "stage": 7763,
      "struct": 7764,
      "structure": 7765,
      "stances": 7766,
      "stanb": 7767,
      "ilic": 7768,
      "ilst": 7769,
      "ilize": 7770,
      "ilty": 7771,
      "ilica": 7772,
      "oma": 7773,
      "omer": 7774,
      "omit": 7775,
      "omatically": 7776,
      "Ġlies": 7777,
      "Ġlose": 7778,
      "Ġlack": 7779,
      "Ġlots": 7780,
      "Ġlift": 7781,
      "Ġlung": 7782,
      "Ġliber": 7783,
      "Ġlux": 7784,
      "Ġlitter": 7785,
      "Ġloud": 7786,
      "Ġlibraries": 7787,
      "Ġlaser": 7788,
      "Ġnour": 7789,
      "Ġnond": 7790,
      "Ġnoun": 7791,
      "Ġnausea": 7792,
      "Ġnisei": 7793,
      "Ġnaturally": 7794,
      "Ġissei": 7795,
      "Ġbever": 7796,
      "Ġbeam": 7797,
      "Ġbeverage": 7798,
      "seven": 7799,
      "sevier": 7800,
      "owan": 7801,
      "owed": 7802,
      "owel": 7803,
      "ceased": 7804,
      "iminal": 7805,
      "iminated": 7806,
      "Ġgam": 7807,
      "Ġgall": 7808,
      "Ġgable": 7809,
      "Ġgame": 7810,
      "Ġguid": 7811,
      "Ġgeriatric": 7812,
      "Ġgender": 7813,
      "Ġgrams": 7814,
      "âĢĵ": 7815,
      "ĠTS": 7816,
      "ĠTur": 7817,
      "ĠTel": 7818,
      "ĠTib": 7819,
      "ĠTry": 7820,
      "ĠTable": 7821,
      "ĠTown": 7822,
      "ĠTrot": 7823,
      "ĠTars": 7824,
      "ĠTots": 7825,
      "ĠTrich": 7826,
      "ĠToday": 7827,
      "ĠTsang": 7828,
      "ĠTinett": 7829,
      "rage": 7830,
      "raction": 7831,
      "raven": 7832,
      "ravity": 7833,
      "utual": 7834,
      "urons": 7835,
      "urgy": 7836,
      "urches": 7837,
      "urately": 7838,
      "Ġonset": 7839,
      "Ġonstage": 7840,
      "iday": 7841,
      "idel": 7842,
      "otes": 7843,
      "otation": 7844,
      "otland": 7845,
      "otional": 7846,
      "ĠAch": 7847,
      "ĠAir": 7848,
      "ĠAuthor": 7849,
      "ĠAma": 7850,
      "ĠAtt": 7851,
      "ĠAges": 7852,
      "ĠAID": 7853,
      "ĠADDM": 7854,
      "ĠAnalysis": 7855,
      "ĠAzawad": 7856,
      "ĠART": 7857,
      "Ġforth": 7858,
      "Ġforcing": 7859,
      "Ġforget": 7860,
      "olat": 7861,
      "olic": 7862,
      "olas": 7863,
      "olved": 7864,
      "olocation": 7865,
      "child": 7866,
      "chap": 7867,
      "chives": 7868,
      "ĠIss": 7869,
      "ĠIgn": 7870,
      "ĠIBW": 7871,
      "ĠSon": 7872,
      "ĠSen": 7873,
      "ĠSed": 7874,
      "ĠSay": 7875,
      "ĠSam": 7876,
      "ĠSand": 7877,
      "ĠSau": 7878,
      "ĠSound": 7879,
      "ĠSense": 7880,
      "ĠSix": 7881,
      "ĠSource": 7882,
      "ĠSina": 7883,
      "ĠSoup": 7884,
      "ĠSites": 7885,
      "ĠSIN": 7886,
      "ĠSpec": 7887,
      "ĠSpan": 7888,
      "ĠSiber": 7889,
      "ĠSanta": 7890,
      "ĠSQL": 7891,
      "igs": 7892,
      "iger": 7893,
      "igent": 7894,
      "igate": 7895,
      "igated": 7896,
      "iguous": 7897,
      "etal": 7898,
      "etition": 7899,
      "etry": 7900,
      "ĠCan": 7901,
      "ĠCoc": 7902,
      "ĠChes": 7903,
      "ĠCold": 7904,
      "ĠCath": 7905,
      "ĠCivil": 7906,
      "ĠCraft": 7907,
      "ĠCouncil": 7908,
      "ĠCatherine": 7909,
      "ĠCTX": 7910,
      "Ġyes": 7911,
      "Ġyonse": 7912,
      "Ġash": 7913,
      "Ġasking": 7914,
      "Ġaspir": 7915,
      "Ġassemble": 7916,
      "iry": 7917,
      "Ġstay": 7918,
      "Ġstain": 7919,
      "Ġstip": 7920,
      "Ġstore": 7921,
      "Ġstating": 7922,
      "Ġstick": 7923,
      "Ġstrug": 7924,
      "Ġstead": 7925,
      "Ġstrict": 7926,
      "Ġstream": 7927,
      "Ġstrange": 7928,
      "ifer": 7929,
      "ifest": 7930,
      "ula": 7931,
      "ulpt": 7932,
      "Ġprove": 7933,
      "Ġproact": 7934,
      "Ġpropos": 7935,
      "Ġproport": 7936,
      "Ġpropositions": 7937,
      "Ġprolong": 7938,
      "Ġprosper": 7939,
      "Ġoral": 7940,
      "Ġordered": 7941,
      "amil": 7942,
      "amount": 7943,
      "amily": 7944,
      "amines": 7945,
      "ĠMA": 7946,
      "ĠMS": 7947,
      "ĠMa": 7948,
      "ĠMy": 7949,
      "ĠMad": 7950,
      "ĠMos": 7951,
      "ĠMaint": 7952,
      "ĠMons": 7953,
      "ĠMural": 7954,
      "ĠMob": 7955,
      "ĠMission": 7956,
      "ĠMax": 7957,
      "ĠMaking": 7958,
      "ĠMiner": 7959,
      "ĠMedia": 7960,
      "ĠMero": 7961,
      "ĠMalian": 7962,
      "ĠMidd": 7963,
      "ĠMohan": 7964,
      "ĠMutual": 7965,
      "herited": 7966,
      "Ġyoushi": 7967,
      "eled": 7968,
      "elines": 7969,
      "elada": 7970,
      "Ġwhite": 7971,
      "Ġwholly": 7972,
      "aded": 7973,
      "adena": 7974,
      "emies": 7975,
      "emiology": 7976,
      "Ġconv": 7977,
      "Ġconver": 7978,
      "Ġconqu": 7979,
      "Ġconvent": 7980,
      "Ġconcent": 7981,
      "Ġconduction": 7982,
      "isting": 7983,
      "istribution": 7984,
      "istribute": 7985,
      "rior": 7986,
      "rian": 7987,
      "rible": 7988,
      "ndant": 7989,
      "ĠPand": 7990,
      "ĠPac": 7991,
      "ĠPear": 7992,
      "ĠPass": 7993,
      "ĠPost": 7994,
      "ĠPitt": 7995,
      "ĠPred": 7996,
      "ĠPhys": 7997,
      "ĠPeg": 7998,
      "ĠPriz": 7999,
      "ĠPipp": 8000,
      "ĠPope": 8001,
      "ĠPeps": 8002,
      "ĠPossible": 8003,
      "ĠPerson": 8004,
      "ĠPool": 8005,
      "ĠPrince": 8006,
      "ĠPalace": 8007,
      "ĠPatera": 8008,
      "ĠParents": 8009,
      "terprise": 8010,
      "Ġmoon": 8011,
      "Ġmolecul": 8012,
      "Ġ(-": 8013,
      "open": 8014,
      "opes": 8015,
      "opular": 8016,
      "oppos": 8017,
      "ĠBas": 8018,
      "ĠBill": 8019,
      "ĠBoth": 8020,
      "ĠBern": 8021,
      "ĠBoy": 8022,
      "ĠBuild": 8023,
      "ĠBenn": 8024,
      "ĠBerg": 8025,
      "ĠBooks": 8026,
      "ĠBring": 8027,
      "ĠBrig": 8028,
      "ĠBiet": 8029,
      "ĠBiology": 8030,
      "ĠBird": 8031,
      "ĠBesides": 8032,
      "ĠBrain": 8033,
      "ĠBrief": 8034,
      "ĠBukh": 8035,
      "ĠBottled": 8036,
      "ĠBolivian": 8037,
      "ĠBEL": 8038,
      "ĠBonif": 8039,
      "ĠBalance": 8040,
      "ĠBrook": 8041,
      "Ġalter": 8042,
      "Ġalign": 8043,
      "Ġalien": 8044,
      "osion": 8045,
      "Ġexile": 8046,
      "Ġexcl": 8047,
      "Ġheir": 8048,
      "Ġheated": 8049,
      "ĠThen": 8050,
      "ĠTheatre": 8051,
      "uma": 8052,
      "umvir": 8053,
      "Ġate": 8054,
      "ĠHen": 8055,
      "ĠHill": 8056,
      "ĠHall": 8057,
      "ĠHew": 8058,
      "ĠHarb": 8059,
      "ĠHaz": 8060,
      "ĠHilling": 8061,
      "ĠHistor": 8062,
      "ĠHunting": 8063,
      "ĠHanukkah": 8064,
      "ĠHearing": 8065,
      "esses": 8066,
      "essment": 8067,
      "Ġhazard": 8068,
      "usually": 8069,
      "usively": 8070,
      "pported": 8071,
      "ques": 8072,
      "quate": 8073,
      "quity": 8074,
      "quality": 8075,
      "Ġcomfort": 8076,
      "ldrich": 8077,
      "Ġsuited": 8078,
      "Ġsudd": 8079,
      "Ġsuicide": 8080,
      "Ġsufficient": 8081,
      "Ġsupreme": 8082,
      "ĠFe": 8083,
      "ĠFem": 8084,
      "ĠFact": 8085,
      "ĠFram": 8086,
      "ĠFred": 8087,
      "ĠFlood": 8088,
      "ĠFunction": 8089,
      "ĠFeder": 8090,
      "ĠFuture": 8091,
      "ĠFPS": 8092,
      "ĠFried": 8093,
      "ĠFrig": 8094,
      "ĠFasc": 8095,
      "ĠFDA": 8096,
      "ĠFoster": 8097,
      "ĠFestival": 8098,
      "ĠFanny": 8099,
      "ĠFamily": 8100,
      "Ġdeed": 8101,
      "Ġdeem": 8102,
      "Ġdehyd": 8103,
      "Ġdeceased": 8104,
      "Ġ11": 8105,
      "Ġ110": 8106,
      "ntial": 8107,
      "ntario": 8108,
      "ods": 8109,
      "abs": 8110,
      "abant": 8111,
      "ablish": 8112,
      "abstract": 8113,
      "abama": 8114,
      "andard": 8115,
      "Ġrall": 8116,
      "Ġrout": 8117,
      "Ġrise": 8118,
      "Ġrsv": 8119,
      "Ġchag": 8120,
      "Ġchap": 8121,
      "Ġchair": 8122,
      "Ġchamp": 8123,
      "Ġchurches": 8124,
      "antly": 8125,
      "ĠWrit": 8126,
      "ĠWires": 8127,
      "ĠWalt": 8128,
      "ĠWOR": 8129,
      "ĠWikipedia": 8130,
      "ĠWilkes": 8131,
      "ighters": 8132,
      "Ġvia": 8133,
      "Ġvary": 8134,
      "Ġvile": 8135,
      "Ġvamp": 8136,
      "Ġvital": 8137,
      "Ġvibr": 8138,
      "Ġvanad": 8139,
      "Ġvomit": 8140,
      "estinal": 8141,
      "ĠEv": 8142,
      "ĠEnd": 8143,
      "ĠEth": 8144,
      "ĠEric": 8145,
      "ĠErie": 8146,
      "ĠElectron": 8147,
      "ĠEvolution": 8148,
      "ĠEPA": 8149,
      "ĠEULA": 8150,
      "ĠElements": 8151,
      "ĠEquity": 8152,
      "ĠRF": 8153,
      "ĠRP": 8154,
      "ĠRed": 8155,
      "ĠRom": 8156,
      "ĠRet": 8157,
      "ĠRoc": 8158,
      "ĠRub": 8159,
      "ĠRather": 8160,
      "ĠRita": 8161,
      "ĠRulerships": 8162,
      "ĠRhine": 8163,
      "allinity": 8164,
      "âĢĻ.": 8165,
      "dule": 8166,
      "Ġlets": 8167,
      "Ġleaving": 8168,
      "udents": 8169,
      "ured": 8170,
      "uren": 8171,
      "Ġneutron": 8172,
      "Ġneurolog": 8173,
      "Ġneurons": 8174,
      "acc": 8175,
      "acre": 8176,
      "acology": 8177,
      "ĠGard": 8178,
      "ĠGround": 8179,
      "ĠGene": 8180,
      "ĠGuild": 8181,
      "ĠGyrat": 8182,
      "ĠGaz": 8183,
      "ĠGRE": 8184,
      "ĠGrove": 8185,
      "ĠGastro": 8186,
      "ĠGravity": 8187,
      "ptain": 8188,
      "ivor": 8189,
      "ivities": 8190,
      "Ġseal": 8191,
      "Ġseven": 8192,
      "ichi": 8193,
      "outo": 8194,
      "ĠDon": 8195,
      "ĠDay": 8196,
      "ĠDate": 8197,
      "ĠDav": 8198,
      "ĠDays": 8199,
      "ĠDak": 8200,
      "ĠDrug": 8201,
      "ĠDaily": 8202,
      "ĠDIO": 8203,
      "ĠDLR": 8204,
      "ĠDOI": 8205,
      "ĠDistribution": 8206,
      "ocal": 8207,
      "ocate": 8208,
      "ocide": 8209,
      "ocates": 8210,
      "ocols": 8211,
      "Ġnotes": 8212,
      "Ġnoted": 8213,
      "Ġnoticed": 8214,
      "Ġnotorious": 8215,
      "arely": 8216,
      "arted": 8217,
      "artments": 8218,
      "artists": 8219,
      "artphones": 8220,
      "Ġshus": 8221,
      "Ġshap": 8222,
      "Ġshape": 8223,
      "Ġshiny": 8224,
      "Ġshifts": 8225,
      "Ġshaken": 8226,
      "Ġshipping": 8227,
      "ĠLi": 8228,
      "ĠLow": 8229,
      "ĠLive": 8230,
      "ĠLight": 8231,
      "ĠLast": 8232,
      "ĠLane": 8233,
      "ĠLife": 8234,
      "ĠLock": 8235,
      "ĠLangu": 8236,
      "ĠLiver": 8237,
      "ĠLarger": 8238,
      "Ġworse": 8239,
      "Ġworry": 8240,
      "Ġ22": 8241,
      "Ġ28": 8242,
      "Ġka": 8243,
      "Ġkilling": 8244,
      "Ġkoff": 8245,
      "Ġkoshu": 8246,
      "Ġkako": 8247,
      "Ġcance": 8248,
      "ardian": 8249,
      "They": 8250,
      "roup": 8251,
      "ighton": 8252,
      "ighted": 8253,
      "ffee": 8254,
      "Ġwea": 8255,
      "Ġwear": 8256,
      "Ġweap": 8257,
      "Ġweave": 8258,
      "Ġwearing": 8259,
      "oural": 8260,
      "ourney": 8261,
      "Ġplumb": 8262,
      "Ġimper": 8263,
      "this": 8264,
      "thals": 8265,
      "threat": 8266,
      "thouse": 8267,
      "ago": 8268,
      "agand": 8269,
      "agog": 8270,
      "agasc": 8271,
      "Ġacoust": 8272,
      "ĠNic": 8273,
      "ĠNow": 8274,
      "ĠNature": 8275,
      "ĠNormal": 8276,
      "ĠNorthern": 8277,
      "ĠNov": 8278,
      "ĠNOT": 8279,
      "ĠNOR": 8280,
      "ĠNorway": 8281,
      "ĠNephil": 8282,
      "ĠNiger": 8283,
      "ĠOft": 8284,
      "ĠOral": 8285,
      "ĠOtt": 8286,
      "ĠOrange": 8287,
      "ĠOhio": 8288,
      "ĠOntario": 8289,
      "perger": 8290,
      "ĠInf": 8291,
      "ĠIns": 8292,
      "Ġabol": 8293,
      "Ġaband": 8294,
      "Ġabdom": 8295,
      "Ġabstract": 8296,
      "Ġsole": 8297,
      "Ġsovere": 8298,
      "ĠUC": 8299,
      "ĠJac": 8300,
      "ĠJenn": 8301,
      "ĠJune": 8302,
      "ĠJuly": 8303,
      "ustrate": 8304,
      "Ġperil": 8305,
      "Ġperception": 8306,
      "ewell": 8307,
      "ogether": 8308,
      "Ġ\"'": 8309,
      "Ġenable": 8310,
      "Ġenact": 8311,
      "Ġencl": 8312,
      "Ġenzym": 8313,
      "Ġmap": 8314,
      "Ġmaze": 8315,
      "Ġmakers": 8316,
      "Ġresident": 8317,
      "Ġresidence": 8318,
      "Ġcompl": 8319,
      "Ġcompound": 8320,
      "Ġcomposed": 8321,
      "Ġcompressed": 8322,
      "Ġcomparing": 8323,
      "Ġcompelling": 8324,
      "Ġcompression": 8325,
      "Ġcomposer": 8326,
      "Ġcompounds": 8327,
      "Ġintend": 8328,
      "Ġintros": 8329,
      "Ġintuitive": 8330,
      "Ġintentional": 8331,
      "Ġade": 8332,
      "Ġadmit": 8333,
      "nowing": 8334,
      "Ġbutton": 8335,
      "ulture": 8336,
      "Ġcontents": 8337,
      "Ġcontext": 8338,
      "Ġcontribute": 8339,
      "software": 8340,
      "Ġallies": 8341,
      "Ġallergy": 8342,
      "Ġallerg": 8343,
      "Ġalliance": 8344,
      "ellow": 8345,
      "Ġdesire": 8346,
      "Ġdesired": 8347,
      "Ġdesires": 8348,
      "Ġdeserve": 8349,
      "Ġdespise": 8350,
      "Ġpreposition": 8351,
      "Ġprecede": 8352,
      "Ġpremature": 8353,
      "Ġmanaging": 8354,
      "Ġmanager": 8355,
      "Ġmanufact": 8356,
      "Ġdiffs": 8357,
      "Ġdiffering": 8358,
      "âĢĿâĢĶ": 8359,
      "ressions": 8360,
      "inda": 8361,
      "rying": 8362,
      "Ġimpart": 8363,
      "Ġimpose": 8364,
      "Ġimpair": 8365,
      "Ġimposed": 8366,
      "Ġimplies": 8367,
      "Ġimposition": 8368,
      "Ġimplicit": 8369,
      "ricted": 8370,
      "riculture": 8371,
      "early": 8372,
      "rue": 8373,
      "achia": 8374,
      "achuse": 8375,
      "ĠThree": 8376,
      "ĠThough": 8377,
      "ĠThank": 8378,
      "Ġincred": 8379,
      "Ġincidence": 8380,
      "Ġgoes": 8381,
      "ensions": 8382,
      "Ġwills": 8383,
      "Ġarbit": 8384,
      "astic": 8385,
      "Ġdisk": 8386,
      "Ġdispers": 8387,
      "Ġdisgra": 8388,
      "Ġdissol": 8389,
      "avan": 8390,
      "ystifying": 8391,
      "ĠKi": 8392,
      "ĠKlam": 8393,
      "ĠKreut": 8394,
      "Ġpeak": 8395,
      "Ġpecul": 8396,
      "Ġmeals": 8397,
      "Ġ1930": 8398,
      "Ġ1912": 8399,
      "Ġ1920": 8400,
      "Ġ1911": 8401,
      "Ġapplying": 8402,
      "Ġpartially": 8403,
      "Ġpartners": 8404,
      "Ġjump": 8405,
      "Ġjoseki": 8406,
      "Ġjurass": 8407,
      "Ġjourney": 8408,
      "Ġoutward": 8409,
      "Ġoutages": 8410,
      "Ġoutcome": 8411,
      "Ġoutlines": 8412,
      "Ġoutraged": 8413,
      "Ġunable": 8414,
      "Ġunfor": 8415,
      "Ġuniver": 8416,
      "Ġunless": 8417,
      "Ġuncer": 8418,
      "Ġunpre": 8419,
      "Ġunconscious": 8420,
      "Ġunsaf": 8421,
      "Ġthereby": 8422,
      "ordable": 8423,
      "Ġpores": 8424,
      "conds": 8425,
      "conceptions": 8426,
      "connected": 8427,
      "cribed": 8428,
      "Ġtrad": 8429,
      "Ġtray": 8430,
      "Ġtract": 8431,
      "Ġtradition": 8432,
      "Ġtrainer": 8433,
      "Ġtragic": 8434,
      "Ġclues": 8435,
      "Ġclinic": 8436,
      "Ġclimb": 8437,
      "Ġclogging": 8438,
      "Ġclerk": 8439,
      "Ġspo": 8440,
      "Ġspot": 8441,
      "Ġspons": 8442,
      "Ġspark": 8443,
      "Ġsphere": 8444,
      "Ġspatial": 8445,
      "ĠStart": 8446,
      "ĠStock": 8447,
      "ĠStret": 8448,
      "ĠStreet": 8449,
      "ĠStandard": 8450,
      "Ġteaches": 8451,
      "ĠItaly": 8452,
      "ĠItalian": 8453,
      "cover": 8454,
      "ritis": 8455,
      "Ġquad": 8456,
      "Ġquiet": 8457,
      "Ġevents": 8458,
      "Ġevident": 8459,
      "orsed": 8460,
      "Ġago": 8461,
      "Ġaging": 8462,
      "Ġagents": 8463,
      "Ġagrees": 8464,
      "Ġagreed": 8465,
      "Ġagonistic": 8466,
      "Ġagriculture": 8467,
      "Ġreprodu": 8468,
      "Ġrepairs": 8469,
      "Ġrepulsions": 8470,
      "Ġrepaired": 8471,
      "Ġcommitted": 8472,
      "Ġtimely": 8473,
      "Ġserving": 8474,
      "Ġserves": 8475,
      "Ġseriously": 8476,
      "Ġsergeant": 8477,
      "Ġobl": 8478,
      "Ġobesity": 8479,
      "Ġ2001": 8480,
      "lown": 8481,
      "Ġspeeds": 8482,
      "ishiki": 8483,
      "Ġhadn": 8484,
      "Ġexpensive": 8485,
      "nings": 8486,
      "ails": 8487,
      "ailable": 8488,
      "Ġemission": 8489,
      "Ġemitted": 8490,
      "Ġemotional": 8491,
      "1952": 8492,
      "1960": 8493,
      "1965": 8494,
      "lications": 8495,
      "Ġacts": 8496,
      "Ġacted": 8497,
      "Ġacting": 8498,
      "Ġactual": 8499,
      "ints": 8500,
      "intensity": 8501,
      "intestinal": 8502,
      "Ġattack": 8503,
      "Ġattitude": 8504,
      "forest": 8505,
      "Ġrow": 8506,
      "Ġroles": 8507,
      "Ġrock": 8508,
      "Ġrolled": 8509,
      "ologist": 8510,
      "Ġneeding": 8511,
      "akheim": 8512,
      "Ġcounts": 8513,
      "Ġconsp": 8514,
      "Ġconsent": 8515,
      "Ġconsol": 8516,
      "Ġconservation": 8517,
      "Ġconspir": 8518,
      "Ġsuppression": 8519,
      "Ġsuppli": 8520,
      "Ġsupporters": 8521,
      "Ġelections": 8522,
      "Ġsave": 8523,
      "Ġrelies": 8524,
      "Ġrelates": 8525,
      "Ġrelocated": 8526,
      "Ġrecall": 8527,
      "Ġscene": 8528,
      "Ġscored": 8529,
      "Ġscaling": 8530,
      "Ġschem": 8531,
      "Ġsculpt": 8532,
      "ĠAlk": 8533,
      "ĠAlan": 8534,
      "ĠAlong": 8535,
      "ĠAlibr": 8536,
      "ĠAlabama": 8537,
      "Ġrefine": 8538,
      "Ġrefined": 8539,
      "Ġrefuse": 8540,
      "Ġrefrig": 8541,
      "Ġrefused": 8542,
      "Ġrefusal": 8543,
      "Ġraw": 8544,
      "Ġraises": 8545,
      "ossary": 8546,
      "ossibilities": 8547,
      "Ġexamine": 8548,
      "Ġexamination": 8549,
      "Ġ42": 8550,
      "Ġ49": 8551,
      "Ġ450": 8552,
      "ansas": 8553,
      "Ġregain": 8554,
      "Ġregener": 8555,
      "Ġherself": 8556,
      "Ġoverhang": 8557,
      "Ġoverwhel": 8558,
      "itty": 8559,
      "Ġfirstname": 8560,
      "iversal": 8561,
      "Ġ36": 8562,
      "Ġ300": 8563,
      "Ġplayground": 8564,
      "Ġplaytime": 8565,
      "Ġarts": 8566,
      "Ġarticles": 8567,
      "Ġartificial": 8568,
      "ĠVienna": 8569,
      "ĠYes": 8570,
      "ĠYet": 8571,
      "ĠYale": 8572,
      "ĠYears": 8573,
      "Ġindication": 8574,
      "Ġindicates": 8575,
      "Ġinstigator": 8576,
      "Ġprovince": 8577,
      "cedented": 8578,
      "Ġformat": 8579,
      "Ġformation": 8580,
      "ĠReed": 8581,
      "ĠReid": 8582,
      "Ġ~/": 8583,
      "Ġcrept": 8584,
      "Ġcreative": 8585,
      "Ġdirects": 8586,
      "Ġdirected": 8587,
      "Ġsurpr": 8588,
      "Ġmetall": 8589,
      "Ġmetocean": 8590,
      "ĠChira": 8591,
      "ĠChowan": 8592,
      "Ġassure": 8593,
      "Ġassists": 8594,
      "Ġasserts": 8595,
      "Ġassumption": 8596,
      ".\"*": 8597,
      "Ġsignals": 8598,
      "Ġsignature": 8599,
      "Ġdecor": 8600,
      "Ġdecom": 8601,
      "Through": 8602,
      "Ġinfused": 8603,
      "Ġcolored": 8604,
      "Ġcollected": 8605,
      "Ġcolumn": 8606,
      "Ġpractition": 8607,
      "Ġpracticing": 8608,
      "Ġtriptych": 8609,
      "Ġtriumvir": 8610,
      "Ġlists": 8611,
      "ĠUns": 8612,
      "ĠUnion": 8613,
      "ualities": 8614,
      "Ġcenters": 8615,
      "Ġspecified": 8616,
      "Ġseeing": 8617,
      "ransitive": 8618,
      "ructural": 8619,
      "Information": 8620,
      "lands": 8621,
      "Ġsmell": 8622,
      "Ġsmartphones": 8623,
      "Ġsimpl": 8624,
      "Ġdistrict": 8625,
      "Ġdistilled": 8626,
      "Ġdistorted": 8627,
      "Ġdownward": 8628,
      "Ġdownload": 8629,
      "ĠIndepend": 8630,
      "Ġevenings": 8631,
      "inson": 8632,
      "angered": 8633,
      "Ġfreight": 8634,
      "Ġdeter": 8635,
      "Ġdetect": 8636,
      "Ġdetected": 8637,
      "Ġsupports": 8638,
      "mering": 8639,
      "Ġownership": 8640,
      "Ġcoast": 8641,
      "Ġcoffee": 8642,
      "ĠHead": 8643,
      "serv": 8644,
      "Ġintervention": 8645,
      "Ġinteriors": 8646,
      "Ġinterplay": 8647,
      "Ġinterconnected": 8648,
      "ĠArchives": 8649,
      "Ġprocessor": 8650,
      "Ġprocessors": 8651,
      "ĠFranks": 8652,
      "Ġshoulders": 8653,
      "teen": 8654,
      "Ġmyth": 8655,
      "ceptible": 8656,
      "urricane": 8657,
      "ĠÂ£": 8658,
      "Ġtransit": 8659,
      "Ġtransition": 8660,
      "Ġtransform": 8661,
      "Ġtranscript": 8662,
      "Ġtranscribers": 8663,
      "Ġrestriction": 8664,
      "Ġgrave": 8665,
      "Ġgraft": 8666,
      "Ġgenerated": 8667,
      "Ġgenerating": 8668,
      "Ġgenerates": 8669,
      "Ġadditive": 8670,
      "Ġaddressed": 8671,
      "Ġfeather": 8672,
      "Ġfeedback": 8673,
      "ĠSergeant": 8674,
      "archical": 8675,
      "Ġapproaches": 8676,
      "Ġapproached": 8677,
      "ratic": 8678,
      "shaped": 8679,
      "Ġtestament": 8680,
      "Ġoperate": 8681,
      "Ġpreschool": 8682,
      "Ġaccessed": 8683,
      "Ġchewing": 8684,
      "Ġchecking": 8685,
      "Ġchecks": 8686,
      "Ġfounder": 8687,
      "Ġeverywhere": 8688,
      "Ġeverybody": 8689,
      "obenzene": 8690,
      "Ġhandful": 8691,
      "ĠProject": 8692,
      "ĠProprietary": 8693,
      "ĠProduction": 8694,
      "ĠProducts": 8695,
      "ĠWeight": 8696,
      "Ġcontinent": 8697,
      "Ġcommunic": 8698,
      "egg": 8699,
      "there": 8700,
      "Ġ82": 8701,
      "Ġ85": 8702,
      "Ġtypically": 8703,
      "Ġcarriage": 8704,
      "Ġbackup": 8705,
      "Ġbackground": 8706,
      "Ġdonated": 8707,
      "Ġrequisite": 8708,
      "Ġdefine": 8709,
      "Ġdefining": 8710,
      "Ġdefined": 8711,
      "Ġdefault": 8712,
      "Ġaccurately": 8713,
      "Ġlocate": 8714,
      "Ġlocated": 8715,
      "Ġlocator": 8716,
      "ĠAdd": 8717,
      "ĠAdvent": 8718,
      "ĠAdeline": 8719,
      "ĠAdvis": 8720,
      "Ġexperiments": 8721,
      "Ġexperimental": 8722,
      "Ġleads": 8723,
      "Ġleaders": 8724,
      "Ġfaced": 8725,
      "ĠAsperger": 8726,
      "Ġeds": 8727,
      "Ġedge": 8728,
      "Ġedition": 8729,
      "Ġedited": 8730,
      "Ġeditors": 8731,
      "Ġcorpor": 8732,
      "Ġcorros": 8733,
      "Ġpositions": 8734,
      "ĠGoddard": 8735,
      "Ġpointy": 8736,
      "Ġactivation": 8737,
      "Ġactivated": 8738,
      "Ġactivists": 8739,
      "aharan": 8740,
      "Ġavowed": 8741,
      "Ġcriminal": 8742,
      "Ġcurls": 8743,
      "Ġcurtail": 8744,
      "Ġfuzz": 8745,
      "Ġlands": 8746,
      "Ġlandmark": 8747,
      "Ġplanetary": 8748,
      "poses": 8749,
      "positive": 8750,
      "volt": 8751,
      "Ġblind": 8752,
      "Ġblue": 8753,
      "Ġblurred": 8754,
      "Ġblocks": 8755,
      "Ġflight": 8756,
      "Ġflame": 8757,
      "Ġflaw": 8758,
      "Ġflares": 8759,
      "arios": 8760,
      "Ġorganized": 8761,
      "Ġorganizing": 8762,
      "ĠBeyond": 8763,
      "ĠBehavi": 8764,
      "Ġexercised": 8765,
      "ĠOctavia": 8766,
      "Ġengage": 8767,
      "Ġengines": 8768,
      "Ġengagement": 8769,
      "blems": 8770,
      "Ġcapabilities": 8771,
      "Ġphalar": 8772,
      "Ġfewer": 8773,
      "Ġmini": 8774,
      "Ġminimum": 8775,
      "Ġresemb": 8776,
      "Ġ69": 8777,
      "Ġendeav": 8778,
      "Ġendorsed": 8779,
      "Ġcourthouse": 8780,
      "Ġfollows": 8781,
      "Ġfollowed": 8782,
      "Ġgrew": 8783,
      "ĠScotland": 8784,
      "Ġmoveable": 8785,
      "Ġhealthier": 8786,
      "Ġ700": 8787,
      "Ġ752": 8788,
      "Ġrealize": 8789,
      "Ġrealized": 8790,
      "Ġgrows": 8791,
      "Ġprojected": 8792,
      "Ġconsidering": 8793,
      "IST": 8794,
      "Ġtemporary": 8795,
      "Ġwriter": 8796,
      "Ġpossibility": 8797,
      "Ġpossibly": 8798,
      "Ġeconomies": 8799,
      "Ġeconomical": 8800,
      "Ġruler": 8801,
      "Ġruns": 8802,
      "Ġobservers": 8803,
      "defined": 8804,
      "Ġsentiment": 8805,
      "Ġsender": 8806,
      "Ġcope": 8807,
      "ĠEnterprise": 8808,
      "Ġprevents": 8809,
      "Ġtrim": 8810,
      "Ġtrinity": 8811,
      "Ġauthorities": 8812,
      "Ġauthoritative": 8813,
      "Ġpope": 8814,
      "Ġdaylight": 8815,
      "ĠExper": 8816,
      "ĠExile": 8817,
      "ĠExposition": 8818,
      "ĠExamples": 8819,
      "ĠExchange": 8820,
      "ĠExecutive": 8821,
      "iveness": 8822,
      "Ġdescribing": 8823,
      "gedly": 8824,
      "ups": 8825,
      "Ġideal": 8826,
      "Ġwarming": 8827,
      "Ġcarefully": 8828,
      "Ġportray": 8829,
      "Ġbright": 8830,
      "Ġdemands": 8831,
      "Ġlargely": 8832,
      "ĠCaptain": 8833,
      "Ġstands": 8834,
      "Ġstandards": 8835,
      "Ġdepended": 8836,
      "Ġdepartment": 8837,
      "Ġdepending": 8838,
      "Ġvisits": 8839,
      "Ġvolunt": 8840,
      "Ġvolatility": 8841,
      "Ġdesignated": 8842,
      "Ġsafer": 8843,
      "ĠArtists": 8844,
      "comes": 8845,
      "Ġswimm": 8846,
      "Ġswoll": 8847,
      "Ġswitch": 8848,
      "Ġsetting": 8849,
      "Ġsettle": 8850,
      "Ġpurification": 8851,
      "Ġanswered": 8852,
      "Ġanswering": 8853,
      "Ġfallen": 8854,
      "Ġtopography": 8855,
      "Ġdiverse": 8856,
      "Ġdivert": 8857,
      "Ġdiameter": 8858,
      "Ġeastern": 8859,
      "Ġeasiest": 8860,
      "Ġprotest": 8861,
      "Ġprotocols": 8862,
      "Ġprogramming": 8863,
      "Ġheaded": 8864,
      "Ġheading": 8865,
      "Ġvalley": 8866,
      "Ġseparation": 8867,
      "Ġcompleting": 8868,
      "Ġpredict": 8869,
      "Ġpredicates": 8870,
      "Ġpredominant": 8871,
      "Ġcontinuing": 8872,
      "Ġtemperatures": 8873,
      "Ġredundant": 8874,
      "Ġbehave": 8875,
      "ĠAny": 8876,
      "epending": 8877,
      "Ġexplained": 8878,
      "Ġexplaining": 8879,
      "Ġexplanation": 8880,
      "Ġlegislation": 8881,
      "Ġcertainly": 8882,
      "Ġ91": 8883,
      "Ġutter": 8884,
      "induced": 8885,
      "Ġopposed": 8886,
      "Ġharder": 8887,
      "Ġhardest": 8888,
      "ĠShi": 8889,
      "ĠShort": 8890,
      "ĠShari": 8891,
      "ĠShinzen": 8892,
      "ĠShareware": 8893,
      "Ġdiscussions": 8894,
      "Ġ1993": 8895,
      "Ġ1997": 8896,
      "Ġ1999": 8897,
      "Ġtechnically": 8898,
      "Ġtechnique": 8899,
      "Ġslipp": 8900,
      "Ġsloping": 8901,
      "Ġslavery": 8902,
      "Ġslitty": 8903,
      "Ġcostly": 8904,
      "Ġbottle": 8905,
      "Ġfilms": 8906,
      "Ġmaintained": 8907,
      "Ġdominant": 8908,
      "ĠSeven": 8909,
      "ĠSeason": 8910,
      "ĠSecond": 8911,
      "ĠSeconds": 8912,
      "Ġprompt": 8913,
      "Ġpromoted": 8914,
      "Ġpromising": 8915,
      "Ġprominent": 8916,
      "Ġprofessions": 8917,
      "Ġprofessors": 8918,
      "Ġprofessionals": 8919,
      "Ġoriginated": 8920,
      "Ġconfir": 8921,
      "Ġconfusing": 8922,
      "Ġ1860": 8923,
      "Ġrisen": 8924,
      "Ġvaries": 8925,
      "ĠEngineers": 8926,
      "ĠInstructor": 8927,
      "Ġimproper": 8928,
      "Ġimproving": 8929,
      "Ġgoods": 8930,
      "Ġprime": 8931,
      "Ġoccurring": 8932,
      "Ġpresentation": 8933,
      "apeake": 8934,
      "Ġidentification": 8935,
      "Ġtablets": 8936,
      "Ġcircul": 8937,
      "Ġcirculating": 8938,
      "Ġcircum": 8939,
      "Ġbattle": 8940,
      "Ġbattles": 8941,
      "Ġbloodshed": 8942,
      "Ġreturning": 8943,
      "Ġlowest": 8944,
      "ĠPhD": 8945,
      "ĠPharm": 8946,
      "ĠPhoen": 8947,
      "Ġexisted": 8948,
      "Ġhappiness": 8949,
      "Ġsuccesses": 8950,
      "Ġshortages": 8951,
      "Ġmajority": 8952,
      "ĠIndians": 8953,
      "ĠPlanck": 8954,
      "ĠPlanetary": 8955,
      "Ġcopyright": 8956,
      "Ġcopyrights": 8957,
      "Ġculturally": 8958,
      "Ġcriter": 8959,
      "Ġpriority": 8960,
      "Ġpriests": 8961,
      "Ġbroad": 8962,
      "Ġbuildings": 8963,
      "ouncing": 8964,
      "Ġdriving": 8965,
      "Ġeligible": 8966,
      "Ġeliminated": 8967,
      "Ġeyeb": 8968,
      "ĠArizonans": 8969,
      "ĠSurge": 8970,
      "ĠConnect": 8971,
      "Ġstarts": 8972,
      "Ġcombination": 8973,
      "Ġ165": 8974,
      "ĠWhit": 8975,
      "ĠWhich": 8976,
      "ĠDojo": 8977,
      "Ġpolymers": 8978,
      "ĠStudent": 8979,
      "Ġdevelopmental": 8980,
      "Ġpolitics": 8981,
      "Ġdetermining": 8982,
      "Star": 8983,
      "Stay": 8984,
      "Students": 8985,
      "balanced": 8986,
      "Ġ02": 8987,
      "Ġ08": 8988,
      "Ġveget": 8989,
      "Ġautism": 8990,
      "Ġautistic": 8991,
      "Ġautomatic": 8992,
      "Ġpetitions": 8993,
      "Ġhomework": 8994,
      "Ġlightning": 8995,
      "ushion": 8996,
      "Ġadvanced": 8997,
      "Ġpaths": 8998,
      "Ġteams": 8999,
      "Ġgravitational": 9000,
      "Ġfeelings": 9001,
      "Also": 9002,
      "Always": 9003,
      "client": 9004,
      "clients": 9005,
      "clusion": 9006,
      "undreds": 9007,
      "Ġtreaty": 9008,
      "Ġtreatments": 9009,
      "Ġpainter": 9010,
      "Ġpainful": 9011,
      "Ġdraft": 9012,
      "Ġdraining": 9013,
      "Ġetiquette": 9014,
      "Ġlaver": 9015,
      "Ġlinear": 9016,
      "ĠTokyo": 9017,
      "ĠCarroll": 9018,
      "ĠCarneg": 9019,
      "ĠMrs": 9020,
      "ĠMorrow": 9021,
      "ĠMorales": 9022,
      "Ġheaviest": 9023,
      "Ġ1500": 9024,
      "Ġchoices": 9025,
      "ĠLeaves": 9026,
      "Ġresulting": 9027,
      "Ġargument": 9028,
      "Ġarguing": 9029,
      "Ġ1980": 9030,
      "Ġ1982": 9031,
      "Ġ1988": 9032,
      "Ġtraveling": 9033,
      "Ġinfluential": 9034,
      "Ġinfluenced": 9035,
      "valence": 9036,
      "ĠZone": 9037,
      "ĠZany": 9038,
      "ĠZakheim": 9039,
      "Ġversus": 9040,
      "Ġschools": 9041,
      "Ġinsist": 9042,
      "Ġmainly": 9043,
      "Ġdrink": 9044,
      "Ġyounger": 9045,
      "Therefore": 9046,
      "Ġplacement": 9047,
      "Ġensures": 9048,
      "Ġensuring": 9049,
      "Ġcomplexity": 9050,
      "Ġinterested": 9051,
      "1986": 9052,
      "Ġspecification": 9053,
      "Ġspecifications": 9054,
      "Ġaddresses": 9055,
      "Ġengineers": 9056,
      "Ġrepresented": 9057,
      "Ġvaccines": 9058,
      "Ġvaccinated": 9059,
      "Ġterrarium": 9060,
      "Ġtendon": 9061,
      "Ġbursts": 9062,
      "Ġmurd": 9063,
      "Ġmissed": 9064,
      "Ġdignified": 9065,
      "idespread": 9066,
      "ĠClub": 9067,
      "Ġstronger": 9068,
      "Ġdeaths": 9069,
      "Ġrespective": 9070,
      "Ġdefinite": 9071,
      "Ġquestionable": 9072,
      "127": 9073,
      "aze": 9074,
      "azy": 9075,
      "gressive": 9076,
      "ĠXV": 9077,
      "ĠXIV": 9078,
      "Ġurge": 9079,
      "Ġurinated": 9080,
      "Ġurban": 9081,
      "Ġuranium": 9082,
      "reliant": 9083,
      "Ġborne": 9084,
      "Ġfishing": 9085,
      "Ġinvolving": 9086,
      "Ġreactive": 9087,
      "Ġreactants": 9088,
      "Ġstrengthen": 9089,
      "Ġviable": 9090,
      "Ġposts": 9091,
      "Ġposted": 9092,
      "Ġposters": 9093,
      "Ġattachments": 9094,
      "Ġrecognition": 9095,
      "Ġrecognized": 9096,
      "ĠReader": 9097,
      "Ġtransported": 9098,
      "Ġreasonable": 9099,
      "Ġpetitioners": 9100,
      "Ġradius": 9101,
      "Ġbenefit": 9102,
      "Ġbenefits": 9103,
      "lorious": 9104,
      "metallic": 9105,
      "metocean": 9106,
      "yrinth": 9107,
      "ĠQualities": 9108,
      "Ġtalent": 9109,
      "Ġtalking": 9110,
      "Ġtruly": 9111,
      "Ġopening": 9112,
      "Ġsensor": 9113,
      "Ġsensors": 9114,
      "Ġharsh": 9115,
      "Ġguilt": 9116,
      "Ġguilty": 9117,
      "Ġgenes": 9118,
      "Ġgenetic": 9119,
      "Ġgenocide": 9120,
      "ĠAssessment": 9121,
      "ĠSystems": 9122,
      "Ġconversion": 9123,
      "ĠPerhaps": 9124,
      "opsis": 9125,
      "Ġdegrees": 9126,
      "ĠDisorder": 9127,
      "ĠDisney": 9128,
[...]
